{
  "version": "1.0",
  "truncation": null,
  "padding": null,
  "added_tokens": [
    {
      "id": 0,
      "content": "[PAD]",
      "single_word": false,
      "lstrip": false,
      "rstrip": false,
      "normalized": false,
      "special": true
    },
    {
      "id": 1,
      "content": "[UNK]",
      "single_word": false,
      "lstrip": false,
      "rstrip": false,
      "normalized": false,
      "special": true
    },
    {
      "id": 2,
      "content": "[CLS]",
      "single_word": false,
      "lstrip": false,
      "rstrip": false,
      "normalized": false,
      "special": true
    },
    {
      "id": 3,
      "content": "[SEP]",
      "single_word": false,
      "lstrip": false,
      "rstrip": false,
      "normalized": false,
      "special": true
    },
    {
      "id": 4,
      "content": "[MASK]",
      "single_word": false,
      "lstrip": false,
      "rstrip": false,
      "normalized": false,
      "special": true
    }
  ],
  "normalizer": {
    "type": "BertNormalizer",
    "clean_text": true,
    "handle_chinese_chars": true,
    "strip_accents": null,
    "lowercase": true
  },
  "pre_tokenizer": {
    "type": "BertPreTokenizer"
  },
  "post_processor": {
    "type": "TemplateProcessing",
    "single": [
      {
        "SpecialToken": {
          "id": "[CLS]",
          "type_id": 0
        }
      },
      {
        "Sequence": {
          "id": "A",
          "type_id": 0
        }
      },
      {
        "SpecialToken": {
          "id": "[SEP]",
          "type_id": 0
        }
      }
    ],
    "pair": [
      {
        "SpecialToken": {
          "id": "[CLS]",
          "type_id": 0
        }
      },
      {
        "Sequence": {
          "id": "A",
          "type_id": 0
        }
      },
      {
        "SpecialToken": {
          "id": "[SEP]",
          "type_id": 0
        }
      },
      {
        "Sequence": {
          "id": "B",
          "type_id": 1
        }
      },
      {
        "SpecialToken": {
          "id": "[SEP]",
          "type_id": 1
        }
      }
    ],
    "special_tokens": {
      "[CLS]": {
        "id": "[CLS]",
        "ids": [
          2
        ],
        "tokens": [
          "[CLS]"
        ]
      },
      "[SEP]": {
        "id": "[SEP]",
        "ids": [
          3
        ],
        "tokens": [
          "[SEP]"
        ]
      }
    }
  },
  "decoder": {
    "type": "WordPiece",
    "prefix": "##",
    "cleanup": true
  },
  "model": {
    "type": "WordPiece",
    "unk_token": "[UNK]",
    "continuing_subword_prefix": "##",
    "max_input_chars_per_word": 100,
    "vocab": {
      "[PAD]": 0,
      "[UNK]": 1,
      "[CLS]": 2,
      "[SEP]": 3,
      "[MASK]": 4,
      "!": 5,
      "\"": 6,
      "#": 7,
      "$": 8,
      "%": 9,
      "&": 10,
      "'": 11,
      "(": 12,
      ")": 13,
      "*": 14,
      "+": 15,
      ",": 16,
      "-": 17,
      ".": 18,
      "/": 19,
      "0": 20,
      "1": 21,
      "2": 22,
      "3": 23,
      "4": 24,
      "5": 25,
      "6": 26,
      "7": 27,
      "8": 28,
      "9": 29,
      ":": 30,
      ";": 31,
      "<": 32,
      "=": 33,
      ">": 34,
      "?": 35,
      "@": 36,
      "[": 37,
      "\\": 38,
      "]": 39,
      "^": 40,
      "_": 41,
      "`": 42,
      "a": 43,
      "b": 44,
      "c": 45,
      "d": 46,
      "e": 47,
      "f": 48,
      "g": 49,
      "h": 50,
      "i": 51,
      "j": 52,
      "k": 53,
      "l": 54,
      "m": 55,
      "n": 56,
      "o": 57,
      "p": 58,
      "q": 59,
      "r": 60,
      "s": 61,
      "t": 62,
      "u": 63,
      "v": 64,
      "w": 65,
      "x": 66,
      "y": 67,
      "z": 68,
      "{": 69,
      "|": 70,
      "}": 71,
      "~": 72,
      "¡": 73,
      "¢": 74,
      "£": 75,
      "¤": 76,
      "¥": 77,
      "¦": 78,
      "§": 79,
      "¨": 80,
      "©": 81,
      "«": 82,
      "¬": 83,
      "®": 84,
      "¯": 85,
      "°": 86,
      "±": 87,
      "²": 88,
      "³": 89,
      "´": 90,
      "µ": 91,
      "¶": 92,
      "·": 93,
      "¸": 94,
      "¹": 95,
      "º": 96,
      "»": 97,
      "¼": 98,
      "½": 99,
      "¾": 100,
      "¿": 101,
      "×": 102,
      "ß": 103,
      "æ": 104,
      "ð": 105,
      "÷": 106,
      "ø": 107,
      "þ": 108,
      "ħ": 109,
      "ı": 110,
      "ł": 111,
      "œ": 112,
      "ƒ": 113,
      "ə": 114,
      "ʻ": 115,
      "ʼ": 116,
      "ˈ": 117,
      "˚": 118,
      "˜": 119,
      "͵": 120,
      "α": 121,
      "β": 122,
      "γ": 123,
      "δ": 124,
      "ε": 125,
      "η": 126,
      "θ": 127,
      "ι": 128,
      "κ": 129,
      "λ": 130,
      "μ": 131,
      "ν": 132,
      "ο": 133,
      "π": 134,
      "ρ": 135,
      "ς": 136,
      "σ": 137,
      "τ": 138,
      "υ": 139,
      "φ": 140,
      "ω": 141,
      "а": 142,
      "б": 143,
      "в": 144,
      "г": 145,
      "д": 146,
      "е": 147,
      "ж": 148,
      "з": 149,
      "и": 150,
      "к": 151,
      "л": 152,
      "м": 153,
      "н": 154,
      "о": 155,
      "п": 156,
      "р": 157,
      "с": 158,
      "т": 159,
      "у": 160,
      "ф": 161,
      "х": 162,
      "ц": 163,
      "ч": 164,
      "ш": 165,
      "щ": 166,
      "ы": 167,
      "ь": 168,
      "ю": 169,
      "я": 170,
      "і": 171,
      "։": 172,
      "א": 173,
      "ב": 174,
      "ה": 175,
      "ו": 176,
      "י": 177,
      "ל": 178,
      "מ": 179,
      "ר": 180,
      "ש": 181,
      "ת": 182,
      "،": 183,
      "ء": 184,
      "ا": 185,
      "ب": 186,
      "ة": 187,
      "ت": 188,
      "ث": 189,
      "ج": 190,
      "ح": 191,
      "خ": 192,
      "د": 193,
      "ذ": 194,
      "ر": 195,
      "ز": 196,
      "س": 197,
      "ش": 198,
      "ص": 199,
      "ض": 200,
      "ط": 201,
      "ظ": 202,
      "ع": 203,
      "غ": 204,
      "ف": 205,
      "ق": 206,
      "ك": 207,
      "ل": 208,
      "م": 209,
      "ن": 210,
      "ه": 211,
      "و": 212,
      "ى": 213,
      "ي": 214,
      "پ": 215,
      "ک": 216,
      "ی": 217,
      "अ": 218,
      "आ": 219,
      "इ": 220,
      "ई": 221,
      "उ": 222,
      "ए": 223,
      "औ": 224,
      "क": 225,
      "ख": 226,
      "ग": 227,
      "च": 228,
      "छ": 229,
      "ज": 230,
      "ट": 231,
      "ठ": 232,
      "ड": 233,
      "ण": 234,
      "त": 235,
      "थ": 236,
      "द": 237,
      "ध": 238,
      "न": 239,
      "प": 240,
      "फ": 241,
      "ब": 242,
      "भ": 243,
      "म": 244,
      "य": 245,
      "र": 246,
      "ल": 247,
      "व": 248,
      "श": 249,
      "ष": 250,
      "स": 251,
      "ह": 252,
      "ा": 253,
      "ि": 254,
      "ी": 255,
      "ो": 256,
      "।": 257,
      "॥": 258,
      "ক": 259,
      "ন": 260,
      "প": 261,
      "ম": 262,
      "র": 263,
      "শ": 264,
      "স": 265,
      "ঽ": 266,
      "া": 267,
      "০": 268,
      "১": 269,
      "২": 270,
      "৩": 271,
      "৪": 272,
      "৫": 273,
      "৬": 274,
      "৭": 275,
      "৮": 276,
      "৯": 277,
      "৲": 278,
      "৳": 279,
      "৹": 280,
      "৺": 281,
      "க": 282,
      "ச": 283,
      "ட": 284,
      "த": 285,
      "ந": 286,
      "ன": 287,
      "ப": 288,
      "ம": 289,
      "ய": 290,
      "ர": 291,
      "ற": 292,
      "ல": 293,
      "ள": 294,
      "வ": 295,
      "ா": 296,
      "ி": 297,
      "ு": 298,
      "ே": 299,
      "ை": 300,
      "ᄀ": 301,
      "ᄂ": 302,
      "ᄃ": 303,
      "ᄅ": 304,
      "ᄆ": 305,
      "ᄇ": 306,
      "ᄉ": 307,
      "ᄋ": 308,
      "ᄌ": 309,
      "ᄎ": 310,
      "ᄐ": 311,
      "ᄑ": 312,
      "ᄒ": 313,
      "ᅡ": 314,
      "ᅢ": 315,
      "ᅥ": 316,
      "ᅦ": 317,
      "ᅧ": 318,
      "ᅩ": 319,
      "ᅪ": 320,
      "ᅮ": 321,
      "ᅳ": 322,
      "ᅴ": 323,
      "ᅵ": 324,
      "ᆨ": 325,
      "ᆫ": 326,
      "ᆯ": 327,
      "ᆷ": 328,
      "ᆸ": 329,
      "ᆻ": 330,
      "ᆼ": 331,
      "‐": 332,
      "‑": 333,
      "‒": 334,
      "–": 335,
      "—": 336,
      "―": 337,
      "‘": 338,
      "’": 339,
      "‚": 340,
      "“": 341,
      "”": 342,
      "„": 343,
      "†": 344,
      "•": 345,
      "…": 346,
      "′": 347,
      "″": 348,
      "‹": 349,
      "›": 350,
      "‼": 351,
      "⁄": 352,
      "⁰": 353,
      "₂": 354,
      "₃": 355,
      "€": 356,
      "₹": 357,
      "⃣": 358,
      "ℓ": 359,
      "℠": 360,
      "™": 361,
      "⅓": 362,
      "⅔": 363,
      "←": 364,
      "→": 365,
      "↓": 366,
      "↪": 367,
      "−": 368,
      "√": 369,
      "≤": 370,
      "≥": 371,
      "⏰": 372,
      "ⓐ": 373,
      "ⓘ": 374,
      "ⓛ": 375,
      "ⓟ": 376,
      "ⓢ": 377,
      "ⓣ": 378,
      "─": 379,
      "■": 380,
      "▪": 381,
      "▶": 382,
      "▸": 383,
      "►": 384,
      "◄": 385,
      "○": 386,
      "●": 387,
      "☀": 388,
      "★": 389,
      "☆": 390,
      "☕": 391,
      "☘": 392,
      "☝": 393,
      "☠": 394,
      "☺": 395,
      "♀": 396,
      "♂": 397,
      "♠": 398,
      "♡": 399,
      "♣": 400,
      "♥": 401,
      "♦": 402,
      "⚡": 403,
      "⚪": 404,
      "⚽": 405,
      "⚾": 406,
      "✅": 407,
      "✈": 408,
      "✊": 409,
      "✌": 410,
      "✓": 411,
      "✔": 412,
      "✘": 413,
      "✞": 414,
      "✤": 415,
      "✨": 416,
      "✪": 417,
      "✭": 418,
      "✰": 419,
      "❄": 420,
      "❌": 421,
      "❖": 422,
      "❗": 423,
      "❤": 424,
      "❥": 425,
      "➜": 426,
      "➡": 427,
      "⠀": 428,
      "⬇": 429,
      "⭐": 430,
      "、": 431,
      "。": 432,
      "「": 433,
      "」": 434,
      "あ": 435,
      "い": 436,
      "う": 437,
      "え": 438,
      "お": 439,
      "か": 440,
      "き": 441,
      "く": 442,
      "け": 443,
      "こ": 444,
      "さ": 445,
      "し": 446,
      "す": 447,
      "せ": 448,
      "そ": 449,
      "た": 450,
      "ち": 451,
      "っ": 452,
      "つ": 453,
      "て": 454,
      "と": 455,
      "な": 456,
      "に": 457,
      "の": 458,
      "は": 459,
      "ほ": 460,
      "ま": 461,
      "み": 462,
      "も": 463,
      "ゃ": 464,
      "ょ": 465,
      "よ": 466,
      "ら": 467,
      "り": 468,
      "る": 469,
      "れ": 470,
      "ろ": 471,
      "わ": 472,
      "を": 473,
      "ん": 474,
      "ク": 475,
      "ツ": 476,
      "ト": 477,
      "ラ": 478,
      "リ": 479,
      "ル": 480,
      "ン": 481,
      "・": 482,
      "ー": 483,
      "ㅤ": 484,
      "一": 485,
      "三": 486,
      "上": 487,
      "下": 488,
      "不": 489,
      "世": 490,
      "业": 491,
      "东": 492,
      "並": 493,
      "个": 494,
      "中": 495,
      "为": 496,
      "主": 497,
      "之": 498,
      "九": 499,
      "也": 500,
      "了": 501,
      "事": 502,
      "二": 503,
      "于": 504,
      "些": 505,
      "产": 506,
      "京": 507,
      "人": 508,
      "今": 509,
      "他": 510,
      "以": 511,
      "们": 512,
      "任": 513,
      "但": 514,
      "位": 515,
      "低": 516,
      "何": 517,
      "作": 518,
      "來": 519,
      "例": 520,
      "供": 521,
      "保": 522,
      "信": 523,
      "個": 524,
      "們": 525,
      "偉": 526,
      "元": 527,
      "光": 528,
      "入": 529,
      "內": 530,
      "全": 531,
      "公": 532,
      "共": 533,
      "其": 534,
      "出": 535,
      "分": 536,
      "利": 537,
      "到": 538,
      "制": 539,
      "前": 540,
      "劉": 541,
      "力": 542,
      "加": 543,
      "务": 544,
      "動": 545,
      "務": 546,
      "包": 547,
      "化": 548,
      "北": 549,
      "區": 550,
      "十": 551,
      "卐": 552,
      "南": 553,
      "博": 554,
      "原": 555,
      "去": 556,
      "及": 557,
      "反": 558,
      "发": 559,
      "口": 560,
      "句": 561,
      "可": 562,
      "台": 563,
      "司": 564,
      "合": 565,
      "同": 566,
      "名": 567,
      "向": 568,
      "吳": 569,
      "告": 570,
      "和": 571,
      "品": 572,
      "哲": 573,
      "售": 574,
      "商": 575,
      "嘉": 576,
      "回": 577,
      "因": 578,
      "国": 579,
      "國": 580,
      "園": 581,
      "團": 582,
      "在": 583,
      "地": 584,
      "型": 585,
      "城": 586,
      "基": 587,
      "報": 588,
      "場": 589,
      "增": 590,
      "外": 591,
      "多": 592,
      "大": 593,
      "天": 594,
      "她": 595,
      "好": 596,
      "如": 597,
      "子": 598,
      "學": 599,
      "安": 600,
      "宏": 601,
      "定": 602,
      "客": 603,
      "家": 604,
      "将": 605,
      "將": 606,
      "對": 607,
      "導": 608,
      "小": 609,
      "少": 610,
      "就": 611,
      "局": 612,
      "展": 613,
      "山": 614,
      "州": 615,
      "工": 616,
      "已": 617,
      "市": 618,
      "布": 619,
      "常": 620,
      "平": 621,
      "年": 622,
      "府": 623,
      "度": 624,
      "康": 625,
      "建": 626,
      "式": 627,
      "張": 628,
      "強": 629,
      "影": 630,
      "後": 631,
      "徐": 632,
      "得": 633,
      "德": 634,
      "心": 635,
      "志": 636,
      "性": 637,
      "您": 638,
      "情": 639,
      "惠": 640,
      "意": 641,
      "應": 642,
      "成": 643,
      "我": 644,
      "或": 645,
      "戰": 646,
      "所": 647,
      "投": 648,
      "持": 649,
      "指": 650,
      "控": 651,
      "提": 652,
      "支": 653,
      "收": 654,
      "政": 655,
      "教": 656,
      "數": 657,
      "文": 658,
      "新": 659,
      "方": 660,
      "於": 661,
      "日": 662,
      "明": 663,
      "星": 664,
      "是": 665,
      "時": 666,
      "景": 667,
      "更": 668,
      "最": 669,
      "會": 670,
      "月": 671,
      "有": 672,
      "服": 673,
      "望": 674,
      "朝": 675,
      "期": 676,
      "本": 677,
      "李": 678,
      "来": 679,
      "東": 680,
      "极": 681,
      "林": 682,
      "果": 683,
      "柯": 684,
      "條": 685,
      "楊": 686,
      "業": 687,
      "樂": 688,
      "模": 689,
      "機": 690,
      "款": 691,
      "正": 692,
      "此": 693,
      "段": 694,
      "比": 695,
      "民": 696,
      "水": 697,
      "永": 698,
      "沒": 699,
      "法": 700,
      "海": 701,
      "深": 702,
      "清": 703,
      "港": 704,
      "源": 705,
      "準": 706,
      "灣": 707,
      "為": 708,
      "物": 709,
      "特": 710,
      "率": 711,
      "玉": 712,
      "王": 713,
      "現": 714,
      "理": 715,
      "生": 716,
      "產": 717,
      "用": 718,
      "由": 719,
      "發": 720,
      "的": 721,
      "目": 722,
      "相": 723,
      "看": 724,
      "石": 725,
      "示": 726,
      "社": 727,
      "私": 728,
      "科": 729,
      "租": 730,
      "立": 731,
      "第": 732,
      "等": 733,
      "管": 734,
      "系": 735,
      "約": 736,
      "級": 737,
      "經": 738,
      "繼": 739,
      "續": 740,
      "级": 741,
      "经": 742,
      "绿": 743,
      "美": 744,
      "義": 745,
      "習": 746,
      "者": 747,
      "而": 748,
      "聞": 749,
      "股": 750,
      "育": 751,
      "能": 752,
      "自": 753,
      "至": 754,
      "與": 755,
      "舞": 756,
      "花": 757,
      "英": 758,
      "華": 759,
      "蔡": 760,
      "行": 761,
      "表": 762,
      "被": 763,
      "西": 764,
      "要": 765,
      "視": 766,
      "計": 767,
      "許": 768,
      "評": 769,
      "詞": 770,
      "該": 771,
      "誉": 772,
      "認": 773,
      "說": 774,
      "譽": 775,
      "讀": 776,
      "變": 777,
      "评": 778,
      "費": 779,
      "資": 780,
      "賴": 781,
      "资": 782,
      "起": 783,
      "超": 784,
      "路": 785,
      "車": 786,
      "近": 787,
      "这": 788,
      "這": 789,
      "通": 790,
      "週": 791,
      "進": 792,
      "過": 793,
      "道": 794,
      "遠": 795,
      "還": 796,
      "部": 797,
      "都": 798,
      "鄭": 799,
      "重": 800,
      "量": 801,
      "金": 802,
      "銀": 803,
      "鋼": 804,
      "長": 805,
      "開": 806,
      "間": 807,
      "閱": 808,
      "關": 809,
      "间": 810,
      "限": 811,
      "院": 812,
      "陳": 813,
      "險": 814,
      "隱": 815,
      "集": 816,
      "電": 817,
      "面": 818,
      "頭": 819,
      "類": 820,
      "项": 821,
      "風": 822,
      "館": 823,
      "馆": 824,
      "首": 825,
      "馬": 826,
      "體": 827,
      "高": 828,
      "鴻": 829,
      "黃": 830,
      "點": 831,
      "ﬀ": 832,
      "ﬁ": 833,
      "ﬂ": 834,
      "（": 835,
      "）": 836,
      "，": 837,
      "－": 838,
      "：": 839,
      "？": 840,
      "ａ": 841,
      "ｈ": 842,
      "￼": 843,
      "🇦": 844,
      "🇧": 845,
      "🇨": 846,
      "🇩": 847,
      "🇪": 848,
      "🇫": 849,
      "🇬": 850,
      "🇭": 851,
      "🇮": 852,
      "🇯": 853,
      "🇲": 854,
      "🇳": 855,
      "🇵": 856,
      "🇷": 857,
      "🇸": 858,
      "🇹": 859,
      "🇺": 860,
      "🇿": 861,
      "🌈": 862,
      "🌊": 863,
      "🌟": 864,
      "🌭": 865,
      "🌴": 866,
      "🌸": 867,
      "🌹": 868,
      "🌺": 869,
      "🌻": 870,
      "🍋": 871,
      "🍒": 872,
      "🍩": 873,
      "🍷": 874,
      "🍺": 875,
      "🍻": 876,
      "🍾": 877,
      "🎂": 878,
      "🎄": 879,
      "🎅": 880,
      "🎈": 881,
      "🎉": 882,
      "🎊": 883,
      "🎟": 884,
      "🎤": 885,
      "🎥": 886,
      "🎵": 887,
      "🎶": 888,
      "🏀": 889,
      "🏆": 890,
      "🏈": 891,
      "🏴": 892,
      "🏻": 893,
      "🏼": 894,
      "🏽": 895,
      "🏾": 896,
      "🏿": 897,
      "🐘": 898,
      "🐝": 899,
      "🐣": 900,
      "🐰": 901,
      "🐶": 902,
      "🐻": 903,
      "🐾": 904,
      "👀": 905,
      "👅": 906,
      "👇": 907,
      "👉": 908,
      "👊": 909,
      "👋": 910,
      "👌": 911,
      "👍": 912,
      "👎": 913,
      "👏": 914,
      "👑": 915,
      "👧": 916,
      "👩": 917,
      "👶": 918,
      "💀": 919,
      "💁": 920,
      "💃": 921,
      "💋": 922,
      "💍": 923,
      "💎": 924,
      "💔": 925,
      "💕": 926,
      "💖": 927,
      "💗": 928,
      "💘": 929,
      "💙": 930,
      "💚": 931,
      "💛": 932,
      "💜": 933,
      "💞": 934,
      "💥": 935,
      "💦": 936,
      "💩": 937,
      "💪": 938,
      "💫": 939,
      "💯": 940,
      "📰": 941,
      "📷": 942,
      "📸": 943,
      "📺": 944,
      "🔊": 945,
      "🔘": 946,
      "🔜": 947,
      "🔥": 948,
      "🔴": 949,
      "🔵": 950,
      "🕺": 951,
      "🖤": 952,
      "🗣": 953,
      "🗽": 954,
      "😀": 955,
      "😁": 956,
      "😂": 957,
      "😃": 958,
      "😅": 959,
      "😆": 960,
      "😇": 961,
      "😈": 962,
      "😉": 963,
      "😊": 964,
      "😍": 965,
      "😎": 966,
      "😏": 967,
      "😒": 968,
      "😔": 969,
      "😘": 970,
      "😜": 971,
      "😡": 972,
      "😢": 973,
      "😣": 974,
      "😩": 975,
      "😪": 976,
      "😬": 977,
      "😭": 978,
      "😮": 979,
      "😱": 980,
      "😳": 981,
      "🙂": 982,
      "🙄": 983,
      "🙈": 984,
      "🙋": 985,
      "🙌": 986,
      "🙏": 987,
      "🚀": 988,
      "🚨": 989,
      "🚮": 990,
      "🤔": 991,
      "🤗": 992,
      "🤘": 993,
      "🤙": 994,
      "🤣": 995,
      "🤦": 996,
      "🤶": 997,
      "🤷": 998,
      "🥇": 999,
      "🥜": 1000,
      "🥤": 1001,
      "🦁": 1002,
      "🦄": 1003,
      "🦋": 1004,
      "##o": 1005,
      "##g": 1006,
      "##n": 1007,
      "##e": 1008,
      "##s": 1009,
      "##t": 1010,
      "##a": 1011,
      "##d": 1012,
      "##y": 1013,
      "##c": 1014,
      "##l": 1015,
      "##i": 1016,
      "##b": 1017,
      "##j": 1018,
      "##u": 1019,
      "##r": 1020,
      "##m": 1021,
      "##h": 1022,
      "##8": 1023,
      "##f": 1024,
      "##v": 1025,
      "##5": 1026,
      "##☀": 1027,
      "##p": 1028,
      "##k": 1029,
      "##x": 1030,
      "##w": 1031,
      "##0": 1032,
      "##9": 1033,
      "##1": 1034,
      "##z": 1035,
      "##3": 1036,
      "##6": 1037,
      "##7": 1038,
      "##4": 1039,
      "##°": 1040,
      "##2": 1041,
      "##q": 1042,
      "##🏾": 1043,
      "##©": 1044,
      "##🤗": 1045,
      "##æ": 1046,
      "##😭": 1047,
      "##🖤": 1048,
      "##¤": 1049,
      "##¸": 1050,
      "##ð": 1051,
      "##€": 1052,
      "##™": 1053,
      "##क": 1054,
      "##ि": 1055,
      "##त": 1056,
      "##🏽": 1057,
      "##♀": 1058,
      "##🤦": 1059,
      "##य": 1060,
      "##🏻": 1061,
      "##🌴": 1062,
      "##り": 1063,
      "##か": 1064,
      "##と": 1065,
      "##う": 1066,
      "##こ": 1067,
      "##さ": 1068,
      "##い": 1069,
      "##ま": 1070,
      "##し": 1071,
      "##た": 1072,
      "##🇬": 1073,
      "##🇷": 1074,
      "##🇸": 1075,
      "##ن": 1076,
      "##ا": 1077,
      "##ك": 1078,
      "##®": 1079,
      "##ø": 1080,
      "##а": 1081,
      "##з": 1082,
      "##р": 1083,
      "##е": 1084,
      "##и": 1085,
      "##л": 1086,
      "##न": 1087,
      "##🎤": 1088,
      "##な": 1089,
      "##ł": 1090,
      "##ा": 1091,
      "##र": 1092,
      "##ट": 1093,
      "##ी": 1094,
      "##ش": 1095,
      "##ي": 1096,
      "##ل": 1097,
      "##ت": 1098,
      "##д": 1099,
      "##😇": 1100,
      "##ᅳ": 1101,
      "##ᄀ": 1102,
      "##ᅩ": 1103,
      "##¢": 1104,
      "##💘": 1105,
      "##❤": 1106,
      "##´": 1107,
      "##☆": 1108,
      "##¾": 1109,
      "##😘": 1110,
      "##💪": 1111,
      "##ع": 1112,
      "##ر": 1113,
      "##و": 1114,
      "##ب": 1115,
      "##ة": 1116,
      "##व": 1117,
      "##ो": 1118,
      "##च": 1119,
      "##ق": 1120,
      "##♥": 1121,
      "##¥": 1122,
      "##♣": 1123,
      "##о": 1124,
      "##у": 1125,
      "##م": 1126,
      "##س": 1127,
      "##⅓": 1128,
      "##ض": 1129,
      "##💔": 1130,
      "##🎉": 1131,
      "##ו": 1132,
      "##ר": 1133,
      "##ל": 1134,
      "##🎊": 1135,
      "##🙏": 1136,
      "##🍷": 1137,
      "##🇹": 1138,
      "##🌹": 1139,
      "##👏": 1140,
      "##µ": 1141,
      "##ᆫ": 1142,
      "##ᄉ": 1143,
      "##ᄋ": 1144,
      "##ᅮ": 1145,
      "##😅": 1146,
      "##ح": 1147,
      "##×": 1148,
      "##म": 1149,
      "##🏼": 1150,
      "##て": 1151,
      "##🏆": 1152,
      "##る": 1153,
      "##も": 1154,
      "##あ": 1155,
      "##よ": 1156,
      "##す": 1157,
      "##☕": 1158,
      "##ு": 1159,
      "##த": 1160,
      "##வ": 1161,
      "##ி": 1162,
      "##ம": 1163,
      "##ா": 1164,
      "##ன": 1165,
      "##ர": 1166,
      "##ை": 1167,
      "##ய": 1168,
      "##ற": 1169,
      "##க": 1170,
      "##ள": 1171,
      "##ப": 1172,
      "##ط": 1173,
      "##ه": 1174,
      "##ج": 1175,
      "##ف": 1176,
      "##د": 1177,
      "##प": 1178,
      "##ल": 1179,
      "##ᅵ": 1180,
      "##ᆻ": 1181,
      "##ᄃ": 1182,
      "##ᄅ": 1183,
      "##ᆨ": 1184,
      "##छ": 1185,
      "##с": 1186,
      "##т": 1187,
      "##я": 1188,
      "##щ": 1189,
      "##غ": 1190,
      "##ы": 1191,
      "##ظ": 1192,
      "##ى": 1193,
      "##ᄒ": 1194,
      "##ᅡ": 1195,
      "##🇳": 1196,
      "##ே": 1197,
      "##ث": 1198,
      "##º": 1199,
      "##😁": 1200,
      "##🙄": 1201,
      "##😎": 1202,
      "##ز": 1203,
      "##ʻ": 1204,
      "##⁄": 1205,
      "##ß": 1206,
      "##👩": 1207,
      "##ᅥ": 1208,
      "##ᆷ": 1209,
      "##ᄇ": 1210,
      "##🐻": 1211,
      "##✅": 1212,
      "##г": 1213,
      "##ф": 1214,
      "##👑": 1215,
      "##ص": 1216,
      "##💫": 1217,
      "##स": 1218,
      "##β": 1219,
      "##द": 1220,
      "##श": 1221,
      "##ह": 1222,
      "##ذ": 1223,
      "##½": 1224,
      "##к": 1225,
      "##👍": 1226,
      "##в": 1227,
      "##α": 1228,
      "##σ": 1229,
      "##ι": 1230,
      "##λ": 1231,
      "##ο": 1232,
      "##π": 1233,
      "##υ": 1234,
      "##н": 1235,
      "##£": 1236,
      "##✔": 1237,
      "##خ": 1238,
      "##²": 1239,
      "##✪": 1240,
      "##ב": 1241,
      "##י": 1242,
      "##け": 1243,
      "##ょ": 1244,
      "##¨": 1245,
      "##😂": 1246,
      "##œ": 1247,
      "##ʼ": 1248,
      "##🎅": 1249,
      "##🌻": 1250,
      "##😍": 1251,
      "##💍": 1252,
      "##の": 1253,
      "##ь": 1254,
      "##🇪": 1255,
      "##🇺": 1256,
      "##τ": 1257,
      "##ρ": 1258,
      "##ε": 1259,
      "##ω": 1260,
      "##ん": 1261,
      "##💞": 1262,
      "##😊": 1263,
      "##ध": 1264,
      "##ब": 1265,
      "##ᄌ": 1266,
      "##ء": 1267,
      "##ی": 1268,
      "##え": 1269,
      "##і": 1270,
      "##🌺": 1271,
      "##♂": 1272,
      "##ᅢ": 1273,
      "##ᄑ": 1274,
      "##ᅧ": 1275,
      "##ᆼ": 1276,
      "##ᄂ": 1277,
      "##ज": 1278,
      "##★": 1279,
      "##ᆯ": 1280,
      "##ख": 1281,
      "##¦": 1282,
      "##→": 1283,
      "##き": 1284,
      "##🌈": 1285,
      "##🦋": 1286,
      "##🐰": 1287,
      "##💖": 1288,
      "##🔴": 1289,
      "##⚪": 1290,
      "##±": 1291,
      "##✨": 1292,
      "##👊": 1293,
      "##ठ": 1294,
      "##ड": 1295,
      "##❌": 1296,
      "##✞": 1297,
      "##ᅦ": 1298,
      "##ᄆ": 1299,
      "##−": 1300,
      "##⚽": 1301,
      "##れ": 1302,
      "##は": 1303,
      "##￼": 1304,
      "##м": 1305,
      "##ш": 1306,
      "##🏿": 1307,
      "##🇨": 1308,
      "##🇿": 1309,
      "##п": 1310,
      "##💛": 1311,
      "##🇧": 1312,
      "##¼": 1313,
      "##⃣": 1314,
      "##थ": 1315,
      "##ग": 1316,
      "##🇲": 1317,
      "##ж": 1318,
      "##ﬀ": 1319,
      "##پ": 1320,
      "##💋": 1321,
      "##🤷": 1322,
      "##उ": 1323,
      "##☘": 1324,
      "##🚀": 1325,
      "##🔥": 1326,
      "##א": 1327,
      "##ש": 1328,
      "##¬": 1329,
      "##⚡": 1330,
      "##ı": 1331,
      "##🎶": 1332,
      "##☺": 1333,
      "##ष": 1334,
      "##💯": 1335,
      "##🤶": 1336,
      "##🎄": 1337,
      "##⅔": 1338,
      "##κ": 1339,
      "##μ": 1340,
      "##η": 1341,
      "##🇭": 1342,
      "##●": 1343,
      "##お": 1344,
      "##💃": 1345,
      "##👌": 1346,
      "##🍻": 1347,
      "##😱": 1348,
      "##🏴": 1349,
      "##🇵": 1350,
      "##ᄐ": 1351,
      "##б": 1352,
      "##🇮": 1353,
      "##¹": 1354,
      "##ー": 1355,
      "##ル": 1356,
      "##ク": 1357,
      "##に": 1358,
      "##✌": 1359,
      "##ち": 1360,
      "##ゃ": 1361,
      "##ч": 1362,
      "##ᄎ": 1363,
      "##ᆸ": 1364,
      "##く": 1365,
      "##ई": 1366,
      "##ᅪ": 1367,
      "##˚": 1368,
      "##💜": 1369,
      "##˜": 1370,
      "##ς": 1371,
      "##🚨": 1372,
      "##ת": 1373,
      "##🦄": 1374,
      "##😳": 1375,
      "##ħ": 1376,
      "##わ": 1377,
      "##ら": 1378,
      "##♡": 1379,
      "##≤": 1380,
      "##💎": 1381,
      "##👧": 1382,
      "##ю": 1383,
      "##😣": 1384,
      "##🇦": 1385,
      "##φ": 1386,
      "##δ": 1387,
      "##θ": 1388,
      "##ν": 1389,
      "##🐝": 1390,
      "##せ": 1391,
      "##つ": 1392,
      "##っ": 1393,
      "##を": 1394,
      "##🤣": 1395,
      "##ラ": 1396,
      "##х": 1397,
      "##🙌": 1398,
      "##❄": 1399,
      "##ᅴ": 1400,
      "##ல": 1401,
      "##🌸": 1402,
      "##ए": 1403,
      "##फ": 1404,
      "##γ": 1405,
      "##ə": 1406,
      "##💚": 1407,
      "##📺": 1408,
      "##ﬁ": 1409,
      "##💙": 1410,
      "##√": 1411,
      "##³": 1412,
      "##🎂": 1413,
      "##🎈": 1414,
      "##ƒ": 1415,
      "##⭐": 1416,
      "##😢": 1417,
      "##⁰": 1418,
      "##ک": 1419,
      "##ц": 1420,
      "##ण": 1421,
      "##👇": 1422,
      "##😬": 1423,
      "##💩": 1424,
      "##🐶": 1425,
      "##そ": 1426,
      "##リ": 1427,
      "##ろ": 1428,
      "##─": 1429,
      "##þ": 1430,
      "##भ": 1431,
      "##🥇": 1432,
      "##ツ": 1433,
      "##ン": 1434,
      "##ト": 1435,
      "##✊": 1436,
      "##≥": 1437,
      "##😒": 1438,
      "##🔵": 1439,
      "##😡": 1440,
      "##💕": 1441,
      "##😜": 1442,
      "##💥": 1443,
      "##👉": 1444,
      "##ㅤ": 1445,
      "##ℓ": 1446,
      "##র": 1447,
      "##শ": 1448,
      "##ন": 1449,
      "##😩": 1450,
      "##℠": 1451,
      "##💦": 1452,
      "##ச": 1453,
      "##͵": 1454,
      "##✭": 1455,
      "##👶": 1456,
      "##🇯": 1457,
      "##¯": 1458,
      "##ட": 1459,
      "##🤔": 1460,
      "##🙈": 1461,
      "##み": 1462,
      "##ה": 1463,
      "##☠": 1464,
      "##😀": 1465,
      "##🌟": 1466,
      "##₹": 1467,
      "##💁": 1468,
      "##🙋": 1469,
      "##ｈ": 1470,
      "##ａ": 1471,
      "##⠀": 1472,
      "##🇩": 1473,
      "##🤙": 1474,
      "##💗": 1475,
      "##🐣": 1476,
      "##🤘": 1477,
      "##🍾": 1478,
      "##⚾": 1479,
      "##♦": 1480,
      "##⬇": 1481,
      "##🙂": 1482,
      "##✰": 1483,
      "##ˈ": 1484,
      "##ந": 1485,
      "##😔": 1486,
      "##🏈": 1487,
      "##📸": 1488,
      "##🚮": 1489,
      "##💀": 1490,
      "##🗽": 1491,
      "##🎥": 1492,
      "##ほ": 1493,
      "##👀": 1494,
      "##➡": 1495,
      "##▪": 1496,
      "##🐾": 1497,
      "##מ": 1498,
      "##इ": 1499,
      "##🎵": 1500,
      "##স": 1501,
      "##🏀": 1502,
      "##₂": 1503,
      "##😉": 1504,
      "##🦁": 1505,
      "##ﬂ": 1506,
      "##☝": 1507,
      "##🌭": 1508,
      "##📷": 1509,
      "##🌊": 1510,
      "##😪": 1511,
      "##😃": 1512,
      "##😆": 1513,
      "##🍺": 1514,
      "##🍋": 1515,
      "##❗": 1516,
      "##✈": 1517,
      "##😈": 1518,
      "##अ": 1519,
      "##🍩": 1520,
      "##😮": 1521,
      "##👎": 1522,
      "##🥤": 1523,
      "##🕺": 1524,
      "##ⓟ": 1525,
      "##ⓐ": 1526,
      "##ⓛ": 1527,
      "##✘": 1528,
      "##आ": 1529,
      "##👋": 1530,
      "##🇫": 1531,
      "##↓": 1532,
      "##🐘": 1533,
      "##👅": 1534,
      "##►": 1535,
      "##ⓘ": 1536,
      "##ⓣ": 1537,
      "##ⓢ": 1538,
      "##😏": 1539,
      "##🍒": 1540,
      "##🔊": 1541,
      "##🗣": 1542,
      "##■": 1543,
      "##🔜": 1544,
      "##📰": 1545,
      "##ম": 1546,
      "##ক": 1547,
      "##া": 1548,
      "##🎟": 1549,
      "th": 1550,
      "##er": 1551,
      "the": 1552,
      "##in": 1553,
      "##on": 1554,
      "##en": 1555,
      "##es": 1556,
      "##or": 1557,
      "##at": 1558,
      "##ed": 1559,
      "##nd": 1560,
      "##ar": 1561,
      "##ing": 1562,
      "##an": 1563,
      "in": 1564,
      "to": 1565,
      "##al": 1566,
      "##it": 1567,
      "##ou": 1568,
      "of": 1569,
      "and": 1570,
      "##is": 1571,
      "##as": 1572,
      "##ic": 1573,
      "##om": 1574,
      "##re": 1575,
      "##il": 1576,
      "##ion": 1577,
      "##ent": 1578,
      "##el": 1579,
      "##id": 1580,
      "##et": 1581,
      "##ay": 1582,
      "##ec": 1583,
      "##st": 1584,
      "on": 1585,
      "##ot": 1586,
      "##le": 1587,
      "st": 1588,
      "##ac": 1589,
      "for": 1590,
      "##ur": 1591,
      "##ow": 1592,
      "##ut": 1593,
      "wh": 1594,
      "##ol": 1595,
      "##ad": 1596,
      "##ve": 1597,
      "##am": 1598,
      "##ig": 1599,
      "re": 1600,
      "pr": 1601,
      "be": 1602,
      "##ly": 1603,
      "##ers": 1604,
      "is": 1605,
      "that": 1606,
      "it": 1607,
      "##ir": 1608,
      "##ith": 1609,
      "##ter": 1610,
      "##ation": 1611,
      "##th": 1612,
      "with": 1613,
      "##im": 1614,
      "an": 1615,
      "sh": 1616,
      "al": 1617,
      "as": 1618,
      "##ch": 1619,
      "##ver": 1620,
      "##ill": 1621,
      "he": 1622,
      "at": 1623,
      "##os": 1624,
      "ch": 1625,
      "##est": 1626,
      "##ce": 1627,
      "com": 1628,
      "fr": 1629,
      "was": 1630,
      "con": 1631,
      "##us": 1632,
      "sa": 1633,
      "ne": 1634,
      "##op": 1635,
      "ha": 1636,
      "##ere": 1637,
      "##igh": 1638,
      "##ld": 1639,
      "we": 1640,
      "##ess": 1641,
      "##em": 1642,
      "##ag": 1643,
      "##ul": 1644,
      "tr": 1645,
      "you": 1646,
      "su": 1647,
      "##ak": 1648,
      "##ts": 1649,
      "##od": 1650,
      "##pp": 1651,
      "##ear": 1652,
      "##ain": 1653,
      "said": 1654,
      "##oc": 1655,
      "##ate": 1656,
      "are": 1657,
      "##iv": 1658,
      "##um": 1659,
      "##ore": 1660,
      "by": 1661,
      "##un": 1662,
      "ex": 1663,
      "de": 1664,
      "se": 1665,
      "from": 1666,
      "##and": 1667,
      "20": 1668,
      "##ect": 1669,
      "##ity": 1670,
      "##ies": 1671,
      "this": 1672,
      "##art": 1673,
      "##ment": 1674,
      "his": 1675,
      "##ort": 1676,
      "##if": 1677,
      "or": 1678,
      "have": 1679,
      "cou": 1680,
      "ac": 1681,
      "##ab": 1682,
      "pl": 1683,
      "le": 1684,
      "has": 1685,
      "##ive": 1686,
      "sp": 1687,
      "not": 1688,
      "go": 1689,
      "##all": 1690,
      "##ust": 1691,
      "##ast": 1692,
      "will": 1693,
      "##se": 1694,
      "##ight": 1695,
      "##ist": 1696,
      "ab": 1697,
      "but": 1698,
      "##ack": 1699,
      "##ard": 1700,
      "##ok": 1701,
      "##ial": 1702,
      "##ost": 1703,
      "##ud": 1704,
      "##ant": 1705,
      "year": 1706,
      "they": 1707,
      "ad": 1708,
      "##end": 1709,
      "br": 1710,
      "pro": 1711,
      "##ap": 1712,
      "##ie": 1713,
      "cl": 1714,
      "un": 1715,
      "ar": 1716,
      "##gh": 1717,
      "new": 1718,
      "wor": 1719,
      "##ice": 1720,
      "##ell": 1721,
      "af": 1722,
      "##out": 1723,
      "##day": 1724,
      "201": 1725,
      "##ome": 1726,
      "##ia": 1727,
      "en": 1728,
      "##uc": 1729,
      "gr": 1730,
      "off": 1731,
      "can": 1732,
      "up": 1733,
      "all": 1734,
      "##ip": 1735,
      "mar": 1736,
      "ag": 1737,
      "out": 1738,
      "who": 1739,
      "##ich": 1740,
      "res": 1741,
      "comp": 1742,
      "their": 1743,
      "##ib": 1744,
      "##ik": 1745,
      "rep": 1746,
      "##our": 1747,
      "##ound": 1748,
      "##ue": 1749,
      "per": 1750,
      "##ge": 1751,
      "more": 1752,
      "##her": 1753,
      "##ans": 1754,
      "inc": 1755,
      "##ould": 1756,
      "man": 1757,
      "tw": 1758,
      "##tr": 1759,
      "##ong": 1760,
      "do": 1761,
      "##ough": 1762,
      "im": 1763,
      "##ions": 1764,
      "##ide": 1765,
      "us": 1766,
      "me": 1767,
      "##ine": 1768,
      "after": 1769,
      "cr": 1770,
      "##ame": 1771,
      "##ated": 1772,
      "exp": 1773,
      "##age": 1774,
      "one": 1775,
      "her": 1776,
      "dr": 1777,
      "am": 1778,
      "mon": 1779,
      "had": 1780,
      "##ail": 1781,
      "rec": 1782,
      "##ally": 1783,
      "been": 1784,
      "tim": 1785,
      "about": 1786,
      "##ure": 1787,
      "she": 1788,
      "##ber": 1789,
      "so": 1790,
      "##ake": 1791,
      "were": 1792,
      "##ook": 1793,
      "##ays": 1794,
      "##so": 1795,
      "##ous": 1796,
      "##ind": 1797,
      "##ace": 1798,
      "##act": 1799,
      "##ire": 1800,
      "##ach": 1801,
      "##ub": 1802,
      "##ff": 1803,
      "pe": 1804,
      "##ance": 1805,
      "fir": 1806,
      "##own": 1807,
      "##ence": 1808,
      "also": 1809,
      "which": 1810,
      "pol": 1811,
      "##av": 1812,
      "there": 1813,
      "##ther": 1814,
      "over": 1815,
      "ev": 1816,
      "sc": 1817,
      "int": 1818,
      "part": 1819,
      "##ord": 1820,
      "##og": 1821,
      "when": 1822,
      "##ose": 1823,
      "its": 1824,
      "car": 1825,
      "app": 1826,
      "##iz": 1827,
      "##ary": 1828,
      "##orm": 1829,
      "##ks": 1830,
      "##00": 1831,
      "co": 1832,
      "##one": 1833,
      "##ile": 1834,
      "fe": 1835,
      "te": 1836,
      "##ond": 1837,
      "acc": 1838,
      "##pt": 1839,
      "ind": 1840,
      "no": 1841,
      "##ian": 1842,
      "##ign": 1843,
      "##qu": 1844,
      "coun": 1845,
      "##ree": 1846,
      "##ents": 1847,
      "qu": 1848,
      "dis": 1849,
      "##ations": 1850,
      "str": 1851,
      "##oll": 1852,
      "##ely": 1853,
      "##ick": 1854,
      "comm": 1855,
      "would": 1856,
      "get": 1857,
      "##ike": 1858,
      "if": 1859,
      "ser": 1860,
      "##ass": 1861,
      "##ish": 1862,
      "##ite": 1863,
      "play": 1864,
      "##aw": 1865,
      "just": 1866,
      "first": 1867,
      "than": 1868,
      "peop": 1869,
      "what": 1870,
      "time": 1871,
      "##ey": 1872,
      "##ors": 1873,
      "people": 1874,
      "ph": 1875,
      "ro": 1876,
      "two": 1877,
      "##ning": 1878,
      "##ase": 1879,
      "some": 1880,
      "##ens": 1881,
      "em": 1882,
      "our": 1883,
      "bl": 1884,
      "##able": 1885,
      "##ov": 1886,
      "inv": 1887,
      "high": 1888,
      "pre": 1889,
      "sec": 1890,
      "rel": 1891,
      "your": 1892,
      "bec": 1893,
      "##oin": 1894,
      "inter": 1895,
      "work": 1896,
      "pres": 1897,
      "##ket": 1898,
      "##oss": 1899,
      "dec": 1900,
      "cont": 1901,
      "##ep": 1902,
      "kn": 1903,
      "##ct": 1904,
      "##ict": 1905,
      "how": 1906,
      "other": 1907,
      "any": 1908,
      "##gr": 1909,
      "##ition": 1910,
      "imp": 1911,
      "##ty": 1912,
      "##ident": 1913,
      "last": 1914,
      "##ade": 1915,
      "into": 1916,
      "op": 1917,
      "##ical": 1918,
      "##nder": 1919,
      "like": 1920,
      "##reat": 1921,
      "them": 1922,
      "##form": 1923,
      "##ild": 1924,
      "##ob": 1925,
      "##amp": 1926,
      "my": 1927,
      "##ings": 1928,
      "##use": 1929,
      "##ump": 1930,
      "may": 1931,
      "##itt": 1932,
      "##lic": 1933,
      "back": 1934,
      "fl": 1935,
      "ass": 1936,
      "##ates": 1937,
      "act": 1938,
      "##ek": 1939,
      "add": 1940,
      "el": 1941,
      "##ang": 1942,
      "again": 1943,
      "min": 1944,
      "hel": 1945,
      "##ied": 1946,
      "par": 1947,
      "##oy": 1948,
      "##oun": 1949,
      "ever": 1950,
      "##ult": 1951,
      "fin": 1952,
      "him": 1953,
      "##old": 1954,
      "10": 1955,
      "##ry": 1956,
      "##ock": 1957,
      "##ason": 1958,
      "thr": 1959,
      "##lud": 1960,
      "sch": 1961,
      "show": 1962,
      "##ory": 1963,
      "could": 1964,
      "##are": 1965,
      "most": 1966,
      "##ove": 1967,
      "##ink": 1968,
      "##uct": 1969,
      "##enc": 1970,
      "report": 1971,
      "##iss": 1972,
      "##ater": 1973,
      "##ood": 1974,
      "now": 1975,
      "##uring": 1976,
      "##ues": 1977,
      "att": 1978,
      "##vel": 1979,
      "##anc": 1980,
      "includ": 1981,
      "##fer": 1982,
      "ap": 1983,
      "reg": 1984,
      "market": 1985,
      "years": 1986,
      "under": 1987,
      "##urn": 1988,
      "##ug": 1989,
      "compan": 1990,
      "bet": 1991,
      "##man": 1992,
      "don": 1993,
      "##ational": 1994,
      "cent": 1995,
      "team": 1996,
      "##ery": 1997,
      "##ious": 1998,
      "cons": 1999,
      "##ities": 2000,
      "##ause": 2001,
      "##illion": 2002,
      "##ool": 2003,
      "##ft": 2004,
      "state": 2005,
      "bu": 2006,
      "while": 2007,
      "##hing": 2008,
      "##als": 2009,
      "##wn": 2010,
      "##ement": 2011,
      "day": 2012,
      "des": 2013,
      "ve": 2014,
      "offic": 2015,
      "##fore": 2016,
      "##we": 2017,
      "call": 2018,
      "##ating": 2019,
      "look": 2020,
      "19": 2021,
      "did": 2022,
      "trump": 2023,
      "serv": 2024,
      "ear": 2025,
      "lead": 2026,
      "##atch": 2027,
      "news": 2028,
      "invest": 2029,
      "down": 2030,
      "win": 2031,
      "week": 2032,
      "only": 2033,
      "need": 2034,
      "president": 2035,
      "##hn": 2036,
      "through": 2037,
      "##ton": 2038,
      "##arg": 2039,
      "three": 2040,
      "gu": 2041,
      "every": 2042,
      "med": 2043,
      "before": 2044,
      "##ath": 2045,
      "##vern": 2046,
      "##ix": 2047,
      "supp": 2048,
      "##cent": 2049,
      "rem": 2050,
      "even": 2051,
      "##ward": 2052,
      "##ah": 2053,
      "##bs": 2054,
      "during": 2055,
      "##aking": 2056,
      "##ise": 2057,
      "govern": 2058,
      "##ublic": 2059,
      "2017": 2060,
      "cour": 2061,
      "def": 2062,
      "##ting": 2063,
      "police": 2064,
      "##other": 2065,
      "##ased": 2066,
      "prov": 2067,
      "##land": 2068,
      "##les": 2069,
      "##ited": 2070,
      "nor": 2071,
      "start": 2072,
      "##ier": 2073,
      "help": 2074,
      "sm": 2075,
      "world": 2076,
      "##oot": 2077,
      "says": 2078,
      "where": 2079,
      "well": 2080,
      "bus": 2081,
      "##ince": 2082,
      "because": 2083,
      "say": 2084,
      "low": 2085,
      "dep": 2086,
      "end": 2087,
      "form": 2088,
      "being": 2089,
      "sy": 2090,
      "##urr": 2091,
      "##air": 2092,
      "make": 2093,
      "##br": 2094,
      "##ph": 2095,
      "game": 2096,
      "bel": 2097,
      "against": 2098,
      "##ected": 2099,
      "##uch": 2100,
      "poin": 2101,
      "then": 2102,
      "prod": 2103,
      "##ash": 2104,
      "wr": 2105,
      "##orts": 2106,
      "##cr": 2107,
      "##orn": 2108,
      "##ily": 2109,
      "contr": 2110,
      "##iel": 2111,
      "mem": 2112,
      "ret": 2113,
      "see": 2114,
      "##ro": 2115,
      "##iew": 2116,
      "##atur": 2117,
      "cap": 2118,
      "home": 2119,
      "percent": 2120,
      "month": 2121,
      "##ank": 2122,
      "fam": 2123,
      "##son": 2124,
      "old": 2125,
      "know": 2126,
      "##erson": 2127,
      "company": 2128,
      "stud": 2129,
      "ed": 2130,
      "season": 2131,
      "##ull": 2132,
      "sou": 2133,
      "these": 2134,
      "##pl": 2135,
      "made": 2136,
      "##ual": 2137,
      "col": 2138,
      "long": 2139,
      "##io": 2140,
      "##az": 2141,
      "good": 2142,
      "want": 2143,
      "city": 2144,
      "bo": 2145,
      "##ices": 2146,
      "##ert": 2147,
      "##oth": 2148,
      "four": 2149,
      "ter": 2150,
      "##uss": 2151,
      "school": 2152,
      "many": 2153,
      "##ife": 2154,
      "ke": 2155,
      "##istr": 2156,
      "run": 2157,
      "those": 2158,
      "##xt": 2159,
      "law": 2160,
      "##ven": 2161,
      "way": 2162,
      "ins": 2163,
      "second": 2164,
      "government": 2165,
      "own": 2166,
      "war": 2167,
      "##oup": 2168,
      "2018": 2169,
      "##ful": 2170,
      "gen": 2171,
      "set": 2172,
      "##ons": 2173,
      "gl": 2174,
      "##ouse": 2175,
      "##hip": 2176,
      "##way": 2177,
      "take": 2178,
      "ann": 2179,
      "##eric": 2180,
      "going": 2181,
      "group": 2182,
      "##cc": 2183,
      "inst": 2184,
      "around": 2185,
      "##iness": 2186,
      "should": 2187,
      "countr": 2188,
      "##irect": 2189,
      "sign": 2190,
      "##und": 2191,
      "resp": 2192,
      "dem": 2193,
      "think": 2194,
      "##ollow": 2195,
      "##eral": 2196,
      "##ection": 2197,
      "since": 2198,
      "aut": 2199,
      "##au": 2200,
      "big": 2201,
      "000": 2202,
      "direct": 2203,
      "##ivers": 2204,
      "follow": 2205,
      "wom": 2206,
      "##alk": 2207,
      "americ": 2208,
      "phot": 2209,
      "cle": 2210,
      "very": 2211,
      "30": 2212,
      "##gan": 2213,
      "sl": 2214,
      "##ames": 2215,
      "million": 2216,
      "here": 2217,
      "sur": 2218,
      "night": 2219,
      "loc": 2220,
      "12": 2221,
      "found": 2222,
      "##ility": 2223,
      "##ics": 2224,
      "told": 2225,
      "##earch": 2226,
      "##ange": 2227,
      "ma": 2228,
      "15": 2229,
      "right": 2230,
      "read": 2231,
      "open": 2232,
      "monday": 2233,
      "post": 2234,
      "business": 2235,
      "##ific": 2236,
      "##its": 2237,
      "##ording": 2238,
      "##alth": 2239,
      "##ments": 2240,
      "##ield": 2241,
      "north": 2242,
      "##ra": 2243,
      "##elf": 2244,
      "##iver": 2245,
      "##ital": 2246,
      "##ee": 2247,
      "contin": 2248,
      "##up": 2249,
      "del": 2250,
      "trans": 2251,
      "##ope": 2252,
      "##ets": 2253,
      "still": 2254,
      "##olog": 2255,
      "##ork": 2256,
      "##ner": 2257,
      "##ress": 2258,
      "det": 2259,
      "id": 2260,
      "dif": 2261,
      "mid": 2262,
      "##ather": 2263,
      "public": 2264,
      "according": 2265,
      "##ible": 2266,
      "##ene": 2267,
      "including": 2268,
      "11": 2269,
      "##fl": 2270,
      "##per": 2271,
      "bar": 2272,
      "stat": 2273,
      "##ives": 2274,
      "##ently": 2275,
      "bre": 2276,
      "char": 2277,
      "much": 2278,
      "##nes": 2279,
      "such": 2280,
      "head": 2281,
      "south": 2282,
      "commun": 2283,
      "adv": 2284,
      "##ott": 2285,
      "child": 2286,
      "national": 2287,
      "sal": 2288,
      "support": 2289,
      "sen": 2290,
      "house": 2291,
      "##ative": 2292,
      "eff": 2293,
      "##led": 2294,
      "##att": 2295,
      "plan": 2296,
      "jo": 2297,
      "##ision": 2298,
      "disc": 2299,
      "##ms": 2300,
      "##let": 2301,
      "##ether": 2302,
      "happ": 2303,
      "care": 2304,
      "cor": 2305,
      "top": 2306,
      "##ween": 2307,
      "inform": 2308,
      "both": 2309,
      "next": 2310,
      "##ered": 2311,
      "best": 2312,
      "spec": 2313,
      "between": 2314,
      "##ble": 2315,
      "face": 2316,
      "red": 2317,
      "##ular": 2318,
      "##ys": 2319,
      "health": 2320,
      "##velop": 2321,
      "##ri": 2322,
      "star": 2323,
      "great": 2324,
      "wed": 2325,
      "iss": 2326,
      "leg": 2327,
      "person": 2328,
      "##iving": 2329,
      "##ior": 2330,
      "##urs": 2331,
      "progr": 2332,
      "court": 2333,
      "hand": 2334,
      "develop": 2335,
      "put": 2336,
      "official": 2337,
      "num": 2338,
      "does": 2339,
      "prop": 2340,
      "val": 2341,
      "ste": 2342,
      "##omet": 2343,
      "##iday": 2344,
      "grow": 2345,
      "##ister": 2346,
      "##ina": 2347,
      "another": 2348,
      "shar": 2349,
      "##ime": 2350,
      "far": 2351,
      "##ave": 2352,
      "##ency": 2353,
      "##con": 2354,
      "stre": 2355,
      "tues": 2356,
      "prot": 2357,
      "rele": 2358,
      "tuesday": 2359,
      "eng": 2360,
      "##med": 2361,
      "##eng": 2362,
      "##ric": 2363,
      "##0s": 2364,
      "use": 2365,
      "opp": 2366,
      "conc": 2367,
      "soc": 2368,
      "##ists": 2369,
      "tec": 2370,
      "country": 2371,
      "##ont": 2372,
      "air": 2373,
      "##ying": 2374,
      "##ley": 2375,
      "vis": 2376,
      "##ants": 2377,
      "family": 2378,
      "##ax": 2379,
      "##erg": 2380,
      "##ief": 2381,
      "##oud": 2382,
      "manag": 2383,
      "miss": 2384,
      "arr": 2385,
      "sk": 2386,
      "##ved": 2387,
      "near": 2388,
      "life": 2389,
      "though": 2390,
      "spe": 2391,
      "##bers": 2392,
      "##ount": 2393,
      "real": 2394,
      "fil": 2395,
      "mor": 2396,
      "camp": 2397,
      "##res": 2398,
      "##ern": 2399,
      "av": 2400,
      "##ights": 2401,
      "ob": 2402,
      "conf": 2403,
      "incre": 2404,
      "har": 2405,
      "pass": 2406,
      "##ines": 2407,
      "sim": 2408,
      "met": 2409,
      "##ving": 2410,
      "##read": 2411,
      "sub": 2412,
      "sw": 2413,
      "pow": 2414,
      "##aff": 2415,
      "pat": 2416,
      "ask": 2417,
      "##min": 2418,
      "find": 2419,
      "prof": 2420,
      "14": 2421,
      "intern": 2422,
      "curr": 2423,
      "five": 2424,
      "really": 2425,
      "information": 2426,
      "come": 2427,
      "mil": 2428,
      "press": 2429,
      "##ling": 2430,
      "##ced": 2431,
      "200": 2432,
      "##ional": 2433,
      "place": 2434,
      "former": 2435,
      "##der": 2436,
      "lot": 2437,
      "es": 2438,
      "cond": 2439,
      "##ever": 2440,
      "ra": 2441,
      "vide": 2442,
      "left": 2443,
      "wednes": 2444,
      "wednesday": 2445,
      "photo": 2446,
      "cal": 2447,
      "white": 2448,
      "gre": 2449,
      "##ins": 2450,
      "##enn": 2451,
      "rest": 2452,
      "meet": 2453,
      "##line": 2454,
      "art": 2455,
      "la": 2456,
      "somet": 2457,
      "2016": 2458,
      "##ball": 2459,
      "##crib": 2460,
      "investig": 2461,
      "##ird": 2462,
      "friday": 2463,
      "exper": 2464,
      "fire": 2465,
      "##ember": 2466,
      "##ral": 2467,
      "cre": 2468,
      "prev": 2469,
      "got": 2470,
      "jun": 2471,
      "##ren": 2472,
      "pay": 2473,
      "##uck": 2474,
      "sund": 2475,
      "rece": 2476,
      "mod": 2477,
      "research": 2478,
      "##ised": 2479,
      "free": 2480,
      "fac": 2481,
      "differ": 2482,
      "##ody": 2483,
      "18": 2484,
      "wind": 2485,
      "##ject": 2486,
      "mus": 2487,
      "requ": 2488,
      "##akes": 2489,
      "##ale": 2490,
      "##itter": 2491,
      "##ecut": 2492,
      "same": 2493,
      "##ually": 2494,
      "##leg": 2495,
      "##stem": 2496,
      "mov": 2497,
      "##iting": 2498,
      "##ience": 2499,
      "hal": 2500,
      "sunday": 2501,
      "pos": 2502,
      "oper": 2503,
      "13": 2504,
      "##ures": 2505,
      "share": 2506,
      "##tt": 2507,
      "##ote": 2508,
      "stand": 2509,
      "six": 2510,
      "polit": 2511,
      "sing": 2512,
      "##ng": 2513,
      "keep": 2514,
      "chr": 2515,
      "##ele": 2516,
      "##view": 2517,
      "clear": 2518,
      "system": 2519,
      "##ann": 2520,
      "coll": 2521,
      "##ead": 2522,
      "each": 2523,
      "techn": 2524,
      "program": 2525,
      "build": 2526,
      "##ages": 2527,
      "##uary": 2528,
      "today": 2529,
      "satur": 2530,
      "vict": 2531,
      "##osp": 2532,
      "fund": 2533,
      "##ained": 2534,
      "ll": 2535,
      "point": 2536,
      "saturday": 2537,
      "russ": 2538,
      "##ves": 2539,
      "maj": 2540,
      "##ata": 2541,
      "##ew": 2542,
      "##iam": 2543,
      "women": 2544,
      "##ends": 2545,
      "##uction": 2546,
      "used": 2547,
      "cost": 2548,
      "later": 2549,
      "##str": 2550,
      "feel": 2551,
      "##oad": 2552,
      "let": 2553,
      "times": 2554,
      "indust": 2555,
      "##yp": 2556,
      "auth": 2557,
      "##itch": 2558,
      "##ury": 2559,
      "beh": 2560,
      "##osed": 2561,
      "eur": 2562,
      "##ects": 2563,
      "25": 2564,
      "anal": 2565,
      "united": 2566,
      "##ering": 2567,
      "sol": 2568,
      "##arter": 2569,
      "too": 2570,
      "##over": 2571,
      "##used": 2572,
      "few": 2573,
      "county": 2574,
      "##ism": 2575,
      "net": 2576,
      "john": 2577,
      "called": 2578,
      "fri": 2579,
      "inj": 2580,
      "based": 2581,
      "provid": 2582,
      "turn": 2583,
      "media": 2584,
      "17": 2585,
      "16": 2586,
      "apr": 2587,
      "proc": 2588,
      "main": 2589,
      "however": 2590,
      "depart": 2591,
      "poss": 2592,
      "foot": 2593,
      "##ize": 2594,
      "secur": 2595,
      "##ished": 2596,
      "fed": 2597,
      "chance": 2598,
      "road": 2599,
      "expl": 2600,
      "perform": 2601,
      "march": 2602,
      "twitter": 2603,
      "sun": 2604,
      "econ": 2605,
      "##ness": 2606,
      "allow": 2607,
      "prom": 2608,
      "bas": 2609,
      "econom": 2610,
      "video": 2611,
      "univers": 2612,
      "##ized": 2613,
      "kill": 2614,
      "##ived": 2615,
      "power": 2616,
      "sever": 2617,
      "est": 2618,
      "aff": 2619,
      "##ued": 2620,
      "quarter": 2621,
      "ris": 2622,
      "park": 2623,
      "major": 2624,
      "##ety": 2625,
      "never": 2626,
      "past": 2627,
      "number": 2628,
      "mr": 2629,
      "##vers": 2630,
      "##ute": 2631,
      "##ately": 2632,
      "hard": 2633,
      "event": 2634,
      "organ": 2635,
      "record": 2636,
      "vi": 2637,
      "cloud": 2638,
      "announ": 2639,
      "##aim": 2640,
      "local": 2641,
      "days": 2642,
      "##ways": 2643,
      "##ially": 2644,
      "job": 2645,
      "##ark": 2646,
      "##ald": 2647,
      "##ester": 2648,
      "pa": 2649,
      "belie": 2650,
      "produc": 2651,
      "##gin": 2652,
      "service": 2653,
      "##red": 2654,
      "appear": 2655,
      "##ittle": 2656,
      "##augh": 2657,
      "won": 2658,
      "west": 2659,
      "states": 2660,
      "fact": 2661,
      "hold": 2662,
      "##app": 2663,
      "test": 2664,
      "import": 2665,
      "ju": 2666,
      "subs": 2667,
      "young": 2668,
      "little": 2669,
      "quest": 2670,
      "children": 2671,
      "##aining": 2672,
      "reported": 2673,
      "added": 2674,
      "##book": 2675,
      "april": 2676,
      "distr": 2677,
      "attack": 2678,
      "points": 2679,
      "deal": 2680,
      "took": 2681,
      "things": 2682,
      "author": 2683,
      "glob": 2684,
      "##par": 2685,
      "hour": 2686,
      "better": 2687,
      "##ains": 2688,
      "##til": 2689,
      "without": 2690,
      "third": 2691,
      "##mm": 2692,
      "##unch": 2693,
      "##pr": 2694,
      "community": 2695,
      "sus": 2696,
      "##ague": 2697,
      "##ution": 2698,
      "cust": 2699,
      "##iven": 2700,
      "watch": 2701,
      "games": 2702,
      "##te": 2703,
      "exc": 2704,
      "move": 2705,
      "level": 2706,
      "jan": 2707,
      "##ces": 2708,
      "##gest": 2709,
      "lik": 2710,
      "##ned": 2711,
      "office": 2712,
      "york": 2713,
      "return": 2714,
      "email": 2715,
      "##thing": 2716,
      "partic": 2717,
      "area": 2718,
      "##ention": 2719,
      "something": 2720,
      "services": 2721,
      "##ient": 2722,
      "##ats": 2723,
      "##ush": 2724,
      "water": 2725,
      "##ology": 2726,
      "interest": 2727,
      "line": 2728,
      "away": 2729,
      "##verage": 2730,
      "list": 2731,
      "##opp": 2732,
      "didn": 2733,
      "case": 2734,
      "sn": 2735,
      "eas": 2736,
      "lat": 2737,
      "party": 2738,
      "saf": 2739,
      "data": 2740,
      "came": 2741,
      "making": 2742,
      "full": 2743,
      "ext": 2744,
      "tax": 2745,
      "members": 2746,
      "##lin": 2747,
      "mc": 2748,
      "bank": 2749,
      "san": 2750,
      "##by": 2751,
      "ca": 2752,
      "##cept": 2753,
      "##oci": 2754,
      "##ending": 2755,
      "thurs": 2756,
      "acr": 2757,
      "men": 2758,
      "less": 2759,
      "thursday": 2760,
      "associ": 2761,
      "50": 2762,
      "hist": 2763,
      "elect": 2764,
      "class": 2765,
      "trad": 2766,
      "june": 2767,
      "months": 2768,
      "##ony": 2769,
      "view": 2770,
      "##ploy": 2771,
      "why": 2772,
      "##els": 2773,
      "players": 2774,
      "super": 2775,
      "american": 2776,
      "half": 2777,
      "hum": 2778,
      "##side": 2779,
      "happen": 2780,
      "##ted": 2781,
      "##ipp": 2782,
      "coach": 2783,
      "money": 2784,
      "department": 2785,
      "across": 2786,
      "different": 2787,
      "early": 2788,
      "##ically": 2789,
      "story": 2790,
      "fut": 2791,
      "24": 2792,
      "##ired": 2793,
      "went": 2794,
      "polic": 2795,
      "##ps": 2796,
      "sit": 2797,
      "facebook": 2798,
      "claim": 2799,
      "always": 2800,
      "league": 2801,
      "sour": 2802,
      "##ured": 2803,
      "##ards": 2804,
      "fur": 2805,
      "along": 2806,
      "ir": 2807,
      "price": 2808,
      "##ille": 2809,
      "##ready": 2810,
      "security": 2811,
      "already": 2812,
      "##ortun": 2813,
      "bill": 2814,
      "statement": 2815,
      "following": 2816,
      "working": 2817,
      "champ": 2818,
      "pop": 2819,
      "##ored": 2820,
      "##aken": 2821,
      "ple": 2822,
      "join": 2823,
      "several": 2824,
      "compet": 2825,
      "land": 2826,
      "##ified": 2827,
      "special": 2828,
      "step": 2829,
      "##rem": 2830,
      "might": 2831,
      "until": 2832,
      "side": 2833,
      "sent": 2834,
      "impr": 2835,
      "black": 2836,
      "final": 2837,
      "center": 2838,
      "##eck": 2839,
      "chang": 2840,
      "international": 2841,
      "university": 2842,
      "canad": 2843,
      "##co": 2844,
      "social": 2845,
      "##ones": 2846,
      "##ator": 2847,
      "consid": 2848,
      "image": 2849,
      "##ama": 2850,
      "process": 2851,
      "##ium": 2852,
      "spok": 2853,
      "dev": 2854,
      "looking": 2855,
      "equ": 2856,
      "talk": 2857,
      "officials": 2858,
      "##ple": 2859,
      "##urch": 2860,
      "club": 2861,
      "morning": 2862,
      "alleg": 2863,
      "pot": 2864,
      "employ": 2865,
      "mostly": 2866,
      "chief": 2867,
      "expected": 2868,
      "minister": 2869,
      "viol": 2870,
      "enter": 2871,
      "shot": 2872,
      "custom": 2873,
      "##hic": 2874,
      "food": 2875,
      "charg": 2876,
      "change": 2877,
      "susp": 2878,
      "love": 2879,
      "kore": 2880,
      "hit": 2881,
      "series": 2882,
      "doc": 2883,
      "##ense": 2884,
      "strong": 2885,
      "jud": 2886,
      "short": 2887,
      "typ": 2888,
      "having": 2889,
      "##ians": 2890,
      "able": 2891,
      "shoot": 2892,
      "billion": 2893,
      "financ": 2894,
      "global": 2895,
      "##ison": 2896,
      "##thers": 2897,
      "seen": 2898,
      "il": 2899,
      "21": 2900,
      "##aign": 2901,
      "##ane": 2902,
      "dav": 2903,
      "##ission": 2904,
      "##ended": 2905,
      "complet": 2906,
      "mich": 2907,
      "important": 2908,
      "among": 2909,
      "##self": 2910,
      "##ocr": 2911,
      "hosp": 2912,
      "invol": 2913,
      "campaign": 2914,
      "match": 2915,
      "death": 2916,
      "ref": 2917,
      "small": 2918,
      "##sh": 2919,
      "europe": 2920,
      "ang": 2921,
      "must": 2922,
      "##wh": 2923,
      "ant": 2924,
      "##oon": 2925,
      "committ": 2926,
      "opt": 2927,
      "##ought": 2928,
      "general": 2929,
      "cloudy": 2930,
      "mat": 2931,
      "further": 2932,
      "director": 2933,
      "reach": 2934,
      "give": 2935,
      "avail": 2936,
      "summ": 2937,
      "live": 2938,
      "##lex": 2939,
      "key": 2940,
      "aug": 2941,
      "##ox": 2942,
      "ball": 2943,
      "sex": 2944,
      "visit": 2945,
      "round": 2946,
      "july": 2947,
      "growth": 2948,
      "field": 2949,
      "22": 2950,
      "ge": 2951,
      "dou": 2952,
      "var": 2953,
      "##be": 2954,
      "future": 2955,
      "mean": 2956,
      "div": 2957,
      "street": 2958,
      "deb": 2959,
      "##oming": 2960,
      "mom": 2961,
      "lower": 2962,
      "inf": 2963,
      "design": 2964,
      "tot": 2965,
      "asked": 2966,
      "##stand": 2967,
      "##ai": 2968,
      "students": 2969,
      "addition": 2970,
      "seem": 2971,
      "##ville": 2972,
      "##port": 2973,
      "##acy": 2974,
      "industry": 2975,
      "##ny": 2976,
      "whether": 2977,
      "aust": 2978,
      "vol": 2979,
      "##less": 2980,
      "htt": 2981,
      "fun": 2982,
      "##ature": 2983,
      "port": 2984,
      "100": 2985,
      "##inal": 2986,
      "pet": 2987,
      "subscrib": 2988,
      "proble": 2989,
      "others": 2990,
      "washing": 2991,
      "continue": 2992,
      "close": 2993,
      "priv": 2994,
      "##inc": 2995,
      "lear": 2996,
      "targ": 2997,
      "democr": 2998,
      "##oved": 2999,
      "admin": 3000,
      "tog": 3001,
      "conn": 3002,
      "forward": 3003,
      "fall": 3004,
      "activ": 3005,
      "terr": 3006,
      "try": 3007,
      "taken": 3008,
      "china": 3009,
      "succ": 3010,
      "recent": 3011,
      "yet": 3012,
      "##oor": 3013,
      "companies": 3014,
      "##ourn": 3015,
      "gir": 3016,
      "##ees": 3017,
      "book": 3018,
      "##ases": 3019,
      "hol": 3020,
      "##iff": 3021,
      "counc": 3022,
      "##ators": 3023,
      "foc": 3024,
      "##atic": 3025,
      "getting": 3026,
      "##utes": 3027,
      "highs": 3028,
      "##por": 3029,
      "23": 3030,
      "##ances": 3031,
      "walk": 3032,
      "washington": 3033,
      "mot": 3034,
      "ww": 3035,
      "execut": 3036,
      "once": 3037,
      "together": 3038,
      "project": 3039,
      "##ru": 3040,
      "federal": 3041,
      "likely": 3042,
      "##itions": 3043,
      "least": 3044,
      "led": 3045,
      "opportun": 3046,
      "40": 3047,
      "latest": 3048,
      "cert": 3049,
      "##lier": 3050,
      "lar": 3051,
      "lim": 3052,
      "access": 3053,
      "##aily": 3054,
      "stock": 3055,
      "due": 3056,
      "##ret": 3057,
      "success": 3058,
      "mark": 3059,
      "##ateg": 3060,
      "##ham": 3061,
      "previous": 3062,
      "##ensive": 3063,
      "2015": 3064,
      "##ference": 3065,
      "given": 3066,
      "crit": 3067,
      "reports": 3068,
      "board": 3069,
      "fight": 3070,
      "available": 3071,
      "ago": 3072,
      "ent": 3073,
      "tell": 3074,
      "order": 3075,
      "republic": 3076,
      "kind": 3077,
      "##ential": 3078,
      "##ising": 3079,
      "taking": 3080,
      "##ged": 3081,
      "late": 3082,
      "##esh": 3083,
      "##int": 3084,
      "woman": 3085,
      "music": 3086,
      "##gress": 3087,
      "##ival": 3088,
      "##iod": 3089,
      "administr": 3090,
      "coming": 3091,
      "qual": 3092,
      "daily": 3093,
      "colle": 3094,
      "development": 3095,
      "chall": 3096,
      "vehic": 3097,
      "christ": 3098,
      "##ten": 3099,
      "fail": 3100,
      "political": 3101,
      "cut": 3102,
      "using": 3103,
      "www": 3104,
      "##back": 3105,
      "name": 3106,
      "saying": 3107,
      "held": 3108,
      "den": 3109,
      "cam": 3110,
      "bring": 3111,
      "##ories": 3112,
      "repres": 3113,
      "hom": 3114,
      "##ler": 3115,
      "india": 3116,
      "staff": 3117,
      "meeting": 3118,
      "east": 3119,
      "##ably": 3120,
      "hot": 3121,
      "rights": 3122,
      "cele": 3123,
      "started": 3124,
      "financial": 3125,
      "period": 3126,
      "goal": 3127,
      "lows": 3128,
      "arrest": 3129,
      "hospital": 3130,
      "concern": 3131,
      "upd": 3132,
      "girl": 3133,
      "become": 3134,
      "trav": 3135,
      "tal": 3136,
      "ah": 3137,
      "earlier": 3138,
      "agre": 3139,
      "analy": 3140,
      "##ners": 3141,
      "leaders": 3142,
      "council": 3143,
      "los": 3144,
      "known": 3145,
      "sure": 3146,
      "hear": 3147,
      "##ids": 3148,
      "drug": 3149,
      "behind": 3150,
      "pick": 3151,
      "reason": 3152,
      "town": 3153,
      "##wards": 3154,
      "ident": 3155,
      "larg": 3156,
      "##go": 3157,
      "host": 3158,
      "##ults": 3159,
      "doing": 3160,
      "##umb": 3161,
      "##omm": 3162,
      "milit": 3163,
      "decision": 3164,
      "##ences": 3165,
      "ide": 3166,
      "break": 3167,
      "sug": 3168,
      "celebr": 3169,
      "bit": 3170,
      "boy": 3171,
      "gener": 3172,
      "oct": 3173,
      "##ana": 3174,
      "within": 3175,
      "##idence": 3176,
      "announced": 3177,
      "profess": 3178,
      "##itive": 3179,
      "brit": 3180,
      "uk": 3181,
      "vir": 3182,
      "tur": 3183,
      "gun": 3184,
      "##aft": 3185,
      "control": 3186,
      "lab": 3187,
      "capt": 3188,
      "doesn": 3189,
      "##tern": 3190,
      "##ides": 3191,
      "cop": 3192,
      "done": 3193,
      "hours": 3194,
      "threat": 3195,
      "##ively": 3196,
      "educ": 3197,
      "sports": 3198,
      "comes": 3199,
      "address": 3200,
      "thing": 3201,
      "arm": 3202,
      "##uters": 3203,
      "non": 3204,
      "wa": 3205,
      "##que": 3206,
      "##sel": 3207,
      "light": 3208,
      "##ars": 3209,
      "rul": 3210,
      "gold": 3211,
      "er": 3212,
      "##ech": 3213,
      "aw": 3214,
      "cho": 3215,
      "##yn": 3216,
      "america": 3217,
      "ur": 3218,
      "canc": 3219,
      "shares": 3220,
      "##get": 3221,
      "treat": 3222,
      "spr": 3223,
      "##erc": 3224,
      "target": 3225,
      "##ows": 3226,
      "enough": 3227,
      "policy": 3228,
      "##ench": 3229,
      "discuss": 3230,
      "wee": 3231,
      "ban": 3232,
      "online": 3233,
      "##ands": 3234,
      "##uce": 3235,
      "dead": 3236,
      "##work": 3237,
      "##asing": 3238,
      "election": 3239,
      "front": 3240,
      "room": 3241,
      "building": 3242,
      "occ": 3243,
      "investigation": 3244,
      "present": 3245,
      "mph": 3246,
      "experience": 3247,
      "launch": 3248,
      "total": 3249,
      "film": 3250,
      "tit": 3251,
      "pract": 3252,
      "related": 3253,
      "##ared": 3254,
      "buy": 3255,
      "pub": 3256,
      "mass": 3257,
      "bene": 3258,
      "current": 3259,
      "appr": 3260,
      "lost": 3261,
      "lib": 3262,
      "history": 3263,
      "fre": 3264,
      "hope": 3265,
      "weeks": 3266,
      "##ization": 3267,
      "##erv": 3268,
      "mo": 3269,
      "technology": 3270,
      "bur": 3271,
      "expect": 3272,
      "jack": 3273,
      "desp": 3274,
      "##field": 3275,
      "##vert": 3276,
      "##ided": 3277,
      "trying": 3278,
      "dom": 3279,
      "lo": 3280,
      "prem": 3281,
      "##bert": 3282,
      "seven": 3283,
      "fans": 3284,
      "esp": 3285,
      "trade": 3286,
      "stay": 3287,
      "provide": 3288,
      "##ails": 3289,
      "possible": 3290,
      "##rap": 3291,
      "mult": 3292,
      "cup": 3293,
      "effect": 3294,
      "relations": 3295,
      "mess": 3296,
      "cred": 3297,
      "question": 3298,
      "mill": 3299,
      "outside": 3300,
      "vot": 3301,
      "dam": 3302,
      "sales": 3303,
      "check": 3304,
      "rob": 3305,
      "action": 3306,
      "released": 3307,
      "proper": 3308,
      "played": 3309,
      "##idents": 3310,
      "deliver": 3311,
      "##uel": 3312,
      "28": 3313,
      "init": 3314,
      "##oke": 3315,
      "result": 3316,
      "journ": 3317,
      "##ne": 3318,
      "capital": 3319,
      "ger": 3320,
      "donald": 3321,
      "pict": 3322,
      "represent": 3323,
      "partly": 3324,
      "minutes": 3325,
      "sell": 3326,
      "calif": 3327,
      "source": 3328,
      "clos": 3329,
      "broad": 3330,
      "base": 3331,
      "football": 3332,
      "##ients": 3333,
      "champions": 3334,
      "human": 3335,
      "include": 3336,
      "alm": 3337,
      "##ex": 3338,
      "##uation": 3339,
      "27": 3340,
      "friends": 3341,
      "loss": 3342,
      "stop": 3343,
      "29": 3344,
      "env": 3345,
      "##ibut": 3346,
      "26": 3347,
      "##ounds": 3348,
      "average": 3349,
      "eight": 3350,
      "fav": 3351,
      "oil": 3352,
      "appro": 3353,
      "##ape": 3354,
      "benef": 3355,
      "risk": 3356,
      "term": 3357,
      "son": 3358,
      "rac": 3359,
      "energ": 3360,
      "certain": 3361,
      "despite": 3362,
      "tem": 3363,
      "course": 3364,
      "##ugg": 3365,
      "##yr": 3366,
      "body": 3367,
      "victim": 3368,
      "hu": 3369,
      "orig": 3370,
      "december": 3371,
      "saw": 3372,
      "##off": 3373,
      "believe": 3374,
      "reuters": 3375,
      "administration": 3376,
      "##uk": 3377,
      "##venue": 3378,
      "often": 3379,
      "##for": 3380,
      "january": 3381,
      "##lished": 3382,
      "recently": 3383,
      "##ift": 3384,
      "tre": 3385,
      "##thern": 3386,
      "understand": 3387,
      "plans": 3388,
      "consum": 3389,
      "mag": 3390,
      "issue": 3391,
      "phil": 3392,
      "secret": 3393,
      "##ming": 3394,
      "review": 3395,
      "russia": 3396,
      "commission": 3397,
      "##cl": 3398,
      "career": 3399,
      "##lement": 3400,
      "31": 3401,
      "##amed": 3402,
      "##bi": 3403,
      "che": 3404,
      "##aps": 3405,
      "hon": 3406,
      "district": 3407,
      "nation": 3408,
      "##ger": 3409,
      "##sw": 3410,
      "medical": 3411,
      "##aged": 3412,
      "winds": 3413,
      "quick": 3414,
      "large": 3415,
      "##rew": 3416,
      "##ament": 3417,
      "##ode": 3418,
      "congress": 3419,
      "release": 3420,
      "position": 3421,
      "##ability": 3422,
      "player": 3423,
      "green": 3424,
      "febr": 3425,
      "conference": 3426,
      "arg": 3427,
      "killed": 3428,
      "rate": 3429,
      "mur": 3430,
      "february": 3431,
      "contact": 3432,
      "playing": 3433,
      "plac": 3434,
      "##aker": 3435,
      "grand": 3436,
      "austral": 3437,
      "college": 3438,
      "##aster": 3439,
      "##pper": 3440,
      "david": 3441,
      "thought": 3442,
      "issues": 3443,
      "fore": 3444,
      "##yle": 3445,
      "infl": 3446,
      "product": 3447,
      "##ron": 3448,
      "rich": 3449,
      "##igr": 3450,
      "track": 3451,
      "bad": 3452,
      "tom": 3453,
      "##iety": 3454,
      "applic": 3455,
      "##ds": 3456,
      "##oring": 3457,
      "increase": 3458,
      "emerg": 3459,
      "suggest": 3460,
      "makes": 3461,
      "thank": 3462,
      "di": 3463,
      "august": 3464,
      "##af": 3465,
      "##yl": 3466,
      "senior": 3467,
      "committee": 3468,
      "almost": 3469,
      "hop": 3470,
      "squ": 3471,
      "below": 3472,
      "energy": 3473,
      "fell": 3474,
      "##ondon": 3475,
      "wanted": 3476,
      "leader": 3477,
      "korea": 3478,
      "webs": 3479,
      "everyone": 3480,
      "respond": 3481,
      "personal": 3482,
      "space": 3483,
      "##elt": 3484,
      "aud": 3485,
      "products": 3486,
      "respons": 3487,
      "##ograp": 3488,
      "management": 3489,
      "tour": 3490,
      "bow": 3491,
      "##ams": 3492,
      "account": 3493,
      "military": 3494,
      "cover": 3495,
      "summer": 3496,
      "study": 3497,
      "##idge": 3498,
      "cook": 3499,
      "##under": 3500,
      "demand": 3501,
      "chair": 3502,
      "london": 3503,
      "##ender": 3504,
      "##ael": 3505,
      "nearly": 3506,
      "##akers": 3507,
      "const": 3508,
      "needs": 3509,
      "enc": 3510,
      "##iron": 3511,
      "dig": 3512,
      "sel": 3513,
      "##ots": 3514,
      "je": 3515,
      "offer": 3516,
      "twe": 3517,
      "assist": 3518,
      "focus": 3519,
      "pack": 3520,
      "pen": 3521,
      "creat": 3522,
      "performance": 3523,
      "link": 3524,
      "ahead": 3525,
      "heart": 3526,
      "199": 3527,
      "##ination": 3528,
      "begin": 3529,
      "rad": 3530,
      "35": 3531,
      "officer": 3532,
      "imm": 3533,
      "crim": 3534,
      "particular": 3535,
      "central": 3536,
      "role": 3537,
      "mal": 3538,
      "afric": 3539,
      "weekend": 3540,
      "##ford": 3541,
      "cann": 3542,
      "shows": 3543,
      "officers": 3544,
      "fig": 3545,
      "tv": 3546,
      "region": 3547,
      "sept": 3548,
      "express": 3549,
      "##ault": 3550,
      "james": 3551,
      "member": 3552,
      "##uty": 3553,
      "ey": 3554,
      "comment": 3555,
      "advert": 3556,
      "##ibility": 3557,
      "higher": 3558,
      "spokes": 3559,
      "suff": 3560,
      "##dle": 3561,
      "##empt": 3562,
      "ens": 3563,
      "##wood": 3564,
      "adm": 3565,
      "##ivid": 3566,
      "shooting": 3567,
      "environ": 3568,
      "##medi": 3569,
      "strateg": 3570,
      "wrote": 3571,
      "economic": 3572,
      "##iter": 3573,
      "##ither": 3574,
      "##ma": 3575,
      "card": 3576,
      "single": 3577,
      "neg": 3578,
      "pan": 3579,
      "cand": 3580,
      "##orms": 3581,
      "currently": 3582,
      "age": 3583,
      "famil": 3584,
      "confir": 3585,
      "page": 3586,
      "##ample": 3587,
      "##ify": 3588,
      "canada": 3589,
      "received": 3590,
      "##ulation": 3591,
      "someone": 3592,
      "angel": 3593,
      "repl": 3594,
      "means": 3595,
      "tor": 3596,
      "##ett": 3597,
      "californ": 3598,
      "hill": 3599,
      "signific": 3600,
      "everything": 3601,
      "##ney": 3602,
      "safety": 3603,
      "mother": 3604,
      "ep": 3605,
      "executive": 3606,
      "##uf": 3607,
      "site": 3608,
      "interview": 3609,
      "##ilar": 3610,
      "died": 3611,
      "mater": 3612,
      "##eal": 3613,
      "conv": 3614,
      "hun": 3615,
      "##ba": 3616,
      "##iger": 3617,
      "##orney": 3618,
      "thunder": 3619,
      "comb": 3620,
      "soon": 3621,
      "pal": 3622,
      "individ": 3623,
      "reve": 3624,
      "bab": 3625,
      "improve": 3626,
      "##lish": 3627,
      "cir": 3628,
      "attorney": 3629,
      "##ips": 3630,
      "##joy": 3631,
      "##aper": 3632,
      "##nings": 3633,
      "impact": 3634,
      "california": 3635,
      "amaz": 3636,
      "race": 3637,
      "block": 3638,
      "actually": 3639,
      "2014": 3640,
      "running": 3641,
      "reb": 3642,
      "##ico": 3643,
      "potential": 3644,
      "manager": 3645,
      "foreign": 3646,
      "teams": 3647,
      "private": 3648,
      "agency": 3649,
      "prob": 3650,
      "showers": 3651,
      "##ined": 3652,
      "protest": 3653,
      "sunny": 3654,
      "##ipt": 3655,
      "##pm": 3656,
      "indian": 3657,
      "pain": 3658,
      "friend": 3659,
      "website": 3660,
      "##itting": 3661,
      "environment": 3662,
      "legal": 3663,
      "sil": 3664,
      "push": 3665,
      "sold": 3666,
      "intr": 3667,
      "phone": 3668,
      "500": 3669,
      "authorities": 3670,
      "production": 3671,
      "couple": 3672,
      "results": 3673,
      "##oph": 3674,
      "##isc": 3675,
      "bud": 3676,
      "leading": 3677,
      "countries": 3678,
      "justice": 3679,
      "##ara": 3680,
      "insp": 3681,
      "##ument": 3682,
      "bal": 3683,
      "alleged": 3684,
      "rain": 3685,
      "mad": 3686,
      "education": 3687,
      "instit": 3688,
      "##rupt": 3689,
      "##bc": 3690,
      "immedi": 3691,
      "compl": 3692,
      "ce": 3693,
      "enjoy": 3694,
      "events": 3695,
      "##ession": 3696,
      "anything": 3697,
      "##attle": 3698,
      "##den": 3699,
      "matter": 3700,
      "fourth": 3701,
      "meas": 3702,
      "investment": 3703,
      "significant": 3704,
      "moment": 3705,
      "circ": 3706,
      "##imate": 3707,
      "brand": 3708,
      "areas": 3709,
      "inside": 3710,
      "deep": 3711,
      "##ength": 3712,
      "travel": 3713,
      "wall": 3714,
      "fair": 3715,
      "rev": 3716,
      "##bo": 3717,
      "training": 3718,
      "##orr": 3719,
      "serious": 3720,
      "##ona": 3721,
      "geor": 3722,
      "##lear": 3723,
      "espec": 3724,
      "type": 3725,
      "wasn": 3726,
      "william": 3727,
      "especially": 3728,
      "##epend": 3729,
      "##mp": 3730,
      "bir": 3731,
      "60": 3732,
      "##body": 3733,
      "began": 3734,
      "##ober": 3735,
      "45": 3736,
      "00": 3737,
      "judge": 3738,
      "cult": 3739,
      "##selves": 3740,
      "##fic": 3741,
      "winning": 3742,
      "independ": 3743,
      "nothing": 3744,
      "corpor": 3745,
      "##iple": 3746,
      "force": 3747,
      "##ried": 3748,
      "please": 3749,
      "value": 3750,
      "leave": 3751,
      "unc": 3752,
      "gar": 3753,
      "involved": 3754,
      "request": 3755,
      "extr": 3756,
      "incident": 3757,
      "##ural": 3758,
      "describ": 3759,
      "michael": 3760,
      "needed": 3761,
      "analyst": 3762,
      "##atures": 3763,
      "##opped": 3764,
      "instead": 3765,
      "associated": 3766,
      "mind": 3767,
      "evening": 3768,
      "works": 3769,
      "subscribe": 3770,
      "gave": 3771,
      "england": 3772,
      "deter": 3773,
      "customers": 3774,
      "october": 3775,
      "##ij": 3776,
      "dan": 3777,
      "sect": 3778,
      "cross": 3779,
      "himself": 3780,
      "aftern": 3781,
      "search": 3782,
      "tick": 3783,
      "similar": 3784,
      "##yan": 3785,
      "opportunity": 3786,
      "isn": 3787,
      "pros": 3788,
      "##ening": 3789,
      "seek": 3790,
      "##ops": 3791,
      "scre": 3792,
      "alth": 3793,
      "##uit": 3794,
      "##cement": 3795,
      "afternoon": 3796,
      "##ilities": 3797,
      "particip": 3798,
      "recomm": 3799,
      "annual": 3800,
      "diffic": 3801,
      "although": 3802,
      "problem": 3803,
      "union": 3804,
      "german": 3805,
      "russian": 3806,
      "https": 3807,
      "wild": 3808,
      "ok": 3809,
      "island": 3810,
      "material": 3811,
      "alex": 3812,
      "sched": 3813,
      "vers": 3814,
      "dog": 3815,
      "anyone": 3816,
      "thom": 3817,
      "ver": 3818,
      "relationship": 3819,
      "parents": 3820,
      "lives": 3821,
      "click": 3822,
      "cit": 3823,
      "##ogn": 3824,
      "via": 3825,
      "##ental": 3826,
      "draw": 3827,
      "ord": 3828,
      "upper": 3829,
      "fly": 3830,
      "##iec": 3831,
      "file": 3832,
      "range": 3833,
      "reser": 3834,
      "reveal": 3835,
      "groups": 3836,
      "mart": 3837,
      "##eter": 3838,
      "tex": 3839,
      "contract": 3840,
      "heav": 3841,
      "journal": 3842,
      "paul": 3843,
      "convers": 3844,
      "##anch": 3845,
      "kim": 3846,
      "mac": 3847,
      "##ule": 3848,
      "rock": 3849,
      "202": 3850,
      "drive": 3851,
      "##uff": 3852,
      "centre": 3853,
      "##ades": 3854,
      "artic": 3855,
      "vehicle": 3856,
      "touch": 3857,
      "##bur": 3858,
      "ground": 3859,
      "##aughter": 3860,
      "middle": 3861,
      "prime": 3862,
      "father": 3863,
      "##ighb": 3864,
      "##ises": 3865,
      "neighb": 3866,
      "property": 3867,
      "living": 3868,
      "award": 3869,
      "##istan": 3870,
      "ham": 3871,
      "cur": 3872,
      "##tain": 3873,
      "mob": 3874,
      "##omb": 3875,
      "scored": 3876,
      "hall": 3877,
      "##ufact": 3878,
      "create": 3879,
      "##of": 3880,
      "thunderst": 3881,
      "content": 3882,
      "manufact": 3883,
      "worth": 3884,
      "wife": 3885,
      "##fully": 3886,
      "analys": 3887,
      "brown": 3888,
      "doll": 3889,
      "log": 3890,
      "candid": 3891,
      "terms": 3892,
      "pret": 3893,
      "prices": 3894,
      "happened": 3895,
      "credit": 3896,
      "network": 3897,
      "charl": 3898,
      "date": 3899,
      "matt": 3900,
      "rose": 3901,
      "church": 3902,
      "fest": 3903,
      "workers": 3904,
      "self": 3905,
      "kids": 3906,
      "european": 3907,
      "approach": 3908,
      "intell": 3909,
      "happy": 3910,
      "song": 3911,
      "civ": 3912,
      "##isl": 3913,
      "beat": 3914,
      "##ocks": 3915,
      "driving": 3916,
      "laws": 3917,
      "abs": 3918,
      "phys": 3919,
      "##apan": 3920,
      "forec": 3921,
      "##itor": 3922,
      "biggest": 3923,
      "##aur": 3924,
      "residents": 3925,
      "pur": 3926,
      "##ask": 3927,
      "##ena": 3928,
      "firm": 3929,
      "ton": 3930,
      "above": 3931,
      "##yc": 3932,
      "constr": 3933,
      "worked": 3934,
      "##aging": 3935,
      "protect": 3936,
      "##ady": 3937,
      "wood": 3938,
      "sup": 3939,
      "whole": 3940,
      "wel": 3941,
      "##itted": 3942,
      "challeng": 3943,
      "violence": 3944,
      "arrested": 3945,
      "trust": 3946,
      "##bed": 3947,
      "pull": 3948,
      "partners": 3949,
      "##ude": 3950,
      "##cript": 3951,
      "wal": 3952,
      "##ago": 3953,
      "syr": 3954,
      "ul": 3955,
      "box": 3956,
      "consider": 3957,
      "tweet": 3958,
      "bat": 3959,
      "prior": 3960,
      "thunderstorms": 3961,
      "clin": 3962,
      "difficult": 3963,
      "##atives": 3964,
      "growing": 3965,
      "vill": 3966,
      "##eth": 3967,
      "japan": 3968,
      "purch": 3969,
      "##vey": 3970,
      "changes": 3971,
      "nine": 3972,
      "32": 3973,
      "leav": 3974,
      "##ston": 3975,
      "##ruct": 3976,
      "starting": 3977,
      "cash": 3978,
      "##hold": 3979,
      "prim": 3980,
      "legisl": 3981,
      "##mar": 3982,
      "situation": 3983,
      "##na": 3984,
      "##cast": 3985,
      "additional": 3986,
      "entire": 3987,
      "showed": 3988,
      "bay": 3989,
      "schools": 3990,
      "store": 3991,
      "published": 3992,
      "king": 3993,
      "##ores": 3994,
      "else": 3995,
      "oh": 3996,
      "revenue": 3997,
      "##ein": 3998,
      "##ram": 3999,
      "dist": 4000,
      "bea": 4001,
      "provided": 4002,
      "prepar": 4003,
      "indic": 4004,
      "surpr": 4005,
      "anim": 4006,
      "attempt": 4007,
      "respect": 4008,
      "pitch": 4009,
      "regul": 4010,
      "stra": 4011,
      "goals": 4012,
      "##ca": 4013,
      "increasing": 4014,
      "##itness": 4015,
      "70": 4016,
      "##aught": 4017,
      "wants": 4018,
      "quality": 4019,
      "images": 4020,
      "camer": 4021,
      "traff": 4022,
      "gas": 4023,
      "niger": 4024,
      "questions": 4025,
      "ach": 4026,
      "##ino": 4027,
      "jobs": 4028,
      "sexual": 4029,
      "##gn": 4030,
      "##han": 4031,
      "##ecess": 4032,
      "##action": 4033,
      "spot": 4034,
      "rather": 4035,
      "##ements": 4036,
      "##hood": 4037,
      "##sc": 4038,
      "either": 4039,
      "##nn": 4040,
      "analysis": 4041,
      "##lus": 4042,
      "september": 4043,
      "pred": 4044,
      "ben": 4045,
      "answ": 4046,
      "whose": 4047,
      "takes": 4048,
      "plat": 4049,
      "roll": 4050,
      "anti": 4051,
      "vo": 4052,
      "conduct": 4053,
      "recogn": 4054,
      "specific": 4055,
      "common": 4056,
      "##onse": 4057,
      "angeles": 4058,
      "proj": 4059,
      "true": 4060,
      "became": 4061,
      "rs": 4062,
      "hous": 4063,
      "oppos": 4064,
      "corn": 4065,
      "stage": 4066,
      "remain": 4067,
      "##ograph": 4068,
      "ready": 4069,
      "details": 4070,
      "victory": 4071,
      "flor": 4072,
      "##ugh": 4073,
      "popular": 4074,
      "##ilt": 4075,
      "##anger": 4076,
      "strugg": 4077,
      "vote": 4078,
      "markets": 4079,
      "dest": 4080,
      "suprem": 4081,
      "championship": 4082,
      "##oo": 4083,
      "accept": 4084,
      "mer": 4085,
      "speed": 4086,
      "charges": 4087,
      "response": 4088,
      "title": 4089,
      "fast": 4090,
      "##ida": 4091,
      "33": 4092,
      "hy": 4093,
      "directly": 4094,
      "scene": 4095,
      "includes": 4096,
      "republican": 4097,
      "regular": 4098,
      "engine": 4099,
      "economy": 4100,
      "terror": 4101,
      "swe": 4102,
      "pressure": 4103,
      "##mber": 4104,
      "##arr": 4105,
      "sat": 4106,
      "##ica": 4107,
      "autom": 4108,
      "guard": 4109,
      "inn": 4110,
      "lif": 4111,
      "mel": 4112,
      "2013": 4113,
      "bi": 4114,
      "ont": 4115,
      "secretary": 4116,
      "investors": 4117,
      "ath": 4118,
      "probably": 4119,
      "pic": 4120,
      "nove": 4121,
      "becoming": 4122,
      "november": 4123,
      "trial": 4124,
      "sand": 4125,
      "blue": 4126,
      "farm": 4127,
      "defense": 4128,
      "idea": 4129,
      "accused": 4130,
      "hus": 4131,
      "helped": 4132,
      "posted": 4133,
      "safe": 4134,
      "##aring": 4135,
      "displ": 4136,
      "cannot": 4137,
      "advertis": 4138,
      "british": 4139,
      "largest": 4140,
      "##owd": 4141,
      "continued": 4142,
      "comments": 4143,
      "##utions": 4144,
      "civil": 4145,
      "tab": 4146,
      "minist": 4147,
      "god": 4148,
      "turned": 4149,
      "##imes": 4150,
      "heard": 4151,
      "deg": 4152,
      "attr": 4153,
      "##uclear": 4154,
      "included": 4155,
      "##come": 4156,
      "##ha": 4157,
      "amb": 4158,
      "student": 4159,
      "##ster": 4160,
      "##me": 4161,
      "##la": 4162,
      "throughout": 4163,
      "brought": 4164,
      "industr": 4165,
      "cast": 4166,
      "##estern": 4167,
      "driver": 4168,
      "##room": 4169,
      "refer": 4170,
      "themselves": 4171,
      "prosecut": 4172,
      "smith": 4173,
      "cancer": 4174,
      "mcc": 4175,
      "rout": 4176,
      "##band": 4177,
      "roy": 4178,
      "regard": 4179,
      "shared": 4180,
      "cell": 4181,
      "natur": 4182,
      "##enced": 4183,
      "chic": 4184,
      "pretty": 4185,
      "##wor": 4186,
      "##ya": 4187,
      "##ened": 4188,
      "36": 4189,
      "recover": 4190,
      "paid": 4191,
      "thous": 4192,
      "ful": 4193,
      "evidence": 4194,
      "teach": 4195,
      "opening": 4196,
      "aim": 4197,
      "sam": 4198,
      "various": 4199,
      "longer": 4200,
      "weather": 4201,
      "families": 4202,
      "fif": 4203,
      "seg": 4204,
      "achie": 4205,
      "station": 4206,
      "straight": 4207,
      "##atory": 4208,
      "##iers": 4209,
      "cause": 4210,
      "##oid": 4211,
      "soft": 4212,
      "injury": 4213,
      "restaur": 4214,
      "intellig": 4215,
      "mount": 4216,
      "##ban": 4217,
      "goog": 4218,
      "acqu": 4219,
      "##reg": 4220,
      "##ceed": 4221,
      "users": 4222,
      "resour": 4223,
      "tradition": 4224,
      "communic": 4225,
      "##dr": 4226,
      "allowed": 4227,
      "moving": 4228,
      "efforts": 4229,
      "doct": 4230,
      "unl": 4231,
      "model": 4232,
      "charged": 4233,
      "overall": 4234,
      "advis": 4235,
      "updates": 4236,
      "smart": 4237,
      "##acter": 4238,
      "remains": 4239,
      "costs": 4240,
      "hands": 4241,
      "unf": 4242,
      "gall": 4243,
      "example": 4244,
      "huge": 4245,
      "exist": 4246,
      "texas": 4247,
      "sett": 4248,
      "34": 4249,
      "scott": 4250,
      "decided": 4251,
      "piec": 4252,
      "jones": 4253,
      "mis": 4254,
      "##vin": 4255,
      "fear": 4256,
      "pac": 4257,
      "coast": 4258,
      "estab": 4259,
      "bord": 4260,
      "extrem": 4261,
      "##itten": 4262,
      "learn": 4263,
      "nfl": 4264,
      "runs": 4265,
      "peace": 4266,
      "insur": 4267,
      "##ites": 4268,
      "nuclear": 4269,
      "disp": 4270,
      "198": 4271,
      "citiz": 4272,
      "spent": 4273,
      "norm": 4274,
      "##ume": 4275,
      "daughter": 4276,
      "conditions": 4277,
      "picture": 4278,
      "river": 4279,
      "rid": 4280,
      "bey": 4281,
      "lou": 4282,
      "perf": 4283,
      "felt": 4284,
      "##inese": 4285,
      "progress": 4286,
      "speak": 4287,
      "introd": 4288,
      "##ung": 4289,
      "immediately": 4290,
      "franc": 4291,
      "require": 4292,
      "giving": 4293,
      "practice": 4294,
      "google": 4295,
      "##uries": 4296,
      "cases": 4297,
      "##oper": 4298,
      "amount": 4299,
      "association": 4300,
      "robert": 4301,
      "sher": 4302,
      "spring": 4303,
      "##down": 4304,
      "ways": 4305,
      "##ills": 4306,
      "lake": 4307,
      "90": 4308,
      "platform": 4309,
      "easy": 4310,
      "treatment": 4311,
      "assault": 4312,
      "color": 4313,
      "##ole": 4314,
      "simp": 4315,
      "ill": 4316,
      "issued": 4317,
      "tourn": 4318,
      "quite": 4319,
      "expand": 4320,
      "http": 4321,
      "chinese": 4322,
      "scr": 4323,
      "##rael": 4324,
      "##ique": 4325,
      "##isions": 4326,
      "pm": 4327,
      "sem": 4328,
      "##ari": 4329,
      "hur": 4330,
      "increased": 4331,
      "french": 4332,
      "poll": 4333,
      "employees": 4334,
      "getty": 4335,
      "seems": 4336,
      "forecast": 4337,
      "##da": 4338,
      "charge": 4339,
      "mix": 4340,
      "rom": 4341,
      "prison": 4342,
      "problems": 4343,
      "snow": 4344,
      "budget": 4345,
      "israel": 4346,
      "lack": 4347,
      "text": 4348,
      "australia": 4349,
      "ceo": 4350,
      "exch": 4351,
      "##lam": 4352,
      "senate": 4353,
      "adding": 4354,
      "##rect": 4355,
      "wrong": 4356,
      "favor": 4357,
      "finally": 4358,
      "immigr": 4359,
      "ital": 4360,
      "weap": 4361,
      "separ": 4362,
      "80": 4363,
      "agreement": 4364,
      "##arm": 4365,
      "register": 4366,
      "article": 4367,
      "looks": 4368,
      "virgin": 4369,
      "sport": 4370,
      "##ware": 4371,
      "calls": 4372,
      "##ci": 4373,
      "tough": 4374,
      "enfor": 4375,
      "crash": 4376,
      "las": 4377,
      "##olf": 4378,
      "income": 4379,
      "beach": 4380,
      "reporting": 4381,
      "carry": 4382,
      "bott": 4383,
      "transport": 4384,
      "##istic": 4385,
      "kick": 4386,
      "businesses": 4387,
      "##ibuted": 4388,
      "##onto": 4389,
      "johnson": 4390,
      "##where": 4391,
      "##ky": 4392,
      "70s": 4393,
      "tried": 4394,
      "obs": 4395,
      "crime": 4396,
      "effort": 4397,
      "ensure": 4398,
      "bull": 4399,
      "raised": 4400,
      "mex": 4401,
      "##ota": 4402,
      "75": 4403,
      "constit": 4404,
      "rank": 4405,
      "turk": 4406,
      "bowl": 4407,
      "injured": 4408,
      "mike": 4409,
      "ten": 4410,
      "nom": 4411,
      "##anta": 4412,
      "que": 4413,
      "sale": 4414,
      "created": 4415,
      "birth": 4416,
      "bed": 4417,
      "quickly": 4418,
      "##mer": 4419,
      "extra": 4420,
      "goes": 4421,
      "ms": 4422,
      "toronto": 4423,
      "clean": 4424,
      "band": 4425,
      "discover": 4426,
      "chicago": 4427,
      "original": 4428,
      "##hib": 4429,
      "digital": 4430,
      "##enge": 4431,
      "##ging": 4432,
      "movie": 4433,
      "athlet": 4434,
      "estim": 4435,
      "ther": 4436,
      "conserv": 4437,
      "pair": 4438,
      "fill": 4439,
      "ut": 4440,
      "retail": 4441,
      "ber": 4442,
      "ended": 4443,
      "previously": 4444,
      "##uments": 4445,
      "double": 4446,
      "##ension": 4447,
      "sens": 4448,
      "mu": 4449,
      "copyr": 4450,
      "blood": 4451,
      "##uth": 4452,
      "##xim": 4453,
      "coverage": 4454,
      "rh": 4455,
      "et": 4456,
      "multiple": 4457,
      "doub": 4458,
      "partner": 4459,
      "rap": 4460,
      "veg": 4461,
      "receive": 4462,
      "slow": 4463,
      "defin": 4464,
      "experi": 4465,
      "advertisement": 4466,
      "named": 4467,
      "2012": 4468,
      "patients": 4469,
      "failed": 4470,
      "copyright": 4471,
      "gard": 4472,
      "society": 4473,
      "tele": 4474,
      "knew": 4475,
      "##kn": 4476,
      "rates": 4477,
      "stories": 4478,
      "appeared": 4479,
      "rise": 4480,
      "encour": 4481,
      "wond": 4482,
      "grad": 4483,
      "rat": 4484,
      "##icted": 4485,
      "##uing": 4486,
      "promot": 4487,
      "dise": 4488,
      "positive": 4489,
      "##ream": 4490,
      "competition": 4491,
      "finish": 4492,
      "sector": 4493,
      "rules": 4494,
      "counter": 4495,
      "histor": 4496,
      "##encies": 4497,
      "mic": 4498,
      "complete": 4499,
      "##hi": 4500,
      "opened": 4501,
      "##rel": 4502,
      "fem": 4503,
      "strength": 4504,
      "ran": 4505,
      "sle": 4506,
      "arch": 4507,
      "cities": 4508,
      "size": 4509,
      "division": 4510,
      "catch": 4511,
      "trip": 4512,
      "intelligence": 4513,
      "cas": 4514,
      "prevent": 4515,
      "connect": 4516,
      "murder": 4517,
      "feb": 4518,
      "organization": 4519,
      "draft": 4520,
      "##stein": 4521,
      "claims": 4522,
      "revealed": 4523,
      "condition": 4524,
      "concerns": 4525,
      "##uced": 4526,
      "window": 4527,
      "systems": 4528,
      "##fort": 4529,
      "closed": 4530,
      "ol": 4531,
      "remember": 4532,
      "decl": 4533,
      "critic": 4534,
      "signed": 4535,
      "perfect": 4536,
      "necess": 4537,
      "followed": 4538,
      "florida": 4539,
      "basket": 4540,
      "##west": 4541,
      "chris": 4542,
      "limited": 4543,
      "gets": 4544,
      "sense": 4545,
      "fresh": 4546,
      "##ki": 4547,
      "apart": 4548,
      "husband": 4549,
      "forces": 4550,
      "##berg": 4551,
      "pak": 4552,
      "##box": 4553,
      "##opping": 4554,
      "bond": 4555,
      "festival": 4556,
      "55": 4557,
      "li": 4558,
      "compared": 4559,
      "##east": 4560,
      "features": 4561,
      "victims": 4562,
      "challenge": 4563,
      "continues": 4564,
      "canadian": 4565,
      "confirmed": 4566,
      "mach": 4567,
      "37": 4568,
      "message": 4569,
      "##iant": 4570,
      "tournament": 4571,
      "##ke": 4572,
      "carol": 4573,
      "looked": 4574,
      "western": 4575,
      "fa": 4576,
      "hund": 4577,
      "van": 4578,
      "baby": 4579,
      "entr": 4580,
      "talks": 4581,
      "##ding": 4582,
      "eu": 4583,
      "##ective": 4584,
      "jeff": 4585,
      "##ounts": 4586,
      "missing": 4587,
      "charlott": 4588,
      "moved": 4589,
      "surv": 4590,
      "democratic": 4591,
      "thousands": 4592,
      "medic": 4593,
      "##ipped": 4594,
      "governor": 4595,
      "attention": 4596,
      "esc": 4597,
      "##eless": 4598,
      "lawy": 4599,
      "eg": 4600,
      "recommend": 4601,
      "hundred": 4602,
      "veter": 4603,
      "bag": 4604,
      "mobile": 4605,
      "note": 4606,
      "built": 4607,
      "apple": 4608,
      "##load": 4609,
      "cris": 4610,
      "numbers": 4611,
      "fbi": 4612,
      "emergency": 4613,
      "beyond": 4614,
      "overs": 4615,
      "hearing": 4616,
      "france": 4617,
      "electric": 4618,
      "natural": 4619,
      "maybe": 4620,
      "ps": 4621,
      "injuries": 4622,
      "chairman": 4623,
      "##iction": 4624,
      "##my": 4625,
      "din": 4626,
      "jump": 4627,
      "index": 4628,
      "rating": 4629,
      "wil": 4630,
      "influ": 4631,
      "conversation": 4632,
      "grant": 4633,
      "##ider": 4634,
      "41": 4635,
      "iran": 4636,
      "##aming": 4637,
      "cars": 4638,
      "##ese": 4639,
      "wide": 4640,
      "obama": 4641,
      "ice": 4642,
      "reached": 4643,
      "simply": 4644,
      "described": 4645,
      "fix": 4646,
      "words": 4647,
      "und": 4648,
      "levels": 4649,
      "##inated": 4650,
      "38": 4651,
      "resol": 4652,
      "nas": 4653,
      "sound": 4654,
      "##inks": 4655,
      "pers": 4656,
      "criminal": 4657,
      "ability": 4658,
      "virginia": 4659,
      "premier": 4660,
      "jackson": 4661,
      "projects": 4662,
      "gone": 4663,
      "##oti": 4664,
      "construction": 4665,
      "eag": 4666,
      "traffic": 4667,
      "##ification": 4668,
      "##elling": 4669,
      "penal": 4670,
      "regional": 4671,
      "##light": 4672,
      "behav": 4673,
      "alb": 4674,
      "##iance": 4675,
      "##enty": 4676,
      "plus": 4677,
      "##izing": 4678,
      "offers": 4679,
      "vegas": 4680,
      "##osh": 4681,
      "##ires": 4682,
      "schedul": 4683,
      "##ris": 4684,
      "##overs": 4685,
      "count": 4686,
      "born": 4687,
      "homes": 4688,
      "trib": 4689,
      "yes": 4690,
      "witness": 4691,
      "po": 4692,
      "##ges": 4693,
      "americans": 4694,
      "southern": 4695,
      "operations": 4696,
      "door": 4697,
      "save": 4698,
      "fort": 4699,
      "disapp": 4700,
      "vice": 4701,
      "##time": 4702,
      "pakistan": 4703,
      "storm": 4704,
      "letter": 4705,
      "fat": 4706,
      "feet": 4707,
      "williams": 4708,
      "49": 4709,
      "danger": 4710,
      "amazon": 4711,
      "minute": 4712,
      "opportunities": 4713,
      "tel": 4714,
      "required": 4715,
      "fox": 4716,
      "ele": 4717,
      "##ado": 4718,
      "girls": 4719,
      "talking": 4720,
      "ryan": 4721,
      "speaking": 4722,
      "professional": 4723,
      "heavy": 4724,
      "der": 4725,
      "##20": 4726,
      "korean": 4727,
      "character": 4728,
      "vehicles": 4729,
      "##ction": 4730,
      "northern": 4731,
      "analysts": 4732,
      "demon": 4733,
      "carr": 4734,
      "brok": 4735,
      "thanks": 4736,
      "##une": 4737,
      "owners": 4738,
      "##ze": 4739,
      "george": 4740,
      "cat": 4741,
      "##ems": 4742,
      "##iet": 4743,
      "acad": 4744,
      "sometimes": 4745,
      "frank": 4746,
      "##anced": 4747,
      "towards": 4748,
      "valley": 4749,
      "##essed": 4750,
      "##oint": 4751,
      "44": 4752,
      "crowd": 4753,
      "funding": 4754,
      "propos": 4755,
      "exact": 4756,
      "lang": 4757,
      "##night": 4758,
      "lt": 4759,
      "##eed": 4760,
      "kar": 4761,
      "mos": 4762,
      "brief": 4763,
      "cab": 4764,
      "itself": 4765,
      "##com": 4766,
      "##icip": 4767,
      "baseball": 4768,
      "avoid": 4769,
      "##ews": 4770,
      "basis": 4771,
      "leaving": 4772,
      "africa": 4773,
      "##while": 4774,
      "finished": 4775,
      "hotel": 4776,
      "##chester": 4777,
      "##ga": 4778,
      "jose": 4779,
      "attend": 4780,
      "##astic": 4781,
      "flow": 4782,
      "48": 4783,
      "##iring": 4784,
      "subst": 4785,
      "guys": 4786,
      "battle": 4787,
      "ess": 4788,
      "cool": 4789,
      "playoff": 4790,
      "claimed": 4791,
      "princ": 4792,
      "profit": 4793,
      "planning": 4794,
      "##eline": 4795,
      "##airs": 4796,
      "flag": 4797,
      "academ": 4798,
      "tenn": 4799,
      "winner": 4800,
      "od": 4801,
      "louis": 4802,
      "##eat": 4803,
      "volun": 4804,
      "initi": 4805,
      "##emb": 4806,
      "##itz": 4807,
      "##arily": 4808,
      "thomas": 4809,
      "##orter": 4810,
      "brother": 4811,
      "spokesman": 4812,
      "ny": 4813,
      "suspect": 4814,
      "unit": 4815,
      "guy": 4816,
      "bost": 4817,
      "display": 4818,
      "##oes": 4819,
      "nav": 4820,
      "launched": 4821,
      "obv": 4822,
      "funds": 4823,
      "highest": 4824,
      "##acts": 4825,
      "poor": 4826,
      "slight": 4827,
      "leadership": 4828,
      "calling": 4829,
      "particularly": 4830,
      "photos": 4831,
      "commerc": 4832,
      "radio": 4833,
      "##apped": 4834,
      "obvious": 4835,
      "spir": 4836,
      "steve": 4837,
      "##coming": 4838,
      "300": 4839,
      "science": 4840,
      "couldn": 4841,
      "options": 4842,
      "##eated": 4843,
      "197": 4844,
      "##itation": 4845,
      "##ring": 4846,
      "majority": 4847,
      "surr": 4848,
      "score": 4849,
      "meth": 4850,
      "39": 4851,
      "ministry": 4852,
      "perm": 4853,
      "agreed": 4854,
      "scient": 4855,
      "die": 4856,
      "individual": 4857,
      "motor": 4858,
      "##agram": 4859,
      "islam": 4860,
      "oly": 4861,
      "lic": 4862,
      "lu": 4863,
      "allegations": 4864,
      "resources": 4865,
      "parl": 4866,
      "##ocked": 4867,
      "##lim": 4868,
      "##ters": 4869,
      "internet": 4870,
      "##ibly": 4871,
      "enforcement": 4872,
      "42": 4873,
      "tech": 4874,
      "##estic": 4875,
      "border": 4876,
      "shut": 4877,
      "foundation": 4878,
      "tonight": 4879,
      "refl": 4880,
      "francis": 4881,
      "kept": 4882,
      "eye": 4883,
      "provides": 4884,
      "##ette": 4885,
      "##uses": 4886,
      "choice": 4887,
      "##ario": 4888,
      "##igan": 4889,
      "floor": 4890,
      "olymp": 4891,
      "trail": 4892,
      "rally": 4893,
      "stad": 4894,
      "style": 4895,
      "impress": 4896,
      "train": 4897,
      "jim": 4898,
      "noted": 4899,
      "ram": 4900,
      "##lined": 4901,
      "youth": 4902,
      "figure": 4903,
      "opin": 4904,
      "boston": 4905,
      "chann": 4906,
      "commit": 4907,
      "independent": 4908,
      "instagram": 4909,
      "filed": 4910,
      "contest": 4911,
      "considered": 4912,
      "mention": 4913,
      "telev": 4914,
      "replac": 4915,
      "complain": 4916,
      "##ala": 4917,
      "tool": 4918,
      "activities": 4919,
      "miles": 4920,
      "##ocket": 4921,
      "stars": 4922,
      "exchange": 4923,
      "negoti": 4924,
      "commercial": 4925,
      "sources": 4926,
      "britain": 4927,
      "caused": 4928,
      "web": 4929,
      "org": 4930,
      "spending": 4931,
      "wish": 4932,
      "spoke": 4933,
      "send": 4934,
      "insurance": 4935,
      "opposition": 4936,
      "subm": 4937,
      "parts": 4938,
      "patr": 4939,
      "##ander": 4940,
      "52": 4941,
      "hack": 4942,
      "##imb": 4943,
      "##tim": 4944,
      "mont": 4945,
      "seeking": 4946,
      "##using": 4947,
      "offered": 4948,
      "crisis": 4949,
      "passed": 4950,
      "emb": 4951,
      "steph": 4952,
      "pun": 4953,
      "document": 4954,
      "trading": 4955,
      "illeg": 4956,
      "stadium": 4957,
      "owner": 4958,
      "##ef": 4959,
      "boost": 4960,
      "restr": 4961,
      "adj": 4962,
      "helping": 4963,
      "changed": 4964,
      "65": 4965,
      "application": 4966,
      "scheduled": 4967,
      "##phone": 4968,
      "path": 4969,
      "bid": 4970,
      "resc": 4971,
      "43": 4972,
      "supply": 4973,
      "jon": 4974,
      "sust": 4975,
      "##going": 4976,
      "51": 4977,
      "mayor": 4978,
      "earnings": 4979,
      "plant": 4980,
      "parliam": 4981,
      "seeing": 4982,
      "served": 4983,
      "consult": 4984,
      "##eller": 4985,
      "meanwhile": 4986,
      "reading": 4987,
      "##he": 4988,
      "organiz": 4989,
      "struct": 4990,
      "eth": 4991,
      "##aries": 4992,
      "drink": 4993,
      "##vent": 4994,
      "drivers": 4995,
      "basketball": 4996,
      "yards": 4997,
      "fish": 4998,
      "decades": 4999,
      "wat": 5000,
      "toward": 5001,
      "tickets": 5002,
      "winter": 5003,
      "fifth": 5004,
      "cooper": 5005,
      "talent": 5006,
      "kid": 5007,
      "primary": 5008,
      "joined": 5009,
      "parliament": 5010,
      "appeal": 5011,
      "vac": 5012,
      "offering": 5013,
      "##cription": 5014,
      "forced": 5015,
      "##kin": 5016,
      "army": 5017,
      "mexico": 5018,
      "crew": 5019,
      "politics": 5020,
      "designed": 5021,
      "teen": 5022,
      "gather": 5023,
      "##egr": 5024,
      "memor": 5025,
      "burn": 5026,
      "chem": 5027,
      "citizens": 5028,
      "dark": 5029,
      "andrew": 5030,
      "location": 5031,
      "nba": 5032,
      "atl": 5033,
      "disease": 5034,
      "germany": 5035,
      "debt": 5036,
      "certainly": 5037,
      "asia": 5038,
      "##za": 5039,
      "sad": 5040,
      "2011": 5041,
      "champion": 5042,
      "identified": 5043,
      "minor": 5044,
      "square": 5045,
      "table": 5046,
      "restaurant": 5047,
      "democrats": 5048,
      "holding": 5049,
      "breaking": 5050,
      "culture": 5051,
      "demonstr": 5052,
      "upon": 5053,
      "##hol": 5054,
      "presidential": 5055,
      "emot": 5056,
      "fal": 5057,
      "##wide": 5058,
      "##ani": 5059,
      "##hl": 5060,
      "beginning": 5061,
      "defend": 5062,
      "speech": 5063,
      "bomb": 5064,
      "perh": 5065,
      "perhaps": 5066,
      "innov": 5067,
      "##oe": 5068,
      "##iles": 5069,
      "weight": 5070,
      "mary": 5071,
      "##oving": 5072,
      "##ously": 5073,
      "fine": 5074,
      "##rop": 5075,
      "resident": 5076,
      "deputy": 5077,
      "heat": 5078,
      "epis": 5079,
      "fully": 5080,
      "ros": 5081,
      "sar": 5082,
      "##lor": 5083,
      "doz": 5084,
      "passeng": 5085,
      "##makers": 5086,
      "wait": 5087,
      "communities": 5088,
      "transfer": 5089,
      "anth": 5090,
      "cold": 5091,
      "##mas": 5092,
      "uns": 5093,
      "mir": 5094,
      "martin": 5095,
      "##set": 5096,
      "##ero": 5097,
      "alone": 5098,
      "##uals": 5099,
      "planned": 5100,
      "fash": 5101,
      "##ancy": 5102,
      "jul": 5103,
      "implement": 5104,
      "##oles": 5105,
      "prec": 5106,
      "appar": 5107,
      "raise": 5108,
      "temper": 5109,
      "lay": 5110,
      "records": 5111,
      "haven": 5112,
      "beg": 5113,
      "infr": 5114,
      "integr": 5115,
      "hou": 5116,
      "protection": 5117,
      "advant": 5118,
      "housing": 5119,
      "##lines": 5120,
      "##omp": 5121,
      "cy": 5122,
      "##lywood": 5123,
      "benefits": 5124,
      "drugs": 5125,
      "kel": 5126,
      "##oom": 5127,
      "fan": 5128,
      "##inary": 5129,
      "paper": 5130,
      "successful": 5131,
      "46": 5132,
      "stocks": 5133,
      "sheriff": 5134,
      "feed": 5135,
      "pip": 5136,
      "boys": 5137,
      "drop": 5138,
      "##ola": 5139,
      "hundreds": 5140,
      "standard": 5141,
      "nick": 5142,
      "complex": 5143,
      "reality": 5144,
      "##owing": 5145,
      "feature": 5146,
      "pad": 5147,
      "##ici": 5148,
      "##pool": 5149,
      "serve": 5150,
      "degree": 5151,
      "answer": 5152,
      "parties": 5153,
      "attract": 5154,
      "sud": 5155,
      "ariz": 5156,
      "operating": 5157,
      "correct": 5158,
      "##sen": 5159,
      "devices": 5160,
      "status": 5161,
      "comfort": 5162,
      "eventually": 5163,
      "lee": 5164,
      "tow": 5165,
      "##gers": 5166,
      "##ustr": 5167,
      "providing": 5168,
      "##oval": 5169,
      "##iled": 5170,
      "fle": 5171,
      "spread": 5172,
      "attacks": 5173,
      "##iful": 5174,
      "##entially": 5175,
      "version": 5176,
      "strik": 5177,
      "equip": 5178,
      "republicans": 5179,
      "modern": 5180,
      "##abor": 5181,
      "##men": 5182,
      "reporters": 5183,
      "fashion": 5184,
      "reserved": 5185,
      "mental": 5186,
      "47": 5187,
      "##ili": 5188,
      "asking": 5189,
      "survey": 5190,
      "rising": 5191,
      "rod": 5192,
      "voice": 5193,
      "traditional": 5194,
      "penn": 5195,
      "experts": 5196,
      "jail": 5197,
      "weapons": 5198,
      "believed": 5199,
      "cookies": 5200,
      "simple": 5201,
      "##edy": 5202,
      "purp": 5203,
      "segment": 5204,
      "domestic": 5205,
      "returned": 5206,
      "debut": 5207,
      "vs": 5208,
      "exam": 5209,
      "coal": 5210,
      "programs": 5211,
      "word": 5212,
      "##ledge": 5213,
      "african": 5214,
      "banks": 5215,
      "supreme": 5216,
      "decisions": 5217,
      "benefit": 5218,
      "television": 5219,
      "earth": 5220,
      "session": 5221,
      "##inger": 5222,
      "sym": 5223,
      "fired": 5224,
      "##elled": 5225,
      "paris": 5226,
      "manchester": 5227,
      "joe": 5228,
      "activity": 5229,
      "relig": 5230,
      "golf": 5231,
      "guest": 5232,
      "killing": 5233,
      "ones": 5234,
      "##icks": 5235,
      "era": 5236,
      "broadcast": 5237,
      "written": 5238,
      "sites": 5239,
      "except": 5240,
      "afford": 5241,
      "wouldn": 5242,
      "##wr": 5243,
      "caught": 5244,
      "richard": 5245,
      "haw": 5246,
      "resign": 5247,
      "critical": 5248,
      "##ania": 5249,
      "aren": 5250,
      "##ucky": 5251,
      "99": 5252,
      "professor": 5253,
      "piece": 5254,
      "corner": 5255,
      "researchers": 5256,
      "female": 5257,
      "54": 5258,
      "##ansas": 5259,
      "mission": 5260,
      "labor": 5261,
      "bench": 5262,
      "##kins": 5263,
      "##amb": 5264,
      "##tress": 5265,
      "technolog": 5266,
      "achieve": 5267,
      "ren": 5268,
      "proposed": 5269,
      "wonder": 5270,
      "##ez": 5271,
      "showing": 5272,
      "losing": 5273,
      "inbox": 5274,
      "adop": 5275,
      "places": 5276,
      "guil": 5277,
      "tack": 5278,
      "movement": 5279,
      "ped": 5280,
      "royal": 5281,
      "physical": 5282,
      "91": 5283,
      "strategy": 5284,
      "authority": 5285,
      "determin": 5286,
      "##oma": 5287,
      "learning": 5288,
      "nature": 5289,
      "err": 5290,
      "elections": 5291,
      "corporation": 5292,
      "categ": 5293,
      "bell": 5294,
      "##zz": 5295,
      "damage": 5296,
      "shop": 5297,
      "liver": 5298,
      "strike": 5299,
      "explained": 5300,
      "##town": 5301,
      "detail": 5302,
      "owned": 5303,
      "divers": 5304,
      "##ifying": 5305,
      "beaut": 5306,
      "keeping": 5307,
      "asp": 5308,
      "##works": 5309,
      "mun": 5310,
      "airport": 5311,
      "equipment": 5312,
      "plays": 5313,
      "tay": 5314,
      "active": 5315,
      "install": 5316,
      "fighting": 5317,
      "writing": 5318,
      "surg": 5319,
      "##ta": 5320,
      "thinking": 5321,
      "gives": 5322,
      "spl": 5323,
      "feeling": 5324,
      "57": 5325,
      "screen": 5326,
      "linked": 5327,
      "##itely": 5328,
      "##oul": 5329,
      "ded": 5330,
      "freed": 5331,
      "putting": 5332,
      "hair": 5333,
      "population": 5334,
      "entertain": 5335,
      "facing": 5336,
      "option": 5337,
      "challenges": 5338,
      "section": 5339,
      "##veland": 5340,
      "consumer": 5341,
      "hor": 5342,
      "spend": 5343,
      "ty": 5344,
      "subject": 5345,
      "peter": 5346,
      "christmas": 5347,
      "jr": 5348,
      "fuel": 5349,
      "arrived": 5350,
      "syria": 5351,
      "cleveland": 5352,
      "##house": 5353,
      "reform": 5354,
      "##ption": 5355,
      "##sequ": 5356,
      "##ructure": 5357,
      "starts": 5358,
      "nov": 5359,
      "rang": 5360,
      "items": 5361,
      "##bit": 5362,
      "cere": 5363,
      "core": 5364,
      "load": 5365,
      "infrast": 5366,
      "langu": 5367,
      "##esville": 5368,
      "##acher": 5369,
      "videos": 5370,
      "healthy": 5371,
      "greater": 5372,
      "located": 5373,
      "carolina": 5374,
      "##uter": 5375,
      "mist": 5376,
      "196": 5377,
      "golden": 5378,
      "##etic": 5379,
      "assemb": 5380,
      "steel": 5381,
      "committed": 5382,
      "approved": 5383,
      "missed": 5384,
      "barr": 5385,
      "pacific": 5386,
      "##aud": 5387,
      "##alid": 5388,
      "sleep": 5389,
      "abuse": 5390,
      "responsible": 5391,
      "##cing": 5392,
      "gm": 5393,
      "scen": 5394,
      "##ounded": 5395,
      "##erate": 5396,
      "yester": 5397,
      "##iest": 5398,
      "53": 5399,
      "reportedly": 5400,
      "nations": 5401,
      "imag": 5402,
      "rail": 5403,
      "volunte": 5404,
      "pu": 5405,
      "ash": 5406,
      "row": 5407,
      "sav": 5408,
      "finance": 5409,
      "prince": 5410,
      "scot": 5411,
      "trou": 5412,
      "origin": 5413,
      "discl": 5414,
      "caption": 5415,
      "##ucks": 5416,
      "reasons": 5417,
      "daniel": 5418,
      "guilty": 5419,
      "##well": 5420,
      "consist": 5421,
      "customer": 5422,
      "sea": 5423,
      "pin": 5424,
      "update": 5425,
      "cry": 5426,
      "2010": 5427,
      "##gl": 5428,
      "placed": 5429,
      "dollar": 5430,
      "yesterday": 5431,
      "collect": 5432,
      "##aded": 5433,
      "code": 5434,
      "surf": 5435,
      "sides": 5436,
      "beautiful": 5437,
      "##ctions": 5438,
      "rule": 5439,
      "completely": 5440,
      "theat": 5441,
      "actions": 5442,
      "ohio": 5443,
      "operation": 5444,
      "album": 5445,
      "dism": 5446,
      "flood": 5447,
      "houston": 5448,
      "bob": 5449,
      "highly": 5450,
      "##mon": 5451,
      "dub": 5452,
      "gov": 5453,
      "joint": 5454,
      "tar": 5455,
      "dropped": 5456,
      "welcome": 5457,
      "massive": 5458,
      "meant": 5459,
      "appears": 5460,
      "subscribing": 5461,
      "##essions": 5462,
      "focused": 5463,
      "marketing": 5464,
      "jord": 5465,
      "56": 5466,
      "believes": 5467,
      "device": 5468,
      "##eman": 5469,
      "dip": 5470,
      "policies": 5471,
      "bul": 5472,
      "os": 5473,
      "zone": 5474,
      "gh": 5475,
      "camera": 5476,
      "kr": 5477,
      "responsibility": 5478,
      "flight": 5479,
      "usa": 5480,
      "method": 5481,
      "hopes": 5482,
      "holiday": 5483,
      "altern": 5484,
      "##adel": 5485,
      "seat": 5486,
      "advoc": 5487,
      "parent": 5488,
      "infrastructure": 5489,
      "##ground": 5490,
      "candidate": 5491,
      "individuals": 5492,
      "nigeria": 5493,
      "reduce": 5494,
      "##aine": 5495,
      "neighbor": 5496,
      "suffered": 5497,
      "advantage": 5498,
      "unique": 5499,
      "quarterback": 5500,
      "ven": 5501,
      "whe": 5502,
      "brook": 5503,
      "capac": 5504,
      "dar": 5505,
      "64": 5506,
      "memo": 5507,
      "proud": 5508,
      "industrial": 5509,
      "gal": 5510,
      "sort": 5511,
      "developed": 5512,
      "glass": 5513,
      "kevin": 5514,
      "##iced": 5515,
      "minim": 5516,
      "ltd": 5517,
      "##iami": 5518,
      "prosp": 5519,
      "dun": 5520,
      "exactly": 5521,
      "bol": 5522,
      "confidence": 5523,
      "seed": 5524,
      "actor": 5525,
      "awards": 5526,
      "facility": 5527,
      "estate": 5528,
      "destr": 5529,
      "ken": 5530,
      "absol": 5531,
      "measures": 5532,
      "58": 5533,
      "ii": 5534,
      "meaning": 5535,
      "nice": 5536,
      "##oster": 5537,
      "##ada": 5538,
      "muse": 5539,
      "##agn": 5540,
      "micr": 5541,
      "##ushing": 5542,
      "newsp": 5543,
      "domin": 5544,
      "wid": 5545,
      "hits": 5546,
      "stuff": 5547,
      "notice": 5548,
      "arizona": 5549,
      "knows": 5550,
      "##asts": 5551,
      "effective": 5552,
      "expert": 5553,
      "defence": 5554,
      "##ruption": 5555,
      "##irt": 5556,
      "selling": 5557,
      "du": 5558,
      "chap": 5559,
      "purchase": 5560,
      "59": 5561,
      "favour": 5562,
      "spons": 5563,
      "60s": 5564,
      "ire": 5565,
      "editing": 5566,
      "ow": 5567,
      "shel": 5568,
      "gallery": 5569,
      "##ano": 5570,
      "##athan": 5571,
      "usually": 5572,
      "normal": 5573,
      "##anda": 5574,
      "affected": 5575,
      "penalty": 5576,
      "corp": 5577,
      "##ev": 5578,
      "£1": 5579,
      "##apt": 5580,
      "incred": 5581,
      "##ersey": 5582,
      "charlottesville": 5583,
      "ly": 5584,
      "accident": 5585,
      "##50": 5586,
      "cnn": 5587,
      "truck": 5588,
      "purs": 5589,
      "gain": 5590,
      "##cel": 5591,
      "bridge": 5592,
      "##isation": 5593,
      "appre": 5594,
      "watching": 5595,
      "software": 5596,
      "exerc": 5597,
      "definitely": 5598,
      "##outh": 5599,
      "az": 5600,
      "lose": 5601,
      "mand": 5602,
      "outl": 5603,
      "##fri": 5604,
      "kh": 5605,
      "##orrow": 5606,
      "standing": 5607,
      "agent": 5608,
      "miami": 5609,
      "climate": 5610,
      "skills": 5611,
      "jer": 5612,
      "tro": 5613,
      "yield": 5614,
      "72": 5615,
      "allegedly": 5616,
      "##aj": 5617,
      "##don": 5618,
      "invalid": 5619,
      "90s": 5620,
      "explos": 5621,
      "occurr": 5622,
      "partnership": 5623,
      "myself": 5624,
      "australian": 5625,
      "institute": 5626,
      "abc": 5627,
      "##dy": 5628,
      "##mine": 5629,
      "michigan": 5630,
      "existing": 5631,
      "shots": 5632,
      "admitted": 5633,
      "pil": 5634,
      "lines": 5635,
      "##rid": 5636,
      "fit": 5637,
      "##adelph": 5638,
      "tm": 5639,
      "##instein": 5640,
      "clearly": 5641,
      "channel": 5642,
      "philadelph": 5643,
      "cru": 5644,
      "##eration": 5645,
      "rene": 5646,
      "arab": 5647,
      "wearing": 5648,
      "scoring": 5649,
      "finding": 5650,
      "braz": 5651,
      "solutions": 5652,
      "necessary": 5653,
      "difference": 5654,
      "measure": 5655,
      "66": 5656,
      "assets": 5657,
      "##ointed": 5658,
      "hasn": 5659,
      "tight": 5660,
      "philadelphia": 5661,
      "photograph": 5662,
      "pit": 5663,
      "documents": 5664,
      "400": 5665,
      "##oz": 5666,
      "2019": 5667,
      "assistant": 5668,
      "actress": 5669,
      "narr": 5670,
      "eastern": 5671,
      "shown": 5672,
      "ron": 5673,
      "statements": 5674,
      "##ka": 5675,
      "jordan": 5676,
      "museum": 5677,
      "guid": 5678,
      "##30": 5679,
      "immigration": 5680,
      "loved": 5681,
      "assess": 5682,
      "turkey": 5683,
      "mort": 5684,
      "estimated": 5685,
      "hind": 5686,
      "facilities": 5687,
      "ongoing": 5688,
      "recall": 5689,
      "rand": 5690,
      "studies": 5691,
      "squad": 5692,
      "concerned": 5693,
      "responded": 5694,
      "jam": 5695,
      "##care": 5696,
      "exhib": 5697,
      "spirit": 5698,
      "solid": 5699,
      "francisco": 5700,
      "##gu": 5701,
      "completed": 5702,
      "##aves": 5703,
      "occas": 5704,
      "environmental": 5705,
      "freedom": 5706,
      "profile": 5707,
      "brain": 5708,
      "##ita": 5709,
      "creating": 5710,
      "twice": 5711,
      "suit": 5712,
      "##tery": 5713,
      "agree": 5714,
      "##ych": 5715,
      "mail": 5716,
      "factors": 5717,
      "accounts": 5718,
      "warning": 5719,
      "##iar": 5720,
      "object": 5721,
      "managed": 5722,
      "##inn": 5723,
      "##inals": 5724,
      "applications": 5725,
      "english": 5726,
      "defensive": 5727,
      "figures": 5728,
      "amazing": 5729,
      "broke": 5730,
      "user": 5731,
      "struck": 5732,
      "patri": 5733,
      "##icated": 5734,
      "capacity": 5735,
      "excited": 5736,
      "##sea": 5737,
      "##mark": 5738,
      "select": 5739,
      "bottom": 5740,
      "denied": 5741,
      "boss": 5742,
      "christian": 5743,
      "village": 5744,
      "kil": 5745,
      "alab": 5746,
      "dream": 5747,
      "ec": 5748,
      "seasons": 5749,
      "##fc": 5750,
      "generation": 5751,
      "vent": 5752,
      "voters": 5753,
      "##ibution": 5754,
      "cbs": 5755,
      "southeast": 5756,
      "oak": 5757,
      "proceed": 5758,
      "##asc": 5759,
      "controvers": 5760,
      "entertainment": 5761,
      "stated": 5762,
      "##ivity": 5763,
      "lawmakers": 5764,
      "##vant": 5765,
      "coff": 5766,
      "##rey": 5767,
      "##erve": 5768,
      "##ula": 5769,
      "editor": 5770,
      "waiting": 5771,
      "collection": 5772,
      "##burg": 5773,
      "##ador": 5774,
      "columb": 5775,
      "##nel": 5776,
      "surgery": 5777,
      "establish": 5778,
      "century": 5779,
      "decade": 5780,
      "50s": 5781,
      "lady": 5782,
      "ign": 5783,
      "josh": 5784,
      "audience": 5785,
      "##dt": 5786,
      "supporters": 5787,
      "singer": 5788,
      "stopped": 5789,
      "ireland": 5790,
      "##tch": 5791,
      "bringing": 5792,
      "##hs": 5793,
      "worst": 5794,
      "alco": 5795,
      "mueller": 5796,
      "older": 5797,
      "master": 5798,
      "retire": 5799,
      "##unt": 5800,
      "download": 5801,
      "brad": 5802,
      "wins": 5803,
      "signs": 5804,
      "doctor": 5805,
      "dangerous": 5806,
      "walking": 5807,
      "sac": 5808,
      "##roit": 5809,
      "##uke": 5810,
      "apply": 5811,
      "sister": 5812,
      "batt": 5813,
      "equal": 5814,
      "luc": 5815,
      "##ront": 5816,
      "fellow": 5817,
      "eyes": 5818,
      "migr": 5819,
      "views": 5820,
      "confident": 5821,
      "moore": 5822,
      "setting": 5823,
      "##ictions": 5824,
      "manufacturing": 5825,
      "taylor": 5826,
      "prepared": 5827,
      "##bor": 5828,
      "bon": 5829,
      "faces": 5830,
      "61": 5831,
      "corporate": 5832,
      "ell": 5833,
      "ruling": 5834,
      "alabama": 5835,
      "agencies": 5836,
      "cub": 5837,
      "##iny": 5838,
      "divid": 5839,
      "dollars": 5840,
      "testing": 5841,
      "initial": 5842,
      "regarding": 5843,
      "##rant": 5844,
      "alcohol": 5845,
      "##ounding": 5846,
      "upcoming": 5847,
      "expressed": 5848,
      "hate": 5849,
      "amid": 5850,
      "emp": 5851,
      "trend": 5852,
      "liverpool": 5853,
      "limit": 5854,
      "##wise": 5855,
      "manufactur": 5856,
      "##mony": 5857,
      "investigators": 5858,
      "earned": 5859,
      "##ulated": 5860,
      "collabor": 5861,
      "skin": 5862,
      "names": 5863,
      "obviously": 5864,
      "eat": 5865,
      "dress": 5866,
      "produced": 5867,
      "seconds": 5868,
      "willing": 5869,
      "arts": 5870,
      "learned": 5871,
      "##pped": 5872,
      "interesting": 5873,
      "##cer": 5874,
      "stake": 5875,
      "detroit": 5876,
      "episode": 5877,
      "warm": 5878,
      "##friend": 5879,
      "##gar": 5880,
      "##more": 5881,
      "changing": 5882,
      "helps": 5883,
      "##mond": 5884,
      "span": 5885,
      "dad": 5886,
      "##eme": 5887,
      "steps": 5888,
      "tweeted": 5889,
      "inch": 5890,
      "##icians": 5891,
      "solution": 5892,
      "sor": 5893,
      "##osure": 5894,
      "yourself": 5895,
      "pool": 5896,
      "##ois": 5897,
      "blog": 5898,
      "candidates": 5899,
      "truth": 5900,
      "##atively": 5901,
      "victor": 5902,
      "##iment": 5903,
      "powerful": 5904,
      "##tered": 5905,
      "plenty": 5906,
      "fant": 5907,
      "mah": 5908,
      "electron": 5909,
      "##ym": 5910,
      "carried": 5911,
      "gian": 5912,
      "##outs": 5913,
      "grab": 5914,
      "##ini": 5915,
      "04": 5916,
      "80s": 5917,
      "##iling": 5918,
      "##oman": 5919,
      "davis": 5920,
      "01": 5921,
      "##ansion": 5922,
      "aware": 5923,
      "muslim": 5924,
      "jersey": 5925,
      "armed": 5926,
      "warned": 5927,
      "carl": 5928,
      "separate": 5929,
      "gradu": 5930,
      "##put": 5931,
      "adjust": 5932,
      "interested": 5933,
      "eric": 5934,
      "illegal": 5935,
      "##tained": 5936,
      "sky": 5937,
      "knowledge": 5938,
      "favorite": 5939,
      "onto": 5940,
      "feels": 5941,
      "receiving": 5942,
      "cath": 5943,
      "##izes": 5944,
      "loan": 5945,
      "##ycle": 5946,
      "ordered": 5947,
      "##eness": 5948,
      "happens": 5949,
      "horr": 5950,
      "balance": 5951,
      "advance": 5952,
      "ring": 5953,
      "rush": 5954,
      "##ship": 5955,
      "appl": 5956,
      "brazil": 5957,
      "hat": 5958,
      "77": 5959,
      "allows": 5960,
      "stretch": 5961,
      "memorial": 5962,
      "consumers": 5963,
      "contain": 5964,
      "artist": 5965,
      "connection": 5966,
      "rough": 5967,
      "whate": 5968,
      "pray": 5969,
      "##bon": 5970,
      "legislation": 5971,
      "whatever": 5972,
      "jew": 5973,
      "avenue": 5974,
      "male": 5975,
      "language": 5976,
      "extremely": 5977,
      "offensive": 5978,
      "##aces": 5979,
      "eagles": 5980,
      "lawyer": 5981,
      "rum": 5982,
      "##pts": 5983,
      "pulled": 5984,
      "announcement": 5985,
      "captain": 5986,
      "edge": 5987,
      "competitive": 5988,
      "##igg": 5989,
      "hers": 5990,
      "aid": 5991,
      "millions": 5992,
      "computer": 5993,
      "##fe": 5994,
      "declined": 5995,
      "##bridge": 5996,
      "produce": 5997,
      "##ios": 5998,
      "##ali": 5999,
      "campus": 6000,
      "presented": 6001,
      "##ological": 6002,
      "##onents": 6003,
      "bang": 6004,
      "writer": 6005,
      "76": 6006,
      "animal": 6007,
      "organizations": 6008,
      "appreci": 6009,
      "contribut": 6010,
      "hurt": 6011,
      "recru": 6012,
      "bright": 6013,
      "##omes": 6014,
      "##anne": 6015,
      "bod": 6016,
      "allowing": 6017,
      "##ube": 6018,
      "67": 6019,
      "italy": 6020,
      "##any": 6021,
      "developing": 6022,
      "recorded": 6023,
      "assembly": 6024,
      "dur": 6025,
      "weinstein": 6026,
      "##enses": 6027,
      "repeated": 6028,
      "##burgh": 6029,
      "psych": 6030,
      "##illed": 6031,
      "notes": 6032,
      "controll": 6033,
      "stores": 6034,
      "lock": 6035,
      "standards": 6036,
      "spect": 6037,
      "##ae": 6038,
      "rub": 6039,
      "covered": 6040,
      "considering": 6041,
      "seemed": 6042,
      "capit": 6043,
      "suppl": 6044,
      "71": 6045,
      "##riate": 6046,
      "buying": 6047,
      "##board": 6048,
      "chemical": 6049,
      "lov": 6050,
      "marc": 6051,
      "dut": 6052,
      "##har": 6053,
      "choose": 6054,
      "mountain": 6055,
      "##antic": 6056,
      "appearance": 6057,
      "stan": 6058,
      "affect": 6059,
      "##win": 6060,
      "##bury": 6061,
      "prefer": 6062,
      "2008": 6063,
      "##wa": 6064,
      "province": 6065,
      "chel": 6066,
      "liber": 6067,
      "suggested": 6068,
      "62": 6069,
      "85": 6070,
      "saud": 6071,
      "junior": 6072,
      "bail": 6073,
      "technologies": 6074,
      "##gb": 6075,
      "74": 6076,
      "clients": 6077,
      "honor": 6078,
      "##izz": 6079,
      "adam": 6080,
      "cham": 6081,
      "hollywood": 6082,
      "affairs": 6083,
      "##ghan": 6084,
      "route": 6085,
      "lawsuit": 6086,
      "##utional": 6087,
      "frequ": 6088,
      "teachers": 6089,
      "resist": 6090,
      "prep": 6091,
      "paying": 6092,
      "kenn": 6093,
      "transform": 6094,
      "santa": 6095,
      "founder": 6096,
      "sessions": 6097,
      "fis": 6098,
      "##know": 6099,
      "##uge": 6100,
      "remind": 6101,
      "opinion": 6102,
      "anticip": 6103,
      "faced": 6104,
      "involving": 6105,
      "68": 6106,
      "##fol": 6107,
      "labour": 6108,
      "##icious": 6109,
      "##bl": 6110,
      "conservative": 6111,
      "forest": 6112,
      "enh": 6113,
      "##riage": 6114,
      "exclus": 6115,
      "##aked": 6116,
      "remaining": 6117,
      "confl": 6118,
      "fields": 6119,
      "kent": 6120,
      "drag": 6121,
      "kl": 6122,
      "books": 6123,
      "everybody": 6124,
      "acknow": 6125,
      "matth": 6126,
      "famous": 6127,
      "switch": 6128,
      "counsel": 6129,
      "##ien": 6130,
      "##holders": 6131,
      "ship": 6132,
      "##iju": 6133,
      "independence": 6134,
      "newspaper": 6135,
      "##mates": 6136,
      "##iana": 6137,
      "driven": 6138,
      "cow": 6139,
      "doctors": 6140,
      "##eg": 6141,
      "panel": 6142,
      "lin": 6143,
      "##arks": 6144,
      "delivery": 6145,
      "##arters": 6146,
      "larger": 6147,
      "understanding": 6148,
      "##oola": 6149,
      "##ocol": 6150,
      "wheel": 6151,
      "bigger": 6152,
      "destroy": 6153,
      "tag": 6154,
      "visitors": 6155,
      "alongside": 6156,
      "silver": 6157,
      "advice": 6158,
      "excell": 6159,
      "highway": 6160,
      "liter": 6161,
      "##ils": 6162,
      "##olic": 6163,
      "##umn": 6164,
      "##market": 6165,
      "telling": 6166,
      "##ockey": 6167,
      "presence": 6168,
      "##ati": 6169,
      "acting": 6170,
      "garden": 6171,
      "cav": 6172,
      "##ours": 6173,
      "wear": 6174,
      "##icide": 6175,
      "georg": 6176,
      "franch": 6177,
      "2009": 6178,
      "##itar": 6179,
      "neighborhood": 6180,
      "flynn": 6181,
      "renew": 6182,
      "pictures": 6183,
      "scale": 6184,
      "classic": 6185,
      "happening": 6186,
      "taboola": 6187,
      "##arant": 6188,
      "prize": 6189,
      "lew": 6190,
      "pregn": 6191,
      "journey": 6192,
      "princip": 6193,
      "parking": 6194,
      "cancel": 6195,
      "direction": 6196,
      "roads": 6197,
      "##ipping": 6198,
      "task": 6199,
      "privacy": 6200,
      "failure": 6201,
      "listen": 6202,
      "picked": 6203,
      "hurr": 6204,
      "sitting": 6205,
      "rescue": 6206,
      "libr": 6207,
      "dipl": 6208,
      "circum": 6209,
      "innings": 6210,
      "##ura": 6211,
      "secure": 6212,
      "##ho": 6213,
      "whom": 6214,
      "serving": 6215,
      "##encing": 6216,
      "advanced": 6217,
      "##ancing": 6218,
      "ontario": 6219,
      "surprise": 6220,
      "##ijuana": 6221,
      "streets": 6222,
      "treas": 6223,
      "##bing": 6224,
      "commitment": 6225,
      "##ears": 6226,
      "dall": 6227,
      "established": 6228,
      "brex": 6229,
      "agric": 6230,
      "##onym": 6231,
      "risks": 6232,
      "delay": 6233,
      "##craft": 6234,
      "delivered": 6235,
      "treated": 6236,
      "stephen": 6237,
      "ratings": 6238,
      "cos": 6239,
      "##onic": 6240,
      "pace": 6241,
      "occurred": 6242,
      "rog": 6243,
      "bird": 6244,
      "ecl": 6245,
      "##ella": 6246,
      "dance": 6247,
      "condem": 6248,
      "tru": 6249,
      "optim": 6250,
      "healthcare": 6251,
      "##woman": 6252,
      "##ato": 6253,
      "highlight": 6254,
      "ira": 6255,
      "##ortion": 6256,
      "ride": 6257,
      "easily": 6258,
      "justin": 6259,
      "variety": 6260,
      "ak": 6261,
      "faith": 6262,
      "bure": 6263,
      "brew": 6264,
      "returns": 6265,
      "cabin": 6266,
      "margin": 6267,
      "69": 6268,
      "fer": 6269,
      "stick": 6270,
      "##erties": 6271,
      "transpar": 6272,
      "##utely": 6273,
      "rej": 6274,
      "agricult": 6275,
      "##awn": 6276,
      "hoping": 6277,
      "grew": 6278,
      "##icient": 6279,
      "miller": 6280,
      "##olution": 6281,
      "none": 6282,
      "inning": 6283,
      "elected": 6284,
      "##aced": 6285,
      "supported": 6286,
      "sanctions": 6287,
      "ultim": 6288,
      "guarant": 6289,
      "dismiss": 6290,
      "celebrate": 6291,
      "73": 6292,
      "positions": 6293,
      "##imin": 6294,
      "animals": 6295,
      "moon": 6296,
      "broken": 6297,
      "warri": 6298,
      "technical": 6299,
      "uber": 6300,
      "sustain": 6301,
      "behavior": 6302,
      "95": 6303,
      "##others": 6304,
      "##person": 6305,
      "ray": 6306,
      "materials": 6307,
      "marijuana": 6308,
      "confirm": 6309,
      "downtown": 6310,
      "patient": 6311,
      "swim": 6312,
      "combined": 6313,
      "ho": 6314,
      "tun": 6315,
      "##dom": 6316,
      "remained": 6317,
      "closer": 6318,
      "tells": 6319,
      "lived": 6320,
      "removed": 6321,
      "##eas": 6322,
      "tap": 6323,
      "doubt": 6324,
      "kelly": 6325,
      "ticket": 6326,
      "##quir": 6327,
      "##istics": 6328,
      "communications": 6329,
      "shock": 6330,
      "matches": 6331,
      "nut": 6332,
      "brian": 6333,
      "##uj": 6334,
      "schedule": 6335,
      "##ower": 6336,
      "snap": 6337,
      "deaths": 6338,
      "##agues": 6339,
      "frame": 6340,
      "coord": 6341,
      "diagn": 6342,
      "entered": 6343,
      "hell": 6344,
      "hang": 6345,
      "delhi": 6346,
      "yell": 6347,
      "##bre": 6348,
      "finals": 6349,
      "oce": 6350,
      "stress": 6351,
      "brexit": 6352,
      "unp": 6353,
      "##unk": 6354,
      "bought": 6355,
      "##acks": 6356,
      "proposal": 6357,
      "sample": 6358,
      "lane": 6359,
      "expectations": 6360,
      "vision": 6361,
      "##onom": 6362,
      "industries": 6363,
      "recovery": 6364,
      "posts": 6365,
      "corruption": 6366,
      "conducted": 6367,
      "63": 6368,
      "##ican": 6369,
      "taxes": 6370,
      "naz": 6371,
      "clinton": 6372,
      "##ko": 6373,
      "conflict": 6374,
      "ceremony": 6375,
      "refuge": 6376,
      "scotland": 6377,
      "dogs": 6378,
      "introduced": 6379,
      "units": 6380,
      "600": 6381,
      "sid": 6382,
      "contributed": 6383,
      "harass": 6384,
      "dallas": 6385,
      "##10": 6386,
      "##antly": 6387,
      "approxim": 6388,
      "virt": 6389,
      "religious": 6390,
      "midnight": 6391,
      "coffee": 6392,
      "saudi": 6393,
      "##ua": 6394,
      "influence": 6395,
      "##itors": 6396,
      "commissioner": 6397,
      "wing": 6398,
      "sweet": 6399,
      "print": 6400,
      "##loy": 6401,
      "initially": 6402,
      "unfortun": 6403,
      "programme": 6404,
      "length": 6405,
      "wake": 6406,
      "magaz": 6407,
      "wire": 6408,
      "colorado": 6409,
      "84": 6410,
      "approp": 6411,
      "##awa": 6412,
      "800": 6413,
      "discovered": 6414,
      "mentioned": 6415,
      "prosecutors": 6416,
      "##atured": 6417,
      "sought": 6418,
      "tast": 6419,
      "wer": 6420,
      "sixth": 6421,
      "approximately": 6422,
      "tests": 6423,
      "##itude": 6424,
      "##icket": 6425,
      "kansas": 6426,
      "bann": 6427,
      "##apol": 6428,
      "##sa": 6429,
      "adults": 6430,
      "astr": 6431,
      "enable": 6432,
      "dyn": 6433,
      "experienced": 6434,
      "iv": 6435,
      "##sp": 6436,
      "chain": 6437,
      "identify": 6438,
      "crown": 6439,
      "determined": 6440,
      "##ulate": 6441,
      "bear": 6442,
      "##ables": 6443,
      "islamic": 6444,
      "arena": 6445,
      "solar": 6446,
      "machine": 6447,
      "ford": 6448,
      "lind": 6449,
      "pharm": 6450,
      "seattle": 6451,
      "##head": 6452,
      "apolog": 6453,
      "agents": 6454,
      "jason": 6455,
      "weekly": 6456,
      "austin": 6457,
      "##flix": 6458,
      "listed": 6459,
      "academy": 6460,
      "alt": 6461,
      "uses": 6462,
      "native": 6463,
      "yard": 6464,
      "expansion": 6465,
      "effects": 6466,
      "write": 6467,
      "tend": 6468,
      "circumst": 6469,
      "ox": 6470,
      "concert": 6471,
      "sharing": 6472,
      "tra": 6473,
      "fel": 6474,
      "jay": 6475,
      "ultimately": 6476,
      "diplom": 6477,
      "##standing": 6478,
      "accur": 6479,
      "breat": 6480,
      "dinner": 6481,
      "##reek": 6482,
      "minnes": 6483,
      "150": 6484,
      "ml": 6485,
      "closing": 6486,
      "shortly": 6487,
      "##lah": 6488,
      "##oses": 6489,
      "greg": 6490,
      "termin": 6491,
      "##ighter": 6492,
      "premium": 6493,
      "negative": 6494,
      "prompt": 6495,
      "absolutely": 6496,
      "bbc": 6497,
      "joy": 6498,
      "##ijing": 6499,
      "reserve": 6500,
      "herself": 6501,
      "ble": 6502,
      "supporting": 6503,
      "hitting": 6504,
      "netflix": 6505,
      "swift": 6506,
      "familiar": 6507,
      "bath": 6508,
      "beijing": 6509,
      "smaller": 6510,
      "frustr": 6511,
      "decide": 6512,
      "trends": 6513,
      "##oms": 6514,
      "attended": 6515,
      "farmers": 6516,
      "theatre": 6517,
      "nearby": 6518,
      "purpose": 6519,
      "signing": 6520,
      "jac": 6521,
      "##hab": 6522,
      "anthony": 6523,
      "dod": 6524,
      "##urning": 6525,
      "teacher": 6526,
      "##inson": 6527,
      "sharp": 6528,
      "ideas": 6529,
      "bor": 6530,
      "values": 6531,
      "chelsea": 6532,
      "iraq": 6533,
      "aggress": 6534,
      "gross": 6535,
      "hen": 6536,
      "conclud": 6537,
      "##abilities": 6538,
      "bern": 6539,
      "##hire": 6540,
      "flat": 6541,
      "deals": 6542,
      "pra": 6543,
      "potentially": 6544,
      "falling": 6545,
      "investigating": 6546,
      "shif": 6547,
      "minnesota": 6548,
      "employee": 6549,
      "78": 6550,
      "throw": 6551,
      "friendly": 6552,
      "films": 6553,
      "locations": 6554,
      "improved": 6555,
      "spark": 6556,
      "supposed": 6557,
      "##iding": 6558,
      "surve": 6559,
      "defeat": 6560,
      "featured": 6561,
      "compr": 6562,
      "ga": 6563,
      "rapid": 6564,
      "tmr": 6565,
      "regions": 6566,
      "scal": 6567,
      "calc": 6568,
      "harry": 6569,
      "younger": 6570,
      "truly": 6571,
      "transportation": 6572,
      "fraud": 6573,
      "meetings": 6574,
      "hockey": 6575,
      "largely": 6576,
      "obser": 6577,
      "approval": 6578,
      "##elle": 6579,
      "feat": 6580,
      "zeal": 6581,
      "types": 6582,
      "publicly": 6583,
      "##usion": 6584,
      "turning": 6585,
      "maxim": 6586,
      "inflation": 6587,
      "occup": 6588,
      "giant": 6589,
      "fol": 6590,
      "barb": 6591,
      "##illing": 6592,
      "##oned": 6593,
      "debate": 6594,
      "goods": 6595,
      "rein": 6596,
      "##actions": 6597,
      "declared": 6598,
      "worse": 6599,
      "metro": 6600,
      "##lad": 6601,
      "honest": 6602,
      "tools": 6603,
      "easier": 6604,
      "##iat": 6605,
      "##auk": 6606,
      "arms": 6607,
      "aircraft": 6608,
      "weak": 6609,
      "married": 6610,
      "##ashed": 6611,
      "possession": 6612,
      "determine": 6613,
      "quot": 6614,
      "false": 6615,
      "88": 6616,
      "originally": 6617,
      "veteran": 6618,
      "max": 6619,
      "deploy": 6620,
      "giants": 6621,
      "therefore": 6622,
      "##gs": 6623,
      "proced": 6624,
      "##erous": 6625,
      "mol": 6626,
      "##dp": 6627,
      "rare": 6628,
      "outd": 6629,
      "raw": 6630,
      "tens": 6631,
      "##ooth": 6632,
      "moments": 6633,
      "basic": 6634,
      "jess": 6635,
      "wedding": 6636,
      "tied": 6637,
      "clark": 6638,
      "wine": 6639,
      "buff": 6640,
      "laugh": 6641,
      "missile": 6642,
      "rug": 6643,
      "02": 6644,
      "remove": 6645,
      "bills": 6646,
      "na": 6647,
      "##de": 6648,
      "compar": 6649,
      "voted": 6650,
      "86": 6651,
      "##porary": 6652,
      "seriously": 6653,
      "##sey": 6654,
      "exercise": 6655,
      "py": 6656,
      "command": 6657,
      "relevant": 6658,
      "##issions": 6659,
      "moves": 6660,
      "slightly": 6661,
      "volume": 6662,
      "ranked": 6663,
      "##rett": 6664,
      "marriage": 6665,
      "##iy": 6666,
      "ko": 6667,
      "map": 6668,
      "lad": 6669,
      "newslet": 6670,
      "franchise": 6671,
      "mut": 6672,
      "heading": 6673,
      "summit": 6674,
      "strategic": 6675,
      "rural": 6676,
      "sudden": 6677,
      "properties": 6678,
      "firef": 6679,
      "##ties": 6680,
      "##ented": 6681,
      "##resp": 6682,
      "drama": 6683,
      "flu": 6684,
      "vul": 6685,
      "fake": 6686,
      "cuts": 6687,
      "##lands": 6688,
      "kat": 6689,
      "##icing": 6690,
      "##place": 6691,
      "urged": 6692,
      "##isted": 6693,
      "ip": 6694,
      "soccer": 6695,
      "soph": 6696,
      "gon": 6697,
      "branch": 6698,
      "inspired": 6699,
      "jury": 6700,
      "circumstances": 6701,
      "albert": 6702,
      "##enda": 6703,
      "artists": 6704,
      "skip": 6705,
      "actual": 6706,
      "hills": 6707,
      "05": 6708,
      "##iation": 6709,
      "kitch": 6710,
      "##ertain": 6711,
      "italian": 6712,
      "##real": 6713,
      "georgia": 6714,
      "portfol": 6715,
      "owns": 6716,
      "senator": 6717,
      "threats": 6718,
      "identity": 6719,
      "firms": 6720,
      "songs": 6721,
      "nic": 6722,
      "anton": 6723,
      "returning": 6724,
      "enterpr": 6725,
      "otherwise": 6726,
      "cards": 6727,
      "icon": 6728,
      "##ih": 6729,
      "##akh": 6730,
      "crimes": 6731,
      "putin": 6732,
      "equity": 6733,
      "##owed": 6734,
      "unless": 6735,
      "clar": 6736,
      "dividend": 6737,
      "##aham": 6738,
      "##azz": 6739,
      "anonym": 6740,
      "upgr": 6741,
      "mosc": 6742,
      "profession": 6743,
      "models": 6744,
      "##ias": 6745,
      "beauty": 6746,
      "yout": 6747,
      "brings": 6748,
      "mile": 6749,
      "earn": 6750,
      "withdr": 6751,
      "scientists": 6752,
      "carrying": 6753,
      "sacr": 6754,
      "armen": 6755,
      "dram": 6756,
      "till": 6757,
      "talked": 6758,
      "southwest": 6759,
      "apparently": 6760,
      "chances": 6761,
      "##rees": 6762,
      "reporter": 6763,
      "tony": 6764,
      "assum": 6765,
      "medicine": 6766,
      "atlanta": 6767,
      "bron": 6768,
      "retired": 6769,
      "tenness": 6770,
      "marsh": 6771,
      "palest": 6772,
      "spain": 6773,
      "scheme": 6774,
      "lit": 6775,
      "registered": 6776,
      "custody": 6777,
      "syrian": 6778,
      "08": 6779,
      "immediate": 6780,
      "touchdown": 6781,
      "diam": 6782,
      "directed": 6783,
      "evac": 6784,
      "leads": 6785,
      "97": 6786,
      "gop": 6787,
      "congressional": 6788,
      "math": 6789,
      "mp": 6790,
      "zero": 6791,
      "##oft": 6792,
      "##ivals": 6793,
      "tower": 6794,
      "jur": 6795,
      "##lig": 6796,
      "hay": 6797,
      "ross": 6798,
      "japanese": 6799,
      "walked": 6800,
      "stands": 6801,
      "motion": 6802,
      "appoint": 6803,
      "warrant": 6804,
      "extended": 6805,
      "prove": 6806,
      "library": 6807,
      "arsen": 6808,
      "likes": 6809,
      "##aph": 6810,
      "creative": 6811,
      "internal": 6812,
      "duty": 6813,
      "bes": 6814,
      "joseph": 6815,
      "jong": 6816,
      "gang": 6817,
      "##erce": 6818,
      "zealand": 6819,
      "charity": 6820,
      "moscow": 6821,
      "06": 6822,
      "stun": 6823,
      "structure": 6824,
      "##ilton": 6825,
      "brands": 6826,
      "##mo": 6827,
      "filled": 6828,
      "##apore": 6829,
      "fab": 6830,
      "currency": 6831,
      "2007": 6832,
      "##icts": 6833,
      "discussion": 6834,
      "belong": 6835,
      "ott": 6836,
      "lots": 6837,
      "expensive": 6838,
      "stor": 6839,
      "##ucing": 6840,
      "crack": 6841,
      "lux": 6842,
      "handed": 6843,
      "eld": 6844,
      "regulations": 6845,
      "pounds": 6846,
      "##ogan": 6847,
      "acquis": 6848,
      "##ington": 6849,
      "urban": 6850,
      "lob": 6851,
      "rick": 6852,
      "##illy": 6853,
      "##cy": 6854,
      "maintain": 6855,
      "##rd": 6856,
      "rival": 6857,
      "producer": 6858,
      "morgan": 6859,
      "backed": 6860,
      "violent": 6861,
      "asset": 6862,
      "singapore": 6863,
      "terrorism": 6864,
      "charles": 6865,
      "historic": 6866,
      "musical": 6867,
      "factor": 6868,
      "##ipse": 6869,
      "refused": 6870,
      "relative": 6871,
      "##ighth": 6872,
      "passengers": 6873,
      "replace": 6874,
      "ambass": 6875,
      "disney": 6876,
      "##enders": 6877,
      "involve": 6878,
      "##aukee": 6879,
      "##ius": 6880,
      "tomorrow": 6881,
      "##ulf": 6882,
      "continuing": 6883,
      "stone": 6884,
      "passion": 6885,
      "harm": 6886,
      "om": 6887,
      "abd": 6888,
      "unable": 6889,
      "diego": 6890,
      "payment": 6891,
      "##estyle": 6892,
      "scand": 6893,
      "protesters": 6894,
      "shopping": 6895,
      "expects": 6896,
      "shape": 6897,
      "##agon": 6898,
      "adds": 6899,
      "entry": 6900,
      "perman": 6901,
      "##achel": 6902,
      "ending": 6903,
      "ye": 6904,
      "relief": 6905,
      "pap": 6906,
      "82": 6907,
      "eval": 6908,
      "headed": 6909,
      "warriors": 6910,
      "eclipse": 6911,
      "element": 6912,
      "engineering": 6913,
      "utah": 6914,
      "numerous": 6915,
      "milw": 6916,
      "lewis": 6917,
      "manage": 6918,
      "stab": 6919,
      "racing": 6920,
      "##40": 6921,
      "magazine": 6922,
      "drew": 6923,
      "weigh": 6924,
      "wilson": 6925,
      "incor": 6926,
      "##greg": 6927,
      "raising": 6928,
      "##taining": 6929,
      "percentage": 6930,
      "attempted": 6931,
      "worry": 6932,
      "denver": 6933,
      "suspended": 6934,
      "democrat": 6935,
      "fees": 6936,
      "##alf": 6937,
      "connected": 6938,
      "macron": 6939,
      "adviser": 6940,
      "79": 6941,
      "merc": 6942,
      "youtube": 6943,
      "##isf": 6944,
      "##elines": 6945,
      "##fit": 6946,
      "kir": 6947,
      "wealth": 6948,
      "apartment": 6949,
      "uncertain": 6950,
      "tie": 6951,
      "investments": 6952,
      "birthday": 6953,
      "nbc": 6954,
      "##areness": 6955,
      "rook": 6956,
      "liberal": 6957,
      "embr": 6958,
      "grade": 6959,
      "##otten": 6960,
      "territ": 6961,
      "milwaukee": 6962,
      "initiative": 6963,
      "ties": 6964,
      "interests": 6965,
      "targets": 6966,
      "analyt": 6967,
      "##ck": 6968,
      "awareness": 6969,
      "buildings": 6970,
      "tree": 6971,
      "busy": 6972,
      "waste": 6973,
      "representative": 6974,
      "##fall": 6975,
      "veterans": 6976,
      "##season": 6977,
      "##otted": 6978,
      "lie": 6979,
      "practices": 6980,
      "northwest": 6981,
      "transition": 6982,
      "thumb": 6983,
      "92": 6984,
      "multi": 6985,
      "reduced": 6986,
      "##lights": 6987,
      "83": 6988,
      "ingr": 6989,
      "##daq": 6990,
      "wars": 6991,
      "employment": 6992,
      "kitchen": 6993,
      "##ompl": 6994,
      "mech": 6995,
      "studio": 6996,
      "pushed": 6997,
      "ba": 6998,
      "tan": 6999,
      "passing": 7000,
      "##iber": 7001,
      "2000": 7002,
      "beer": 7003,
      "nasdaq": 7004,
      "va": 7005,
      "assistance": 7006,
      "patriots": 7007,
      "##gen": 7008,
      "bound": 7009,
      "consequ": 7010,
      "ocean": 7011,
      "##iable": 7012,
      "sevent": 7013,
      "liqu": 7014,
      "dynam": 7015,
      "fisc": 7016,
      "speaker": 7017,
      "lag": 7018,
      "informed": 7019,
      "ends": 7020,
      "pointed": 7021,
      "olympic": 7022,
      "amend": 7023,
      "manufacturers": 7024,
      "exciting": 7025,
      "swed": 7026,
      "possibility": 7027,
      "pod": 7028,
      "##igned": 7029,
      "tennessee": 7030,
      "patrick": 7031,
      "alternative": 7032,
      "emph": 7033,
      "queen": 7034,
      "phase": 7035,
      "typically": 7036,
      "##coin": 7037,
      "increasingly": 7038,
      "fitch": 7039,
      "scor": 7040,
      "2020": 7041,
      "matters": 7042,
      "handle": 7043,
      "specifically": 7044,
      "securities": 7045,
      "volat": 7046,
      "pitts": 7047,
      "irish": 7048,
      "discussed": 7049,
      "87": 7050,
      "comfortable": 7051,
      "motiv": 7052,
      "lawyers": 7053,
      "eating": 7054,
      "##aling": 7055,
      "##iser": 7056,
      "holds": 7057,
      "stol": 7058,
      "stood": 7059,
      "indeed": 7060,
      "cultural": 7061,
      "##osing": 7062,
      "bh": 7063,
      "generally": 7064,
      "nin": 7065,
      "visited": 7066,
      "commerce": 7067,
      "participants": 7068,
      "watched": 7069,
      "07": 7070,
      "81": 7071,
      "shr": 7072,
      "consecut": 7073,
      "minimum": 7074,
      "auto": 7075,
      "instr": 7076,
      "sentence": 7077,
      "holdings": 7078,
      "essential": 7079,
      "arrang": 7080,
      "40s": 7081,
      "comedy": 7082,
      "emotional": 7083,
      "split": 7084,
      "guests": 7085,
      "payments": 7086,
      "bj": 7087,
      "bitcoin": 7088,
      "shift": 7089,
      "##amm": 7090,
      "orange": 7091,
      "util": 7092,
      "recip": 7093,
      "##iffs": 7094,
      "illin": 7095,
      "##lusion": 7096,
      "winners": 7097,
      "da": 7098,
      "constitution": 7099,
      "quiet": 7100,
      "syn": 7101,
      "##apolis": 7102,
      "retirement": 7103,
      "##ophy": 7104,
      "ward": 7105,
      "therap": 7106,
      "ruled": 7107,
      "trouble": 7108,
      "##wan": 7109,
      "counts": 7110,
      "impressive": 7111,
      "offense": 7112,
      "instruct": 7113,
      "category": 7114,
      "suffering": 7115,
      "thread": 7116,
      "pocket": 7117,
      "jav": 7118,
      "##roid": 7119,
      "function": 7120,
      "portfolio": 7121,
      "messages": 7122,
      "consecutive": 7123,
      "sick": 7124,
      "##iqu": 7125,
      "becomes": 7126,
      "forg": 7127,
      "250": 7128,
      "salt": 7129,
      "alert": 7130,
      "##oney": 7131,
      "sir": 7132,
      "spokesperson": 7133,
      "##uations": 7134,
      "aver": 7135,
      "requires": 7136,
      "acknowled": 7137,
      "cruc": 7138,
      "wrest": 7139,
      "93": 7140,
      "weren": 7141,
      "##ns": 7142,
      "targeted": 7143,
      "gift": 7144,
      "reflect": 7145,
      "dedicated": 7146,
      "monit": 7147,
      "##enez": 7148,
      "heads": 7149,
      "nash": 7150,
      "resolution": 7151,
      "ukr": 7152,
      "lunch": 7153,
      "ment": 7154,
      "mechan": 7155,
      "worldwide": 7156,
      "boat": 7157,
      "seats": 7158,
      "complic": 7159,
      "iphone": 7160,
      "##pping": 7161,
      "playoffs": 7162,
      "arsenal": 7163,
      "wisc": 7164,
      "registr": 7165,
      "illinois": 7166,
      "##ading": 7167,
      "##atically": 7168,
      "mitch": 7169,
      "requirements": 7170,
      "##acters": 7171,
      "vulner": 7172,
      "characters": 7173,
      "##inations": 7174,
      "##gry": 7175,
      "##weight": 7176,
      "greatest": 7177,
      "tackle": 7178,
      "loans": 7179,
      "cells": 7180,
      "adult": 7181,
      "plane": 7182,
      "##11": 7183,
      "imagine": 7184,
      "##ints": 7185,
      "representatives": 7186,
      "institutions": 7187,
      "movies": 7188,
      "pump": 7189,
      "##away": 7190,
      "fiscal": 7191,
      "possibly": 7192,
      "bureau": 7193,
      "monthly": 7194,
      "##ality": 7195,
      "oklah": 7196,
      "lam": 7197,
      "losses": 7198,
      "##lying": 7199,
      "decre": 7200,
      "##ova": 7201,
      "struggling": 7202,
      "##onent": 7203,
      "dozens": 7204,
      "persp": 7205,
      "client": 7206,
      "reven": 7207,
      "joining": 7208,
      "landsc": 7209,
      "##esa": 7210,
      "midfield": 7211,
      "singh": 7212,
      "##oking": 7213,
      "cambridge": 7214,
      "sees": 7215,
      "athletes": 7216,
      "03": 7217,
      "##aze": 7218,
      "storage": 7219,
      "severe": 7220,
      "##eted": 7221,
      "affordable": 7222,
      "semi": 7223,
      "forget": 7224,
      "##60": 7225,
      "89": 7226,
      "alive": 7227,
      "afghan": 7228,
      "footage": 7229,
      "leaves": 7230,
      "dry": 7231,
      "lyn": 7232,
      "raj": 7233,
      "plastic": 7234,
      "gay": 7235,
      "rebounds": 7236,
      "begins": 7237,
      "causing": 7238,
      "incredible": 7239,
      "ambassador": 7240,
      "oklahoma": 7241,
      "tes": 7242,
      "##uted": 7243,
      "memory": 7244,
      "orders": 7245,
      "bodies": 7246,
      "capitol": 7247,
      "##aron": 7248,
      "thus": 7249,
      "ru": 7250,
      "##tm": 7251,
      "##itals": 7252,
      "votes": 7253,
      "hero": 7254,
      "gender": 7255,
      "misc": 7256,
      "jenn": 7257,
      "##otic": 7258,
      "##isa": 7259,
      "diamond": 7260,
      "tall": 7261,
      "performing": 7262,
      "importance": 7263,
      "##odes": 7264,
      "background": 7265,
      "##reh": 7266,
      "discr": 7267,
      "rot": 7268,
      "sets": 7269,
      "##iders": 7270,
      "##oen": 7271,
      "governments": 7272,
      "protests": 7273,
      "##ries": 7274,
      "khan": 7275,
      "coalition": 7276,
      "cabinet": 7277,
      "kur": 7278,
      "##onsin": 7279,
      "neither": 7280,
      "complaint": 7281,
      "guide": 7282,
      "nhl": 7283,
      "elig": 7284,
      "colleagues": 7285,
      "##ulations": 7286,
      "##aks": 7287,
      "pipeline": 7288,
      "criticism": 7289,
      "wisconsin": 7290,
      "lions": 7291,
      "suggests": 7292,
      "stolen": 7293,
      "##icial": 7294,
      "household": 7295,
      "madrid": 7296,
      "spanish": 7297,
      "harassment": 7298,
      "##lo": 7299,
      "deadline": 7300,
      "mrs": 7301,
      "subsid": 7302,
      "palestin": 7303,
      "legend": 7304,
      "wales": 7305,
      "turkish": 7306,
      "plants": 7307,
      "##abled": 7308,
      "fee": 7309,
      "2006": 7310,
      "selected": 7311,
      "aimed": 7312,
      "hole": 7313,
      "android": 7314,
      "edition": 7315,
      "knee": 7316,
      "spokeswoman": 7317,
      "soldiers": 7318,
      "tips": 7319,
      "viewers": 7320,
      "excellent": 7321,
      "promote": 7322,
      "featuring": 7323,
      "coaches": 7324,
      "prepare": 7325,
      "##ypt": 7326,
      "chick": 7327,
      "rent": 7328,
      "scar": 7329,
      "falls": 7330,
      "bloom": 7331,
      "##azy": 7332,
      "visiting": 7333,
      "rocket": 7334,
      "decline": 7335,
      "outstanding": 7336,
      "coc": 7337,
      "performed": 7338,
      "surrounding": 7339,
      "pieces": 7340,
      "afp": 7341,
      "##pe": 7342,
      "##erts": 7343,
      "archit": 7344,
      "pittsburgh": 7345,
      "##equ": 7346,
      "dj": 7347,
      "##va": 7348,
      "managing": 7349,
      "andre": 7350,
      "concept": 7351,
      "surface": 7352,
      "maria": 7353,
      "compens": 7354,
      "195": 7355,
      "assists": 7356,
      "enjoyed": 7357,
      "updated": 7358,
      "sorry": 7359,
      "loy": 7360,
      "##ibute": 7361,
      "harris": 7362,
      "relatively": 7363,
      "luck": 7364,
      "turns": 7365,
      "cutting": 7366,
      "accus": 7367,
      "appointed": 7368,
      "compete": 7369,
      "##inent": 7370,
      "resort": 7371,
      "clash": 7372,
      "convicted": 7373,
      "sarah": 7374,
      "communication": 7375,
      "supremac": 7376,
      "threatened": 7377,
      "behavi": 7378,
      "harv": 7379,
      "##uma": 7380,
      "explain": 7381,
      "dish": 7382,
      "##boy": 7383,
      "annivers": 7384,
      "adopt": 7385,
      "clubs": 7386,
      "aged": 7387,
      "transparency": 7388,
      "gap": 7389,
      "package": 7390,
      "flo": 7391,
      "threatening": 7392,
      "rugby": 7393,
      "##uts": 7394,
      "worried": 7395,
      "banking": 7396,
      "##road": 7397,
      "nar": 7398,
      "##anna": 7399,
      "hey": 7400,
      "94": 7401,
      "##val": 7402,
      "hart": 7403,
      "walker": 7404,
      "pilot": 7405,
      "##mad": 7406,
      "grown": 7407,
      "nca": 7408,
      "magn": 7409,
      "enr": 7410,
      "estimates": 7411,
      "unkn": 7412,
      "##aped": 7413,
      "suicide": 7414,
      "##onduct": 7415,
      "mode": 7416,
      "asian": 7417,
      "distribution": 7418,
      "crore": 7419,
      "selection": 7420,
      "##abe": 7421,
      "experiences": 7422,
      "revers": 7423,
      "historical": 7424,
      "##utical": 7425,
      "##iences": 7426,
      "##cher": 7427,
      "emphas": 7428,
      "##ll": 7429,
      "pushing": 7430,
      "craft": 7431,
      "license": 7432,
      "##ogue": 7433,
      "fisher": 7434,
      "seventh": 7435,
      "##hr": 7436,
      "##pa": 7437,
      "controlled": 7438,
      "sentenced": 7439,
      "significantly": 7440,
      "##research": 7441,
      "intent": 7442,
      "newsletter": 7443,
      "rookie": 7444,
      "##born": 7445,
      "anc": 7446,
      "waters": 7447,
      "fc": 7448,
      "inquir": 7449,
      "windows": 7450,
      "gear": 7451,
      "dozen": 7452,
      "politicians": 7453,
      "temperatures": 7454,
      "sean": 7455,
      "traded": 7456,
      "nyse": 7457,
      "deadly": 7458,
      "headqu": 7459,
      "negotiations": 7460,
      "drove": 7461,
      "##news": 7462,
      "suspected": 7463,
      "granted": 7464,
      "doors": 7465,
      "moham": 7466,
      "##word": 7467,
      "diss": 7468,
      "##agement": 7469,
      "philipp": 7470,
      "vanc": 7471,
      "hopefully": 7472,
      "bom": 7473,
      "##ikes": 7474,
      "findings": 7475,
      "lifestyle": 7476,
      "##empts": 7477,
      "##ensus": 7478,
      "ta": 7479,
      "newly": 7480,
      "highlights": 7481,
      "sr": 7482,
      "houses": 7483,
      "ts": 7484,
      "jen": 7485,
      "##illa": 7486,
      "appropriate": 7487,
      "allen": 7488,
      "detect": 7489,
      "classes": 7490,
      "apps": 7491,
      "interst": 7492,
      "bush": 7493,
      "voting": 7494,
      "metal": 7495,
      "##eland": 7496,
      "closely": 7497,
      "##fast": 7498,
      "hong": 7499,
      "atm": 7500,
      "dealing": 7501,
      "innovation": 7502,
      "##ouver": 7503,
      "bike": 7504,
      "fundament": 7505,
      "nurs": 7506,
      "intended": 7507,
      "##apping": 7508,
      "increases": 7509,
      "anniversary": 7510,
      "##celona": 7511,
      "smoke": 7512,
      "ups": 7513,
      "compreh": 7514,
      "guess": 7515,
      "dial": 7516,
      "##vis": 7517,
      "##15": 7518,
      "unfortunately": 7519,
      "react": 7520,
      "etc": 7521,
      "unknown": 7522,
      "embed": 7523,
      "vancouver": 7524,
      "attempts": 7525,
      "founded": 7526,
      "passenger": 7527,
      "journalists": 7528,
      "##dd": 7529,
      "micros": 7530,
      "gains": 7531,
      "personnel": 7532,
      "sugar": 7533,
      "barcelona": 7534,
      "##och": 7535,
      "aside": 7536,
      "nobody": 7537,
      "cannab": 7538,
      "mine": 7539,
      "publish": 7540,
      "oreg": 7541,
      "reply": 7542,
      "##tv": 7543,
      "battery": 7544,
      "ads": 7545,
      "##onn": 7546,
      "oregon": 7547,
      "##pro": 7548,
      "##edge": 7549,
      "satisf": 7550,
      "evans": 7551,
      "occasion": 7552,
      "lineup": 7553,
      "nam": 7554,
      "argued": 7555,
      "cart": 7556,
      "brothers": 7557,
      "##usal": 7558,
      "catholic": 7559,
      "knowing": 7560,
      "iron": 7561,
      "##rian": 7562,
      "cha": 7563,
      "struggle": 7564,
      "##stone": 7565,
      "venez": 7566,
      "##life": 7567,
      "spin": 7568,
      "belief": 7569,
      "tamp": 7570,
      "##esy": 7571,
      "hospitals": 7572,
      "##icane": 7573,
      "sounds": 7574,
      "hurricane": 7575,
      "ncaa": 7576,
      "surprising": 7577,
      "behalf": 7578,
      "inspect": 7579,
      "agenda": 7580,
      "##era": 7581,
      "conte": 7582,
      "faster": 7583,
      "punch": 7584,
      "lev": 7585,
      "##etr": 7586,
      "acts": 7587,
      "rivers": 7588,
      "nik": 7589,
      "venezuel": 7590,
      "llc": 7591,
      "ka": 7592,
      "stronger": 7593,
      "anderson": 7594,
      "ali": 7595,
      "northeast": 7596,
      "promise": 7597,
      "##illance": 7598,
      "stream": 7599,
      "distance": 7600,
      "surveillance": 7601,
      "##ched": 7602,
      "overnight": 7603,
      "egypt": 7604,
      "jonathan": 7605,
      "##zy": 7606,
      "aaron": 7607,
      "encourage": 7608,
      "withdraw": 7609,
      "cloth": 7610,
      "mall": 7611,
      "emerging": 7612,
      "cricket": 7613,
      "surprised": 7614,
      "municip": 7615,
      "##stream": 7616,
      "##ician": 7617,
      "flying": 7618,
      "tip": 7619,
      "error": 7620,
      "##ulty": 7621,
      "speaks": 7622,
      "israeli": 7623,
      "follows": 7624,
      "lucky": 7625,
      "mas": 7626,
      "forum": 7627,
      "aer": 7628,
      "##alo": 7629,
      "##icop": 7630,
      "##donald": 7631,
      "thumbn": 7632,
      "carbon": 7633,
      "probe": 7634,
      "##wart": 7635,
      "fatal": 7636,
      "worker": 7637,
      "##ylv": 7638,
      "widely": 7639,
      "promotion": 7640,
      "##shire": 7641,
      "firefight": 7642,
      "priority": 7643,
      "hud": 7644,
      "celebration": 7645,
      "pleas": 7646,
      "advent": 7647,
      "restaurants": 7648,
      "readers": 7649,
      "barrel": 7650,
      "09": 7651,
      "advertising": 7652,
      "pul": 7653,
      "wave": 7654,
      "gym": 7655,
      "thoughts": 7656,
      "##rig": 7657,
      "engaged": 7658,
      "pattern": 7659,
      "lights": 7660,
      "elev": 7661,
      "dave": 7662,
      "pier": 7663,
      "repeatedly": 7664,
      "accepted": 7665,
      "##ux": 7666,
      "2005": 7667,
      "##ining": 7668,
      "horse": 7669,
      "detailed": 7670,
      "##water": 7671,
      "##pass": 7672,
      "provinc": 7673,
      "troops": 7674,
      "##oked": 7675,
      "sending": 7676,
      "unlik": 7677,
      "96": 7678,
      "incidents": 7679,
      "##aza": 7680,
      "clock": 7681,
      "thinks": 7682,
      "directors": 7683,
      "marks": 7684,
      "announce": 7685,
      "vital": 7686,
      "##aire": 7687,
      "plate": 7688,
      "reaching": 7689,
      "harvey": 7690,
      "##wich": 7691,
      "upset": 7692,
      "crude": 7693,
      "depend": 7694,
      "accompl": 7695,
      "indiana": 7696,
      "alliance": 7697,
      "chees": 7698,
      "##inity": 7699,
      "officially": 7700,
      "kong": 7701,
      "critics": 7702,
      "planet": 7703,
      "##owa": 7704,
      "som": 7705,
      "##eds": 7706,
      "permanent": 7707,
      "passes": 7708,
      "facts": 7709,
      "roughly": 7710,
      "hunt": 7711,
      "coordin": 7712,
      "##17": 7713,
      "ark": 7714,
      "phoen": 7715,
      "unlikely": 7716,
      "hosted": 7717,
      "##ylvania": 7718,
      "promised": 7719,
      "residential": 7720,
      "penns": 7721,
      "roof": 7722,
      "yellow": 7723,
      "##osph": 7724,
      "depth": 7725,
      "##ora": 7726,
      "controversial": 7727,
      "##haw": 7728,
      "reaction": 7729,
      "194": 7730,
      "funeral": 7731,
      "represents": 7732,
      "boot": 7733,
      "substant": 7734,
      "participate": 7735,
      "slam": 7736,
      "modi": 7737,
      "guns": 7738,
      "osc": 7739,
      "gary": 7740,
      "provincial": 7741,
      "##pton": 7742,
      "centers": 7743,
      "eighth": 7744,
      "pence": 7745,
      "improving": 7746,
      "fred": 7747,
      "kyle": 7748,
      "crews": 7749,
      "##lyn": 7750,
      "bruce": 7751,
      "chamber": 7752,
      "degrees": 7753,
      "woods": 7754,
      "weapon": 7755,
      "navy": 7756,
      "phoenix": 7757,
      "##can": 7758,
      "##ila": 7759,
      "gained": 7760,
      "imposs": 7761,
      "awarded": 7762,
      "wounded": 7763,
      "98": 7764,
      "predict": 7765,
      "recommendations": 7766,
      "##aceutical": 7767,
      "courts": 7768,
      "stations": 7769,
      "totally": 7770,
      "exclusive": 7771,
      "crucial": 7772,
      "isol": 7773,
      "laur": 7774,
      "##ression": 7775,
      "##ika": 7776,
      "devast": 7777,
      "marine": 7778,
      "##ouri": 7779,
      "cameras": 7780,
      "##opher": 7781,
      "flex": 7782,
      "sequ": 7783,
      "attacked": 7784,
      "nich": 7785,
      "dol": 7786,
      "export": 7787,
      "interact": 7788,
      "##entine": 7789,
      "les": 7790,
      "cin": 7791,
      "malays": 7792,
      "column": 7793,
      "##aly": 7794,
      "investor": 7795,
      "racist": 7796,
      "blast": 7797,
      "syd": 7798,
      "##acle": 7799,
      "prohib": 7800,
      "outlook": 7801,
      "electricity": 7802,
      "brady": 7803,
      "mixed": 7804,
      "anywhere": 7805,
      "investigate": 7806,
      "improvement": 7807,
      "courtesy": 7808,
      "##exp": 7809,
      "shouldn": 7810,
      "##oration": 7811,
      "challenging": 7812,
      "pennsylvania": 7813,
      "yank": 7814,
      "mining": 7815,
      "electronic": 7816,
      "opponents": 7817,
      "schol": 7818,
      "hindi": 7819,
      "patch": 7820,
      "700": 7821,
      "scandal": 7822,
      "consp": 7823,
      "foods": 7824,
      "voc": 7825,
      "opio": 7826,
      "scores": 7827,
      "columbia": 7828,
      "athletic": 7829,
      "##abeth": 7830,
      "##uated": 7831,
      "globe": 7832,
      "##iters": 7833,
      "capable": 7834,
      "kentucky": 7835,
      "##nam": 7836,
      "##bal": 7837,
      "##amples": 7838,
      "ker": 7839,
      "breach": 7840,
      "performances": 7841,
      "pleaded": 7842,
      "failing": 7843,
      "antonio": 7844,
      "defic": 7845,
      "##12": 7846,
      "##aled": 7847,
      "ank": 7848,
      "##erto": 7849,
      "helicop": 7850,
      "remark": 7851,
      "knock": 7852,
      "volunteers": 7853,
      "effici": 7854,
      "territory": 7855,
      "##dale": 7856,
      "##oral": 7857,
      "shirt": 7858,
      "shooter": 7859,
      "euro": 7860,
      "drinking": 7861,
      "vend": 7862,
      "provider": 7863,
      "cu": 7864,
      "somebody": 7865,
      "grass": 7866,
      "fewer": 7867,
      "wonderful": 7868,
      "##idency": 7869,
      "powers": 7870,
      "button": 7871,
      "discip": 7872,
      "ku": 7873,
      "ages": 7874,
      "victoria": 7875,
      "confront": 7876,
      "ministers": 7877,
      "chat": 7878,
      "chip": 7879,
      "colon": 7880,
      "##itage": 7881,
      "regime": 7882,
      "##bel": 7883,
      "complaints": 7884,
      "protected": 7885,
      "wwe": 7886,
      "triple": 7887,
      "##ifer": 7888,
      "chronic": 7889,
      "hub": 7890,
      "combination": 7891,
      "forms": 7892,
      "##iot": 7893,
      "drawn": 7894,
      "claiming": 7895,
      "cyber": 7896,
      "hosts": 7897,
      "showc": 7898,
      "judges": 7899,
      "affili": 7900,
      "stable": 7901,
      "roster": 7902,
      "##pson": 7903,
      "##kel": 7904,
      "blues": 7905,
      "perspective": 7906,
      "remarks": 7907,
      "impossible": 7908,
      "bars": 7909,
      "##osis": 7910,
      "clinical": 7911,
      "linc": 7912,
      "depos": 7913,
      "relationships": 7914,
      "beating": 7915,
      "##berts": 7916,
      "regularly": 7917,
      "bjp": 7918,
      "replaced": 7919,
      "cents": 7920,
      "monitoring": 7921,
      "##ounced": 7922,
      "diet": 7923,
      "##worth": 7924,
      "cul": 7925,
      "scenes": 7926,
      "##oln": 7927,
      "steven": 7928,
      "temperature": 7929,
      "outs": 7930,
      "symb": 7931,
      "coh": 7932,
      "##key": 7933,
      "citizen": 7934,
      "bedroom": 7935,
      "vast": 7936,
      "covering": 7937,
      "registration": 7938,
      "conven": 7939,
      "pc": 7940,
      "nev": 7941,
      "##ss": 7942,
      "revolution": 7943,
      "##mate": 7944,
      "missouri": 7945,
      "##whel": 7946,
      "instance": 7947,
      "extensive": 7948,
      "threw": 7949,
      "eliz": 7950,
      "ech": 7951,
      "rig": 7952,
      "thumbnails": 7953,
      "secondary": 7954,
      "volatility": 7955,
      "prospect": 7956,
      "repair": 7957,
      "pound": 7958,
      "hamilton": 7959,
      "chase": 7960,
      "accel": 7961,
      "compos": 7962,
      "ave": 7963,
      "struggled": 7964,
      "##inct": 7965,
      "##ji": 7966,
      "sydney": 7967,
      "##emen": 7968,
      "hyp": 7969,
      "entering": 7970,
      "phill": 7971,
      "terrorist": 7972,
      "coup": 7973,
      "wash": 7974,
      "links": 7975,
      "##ilit": 7976,
      "##elson": 7977,
      "##18": 7978,
      "chocol": 7979,
      "democracy": 7980,
      "##yang": 7981,
      "##star": 7982,
      "deser": 7983,
      "suc": 7984,
      "##bell": 7985,
      "illness": 7986,
      "girlfriend": 7987,
      "##force": 7988,
      "regulatory": 7989,
      "trick": 7990,
      "tourism": 7991,
      "invited": 7992,
      "cannabis": 7993,
      "##inho": 7994,
      "deeply": 7995,
      "yu": 7996,
      "thompson": 7997,
      "##rison": 7998,
      "fame": 7999,
      "contracts": 8000,
      "representing": 8001,
      "veget": 8002,
      "##fire": 8003,
      "maximum": 8004,
      "matthew": 8005,
      "accomp": 8006,
      "redistr": 8007,
      "firefighters": 8008,
      "defending": 8009,
      "networks": 8010,
      "rav": 8011,
      "leon": 8012,
      "haz": 8013,
      "gathered": 8014,
      "##ray": 8015,
      "unus": 8016,
      "defender": 8017,
      "##ete": 8018,
      "iowa": 8019,
      "ourselves": 8020,
      "novel": 8021,
      "emerged": 8022,
      "mainly": 8023,
      "unlike": 8024,
      "acquisition": 8025,
      "##bn": 8026,
      "##ingly": 8027,
      "##mes": 8028,
      "ist": 8029,
      "recommended": 8030,
      "violation": 8031,
      "ottawa": 8032,
      "flav": 8033,
      "settlement": 8034,
      "providers": 8035,
      "suspects": 8036,
      "charlotte": 8037,
      "christopher": 8038,
      "cream": 8039,
      "opens": 8040,
      "olympics": 8041,
      "nashville": 8042,
      "sympt": 8043,
      "##ker": 8044,
      "##ography": 8045,
      "agriculture": 8046,
      "streak": 8047,
      "keen": 8048,
      "calm": 8049,
      "momentum": 8050,
      "mum": 8051,
      "rejected": 8052,
      "gab": 8053,
      "tri": 8054,
      "strip": 8055,
      "allies": 8056,
      "crazy": 8057,
      "bears": 8058,
      "musc": 8059,
      "sant": 8060,
      "##beat": 8061,
      "transaction": 8062,
      "assessment": 8063,
      "reput": 8064,
      "##uable": 8065,
      "##umin": 8066,
      "discussions": 8067,
      "chef": 8068,
      "lincoln": 8069,
      "basically": 8070,
      "causes": 8071,
      "explore": 8072,
      "##ommod": 8073,
      "##ja": 8074,
      "exit": 8075,
      "ingred": 8076,
      "##backs": 8077,
      "blow": 8078,
      "jets": 8079,
      "rif": 8080,
      "offices": 8081,
      "dre": 8082,
      "desper": 8083,
      "atr": 8084,
      "2004": 8085,
      "electr": 8086,
      "##aska": 8087,
      "##othing": 8088,
      "escape": 8089,
      "abb": 8090,
      "bru": 8091,
      "lav": 8092,
      "outr": 8093,
      "stepped": 8094,
      "welcom": 8095,
      "accommod": 8096,
      "hired": 8097,
      "filing": 8098,
      "parks": 8099,
      "coaching": 8100,
      "operate": 8101,
      "##phones": 8102,
      "entirely": 8103,
      "targeting": 8104,
      "medium": 8105,
      "thor": 8106,
      "obtained": 8107,
      "homeless": 8108,
      "dim": 8109,
      "transl": 8110,
      "heavily": 8111,
      "ramp": 8112,
      "loyal": 8113,
      "##pay": 8114,
      "landscape": 8115,
      "info": 8116,
      "##uous": 8117,
      "pharmaceutical": 8118,
      "abortion": 8119,
      "submitted": 8120,
      "##ela": 8121,
      "##ounting": 8122,
      "professionals": 8123,
      "tank": 8124,
      "producers": 8125,
      "cooperation": 8126,
      "citing": 8127,
      "rewr": 8128,
      "tig": 8129,
      "##iner": 8130,
      "anticipated": 8131,
      "kilomet": 8132,
      "fantastic": 8133,
      "##anka": 8134,
      "##ria": 8135,
      "captured": 8136,
      "##gage": 8137,
      "concent": 8138,
      "explains": 8139,
      "##iano": 8140,
      "dating": 8141,
      "elizabeth": 8142,
      "disaster": 8143,
      "celebrity": 8144,
      "##owski": 8145,
      "rehab": 8146,
      "encoun": 8147,
      "delight": 8148,
      "explosion": 8149,
      "neck": 8150,
      "roberts": 8151,
      "purchased": 8152,
      "teenag": 8153,
      "paint": 8154,
      "heritage": 8155,
      "##mingham": 8156,
      "principal": 8157,
      "interior": 8158,
      "valued": 8159,
      "usual": 8160,
      "##perform": 8161,
      "surge": 8162,
      "##leans": 8163,
      "menu": 8164,
      "guidance": 8165,
      "comprehensive": 8166,
      "##walk": 8167,
      "##iev": 8168,
      "teaching": 8169,
      "##otive": 8170,
      "flash": 8171,
      "euros": 8172,
      "plain": 8173,
      "operator": 8174,
      "architect": 8175,
      "##rell": 8176,
      "ease": 8177,
      "jumped": 8178,
      "saving": 8179,
      "meat": 8180,
      "theater": 8181,
      "sweep": 8182,
      "birmingham": 8183,
      "##ders": 8184,
      "phones": 8185,
      "##okes": 8186,
      "##amin": 8187,
      "orleans": 8188,
      "chapter": 8189,
      "concentr": 8190,
      "description": 8191,
      "prosecutor": 8192,
      "##itzer": 8193,
      "colomb": 8194,
      "mirr": 8195,
      "desk": 8196,
      "firing": 8197,
      "shoulder": 8198,
      "120": 8199,
      "##fa": 8200,
      "##lers": 8201,
      "lan": 8202,
      "revenues": 8203,
      "excess": 8204,
      "disord": 8205,
      "entre": 8206,
      "carter": 8207,
      "shall": 8208,
      "##ologist": 8209,
      "consumption": 8210,
      "yeah": 8211,
      "reward": 8212,
      "andy": 8213,
      "hide": 8214,
      "anx": 8215,
      "trees": 8216,
      "gate": 8217,
      "##ales": 8218,
      "vulnerable": 8219,
      "easter": 8220,
      "effectively": 8221,
      "streaming": 8222,
      "strategies": 8223,
      "pictured": 8224,
      "subur": 8225,
      "jacob": 8226,
      "fundra": 8227,
      "funded": 8228,
      "##iveness": 8229,
      "cole": 8230,
      "beng": 8231,
      "desire": 8232,
      "##anny": 8233,
      "treasury": 8234,
      "aband": 8235,
      "wage": 8236,
      "championships": 8237,
      "##irty": 8238,
      "peak": 8239,
      "##osen": 8240,
      "organis": 8241,
      "kal": 8242,
      "lies": 8243,
      "##acc": 8244,
      "overwhel": 8245,
      "racism": 8246,
      "buck": 8247,
      "appearances": 8248,
      "##uits": 8249,
      "usd": 8250,
      "sab": 8251,
      "fixed": 8252,
      "##ht": 8253,
      "sanders": 8254,
      "##prene": 8255,
      "kingdom": 8256,
      "outdoor": 8257,
      "saved": 8258,
      "##imination": 8259,
      "proved": 8260,
      "prominent": 8261,
      "tact": 8262,
      "keeps": 8263,
      "headquarters": 8264,
      "simon": 8265,
      "wy": 8266,
      "neighbour": 8267,
      "attach": 8268,
      "##igen": 8269,
      "ai": 8270,
      "unclear": 8271,
      "applied": 8272,
      "##ports": 8273,
      "rounds": 8274,
      "adams": 8275,
      "toy": 8276,
      "entreprene": 8277,
      "##45": 8278,
      "##isan": 8279,
      "tea": 8280,
      "label": 8281,
      "cinem": 8282,
      "##olit": 8283,
      "blame": 8284,
      "tam": 8285,
      "russell": 8286,
      "serves": 8287,
      "aggressive": 8288,
      "hid": 8289,
      "magic": 8290,
      "bump": 8291,
      "fitness": 8292,
      "##aka": 8293,
      "proof": 8294,
      "supports": 8295,
      "prin": 8296,
      "futures": 8297,
      "airlines": 8298,
      "luxury": 8299,
      "bonds": 8300,
      "lord": 8301,
      "awa": 8302,
      "arabia": 8303,
      "£2": 8304,
      "permission": 8305,
      "mistake": 8306,
      "##unes": 8307,
      "ronald": 8308,
      "rape": 8309,
      "ay": 8310,
      "soul": 8311,
      "clothes": 8312,
      "##met": 8313,
      "##gary": 8314,
      "patrol": 8315,
      "cycle": 8316,
      "##eep": 8317,
      "investigations": 8318,
      "collected": 8319,
      "stayed": 8320,
      "manner": 8321,
      "loud": 8322,
      "nest": 8323,
      "extreme": 8324,
      "misconduct": 8325,
      "tested": 8326,
      "respectively": 8327,
      "elder": 8328,
      "staying": 8329,
      "oakland": 8330,
      "cra": 8331,
      "shareholders": 8332,
      "automotive": 8333,
      "##ti": 8334,
      "dil": 8335,
      "persons": 8336,
      "copy": 8337,
      "behaviour": 8338,
      "espn": 8339,
      "##uate": 8340,
      "##abet": 8341,
      "primarily": 8342,
      "oblig": 8343,
      "combat": 8344,
      "savings": 8345,
      "mouth": 8346,
      "atlantic": 8347,
      "letters": 8348,
      "##tenance": 8349,
      "developments": 8350,
      "alexander": 8351,
      "encouraged": 8352,
      "shad": 8353,
      "pleased": 8354,
      "queens": 8355,
      "exposed": 8356,
      "chocolate": 8357,
      "drawing": 8358,
      "subsequ": 8359,
      "fought": 8360,
      "sum": 8361,
      "##oves": 8362,
      "murr": 8363,
      "tennis": 8364,
      "##cious": 8365,
      "galax": 8366,
      "puts": 8367,
      "jar": 8368,
      "managers": 8369,
      "eligible": 8370,
      "##thr": 8371,
      "elsewhere": 8372,
      "legacy": 8373,
      "##intend": 8374,
      "kings": 8375,
      "settle": 8376,
      "tx": 8377,
      "tesla": 8378,
      "marked": 8379,
      "gunman": 8380,
      "todd": 8381,
      "##ashing": 8382,
      "compensation": 8383,
      "liquid": 8384,
      "dw": 8385,
      "puerto": 8386,
      "roles": 8387,
      "conversations": 8388,
      "maintenance": 8389,
      "formed": 8390,
      "montreal": 8391,
      "lowest": 8392,
      "executives": 8393,
      "##uru": 8394,
      "twenty": 8395,
      "consistent": 8396,
      "dear": 8397,
      "dates": 8398,
      "cited": 8399,
      "101": 8400,
      "opinions": 8401,
      "##oured": 8402,
      "ratio": 8403,
      "um": 8404,
      "##maker": 8405,
      "##tra": 8406,
      "trained": 8407,
      "##fr": 8408,
      "versus": 8409,
      "pride": 8410,
      "quant": 8411,
      "milk": 8412,
      "troub": 8413,
      "##ishing": 8414,
      "preparing": 8415,
      "indicated": 8416,
      "immigrants": 8417,
      "##nic": 8418,
      "creek": 8419,
      "rely": 8420,
      "spoken": 8421,
      "vin": 8422,
      "contacted": 8423,
      "venue": 8424,
      "strongly": 8425,
      "crypt": 8426,
      "tariffs": 8427,
      "disappear": 8428,
      "gib": 8429,
      "indones": 8430,
      "recre": 8431,
      "recon": 8432,
      "md": 8433,
      "dust": 8434,
      "reference": 8435,
      "wells": 8436,
      "grounds": 8437,
      "pedest": 8438,
      "##aug": 8439,
      "redistributed": 8440,
      "academic": 8441,
      "lap": 8442,
      "enterprise": 8443,
      "regulation": 8444,
      "ot": 8445,
      "extension": 8446,
      "medal": 8447,
      "sustainable": 8448,
      "##isters": 8449,
      "smartphone": 8450,
      "brid": 8451,
      "30s": 8452,
      "chicken": 8453,
      "graduate": 8454,
      "fi": 8455,
      "amar": 8456,
      "horn": 8457,
      "##point": 8458,
      "manh": 8459,
      "recognition": 8460,
      "##etime": 8461,
      "dies": 8462,
      "covers": 8463,
      "mumb": 8464,
      "fishing": 8465,
      "witnesses": 8466,
      "regardless": 8467,
      "gif": 8468,
      "neut": 8469,
      "parade": 8470,
      "acquired": 8471,
      "spotted": 8472,
      "succeed": 8473,
      "autonom": 8474,
      "riding": 8475,
      "opposed": 8476,
      "concluded": 8477,
      "stuck": 8478,
      "deficit": 8479,
      "monitor": 8480,
      "restrictions": 8481,
      "shelter": 8482,
      "rab": 8483,
      "##iti": 8484,
      "afghanistan": 8485,
      "petition": 8486,
      "tai": 8487,
      "##mann": 8488,
      "strange": 8489,
      "##ups": 8490,
      "rooms": 8491,
      "visits": 8492,
      "roseanne": 8493,
      "stem": 8494,
      "hook": 8495,
      "fla": 8496,
      "limits": 8497,
      "amendment": 8498,
      "##eston": 8499,
      "referred": 8500,
      "##kyo": 8501,
      "nat": 8502,
      "recognize": 8503,
      "dismissed": 8504,
      "brill": 8505,
      "crow": 8506,
      "clothing": 8507,
      "advisory": 8508,
      "statue": 8509,
      "mack": 8510,
      "outcome": 8511,
      "##ourne": 8512,
      "temporary": 8513,
      "##icul": 8514,
      "expanded": 8515,
      "vig": 8516,
      "##ovic": 8517,
      "estimate": 8518,
      "cher": 8519,
      "##timore": 8520,
      "ufc": 8521,
      "tokyo": 8522,
      "spots": 8523,
      "replacement": 8524,
      "empt": 8525,
      "bry": 8526,
      "##osphere": 8527,
      "dat": 8528,
      "banned": 8529,
      "employers": 8530,
      "##che": 8531,
      "arrival": 8532,
      "solo": 8533,
      "subscription": 8534,
      "##oppers": 8535,
      "whit": 8536,
      "jere": 8537,
      "##tle": 8538,
      "theme": 8539,
      "valid": 8540,
      "generated": 8541,
      "theft": 8542,
      "elements": 8543,
      "symptoms": 8544,
      "palace": 8545,
      "jewish": 8546,
      "poly": 8547,
      "municipal": 8548,
      "sed": 8549,
      "expenses": 8550,
      "##car": 8551,
      "plot": 8552,
      "organisation": 8553,
      "rice": 8554,
      "whats": 8555,
      "##una": 8556,
      "noon": 8557,
      "unve": 8558,
      "underst": 8559,
      "sight": 8560,
      "##anged": 8561,
      "##ture": 8562,
      "conce": 8563,
      "##riers": 8564,
      "resulted": 8565,
      "collaboration": 8566,
      "nevada": 8567,
      "polls": 8568,
      "invent": 8569,
      "vik": 8570,
      "grey": 8571,
      "stanley": 8572,
      "hosting": 8573,
      "ib": 8574,
      "##uild": 8575,
      "pink": 8576,
      "##iture": 8577,
      "##iration": 8578,
      "##iors": 8579,
      "baker": 8580,
      "2nd": 8581,
      "grace": 8582,
      "intercept": 8583,
      "disrupt": 8584,
      "blind": 8585,
      "scientific": 8586,
      "mississ": 8587,
      "species": 8588,
      "circuit": 8589,
      "fears": 8590,
      "throwing": 8591,
      "fog": 8592,
      "kate": 8593,
      "donations": 8594,
      "maker": 8595,
      "chest": 8596,
      "surviv": 8597,
      "##enz": 8598,
      "fled": 8599,
      "##umes": 8600,
      "intention": 8601,
      "mit": 8602,
      "rah": 8603,
      "tigers": 8604,
      "holl": 8605,
      "extend": 8606,
      "rear": 8607,
      "cheese": 8608,
      "consequences": 8609,
      "cardinals": 8610,
      "blocked": 8611,
      "rangers": 8612,
      "enth": 8613,
      "chose": 8614,
      "nomine": 8615,
      "gor": 8616,
      "han": 8617,
      "emails": 8618,
      "enhance": 8619,
      "elite": 8620,
      "harder": 8621,
      "##endum": 8622,
      "relax": 8623,
      "assume": 8624,
      "absence": 8625,
      "##iere": 8626,
      "expanding": 8627,
      "##laim": 8628,
      "elimin": 8629,
      "consensus": 8630,
      "congr": 8631,
      "##die": 8632,
      "eve": 8633,
      "##abad": 8634,
      "audio": 8635,
      "engagement": 8636,
      "padd": 8637,
      "races": 8638,
      "rolling": 8639,
      "finger": 8640,
      "angry": 8641,
      "damaged": 8642,
      "inquiry": 8643,
      "rivals": 8644,
      "forever": 8645,
      "##rick": 8646,
      "shah": 8647,
      "lift": 8648,
      "pregnant": 8649,
      "benn": 8650,
      "forth": 8651,
      "baltimore": 8652,
      "##sl": 8653,
      "tiny": 8654,
      "##eing": 8655,
      "##po": 8656,
      "henry": 8657,
      "kath": 8658,
      "##hal": 8659,
      "taste": 8660,
      "legislative": 8661,
      "legislature": 8662,
      "ky": 8663,
      "represented": 8664,
      "properly": 8665,
      "articles": 8666,
      "hunting": 8667,
      "fo": 8668,
      "##jects": 8669,
      "gulf": 8670,
      "hip": 8671,
      "htm": 8672,
      "mour": 8673,
      "deput": 8674,
      "resource": 8675,
      "therapy": 8676,
      "synd": 8677,
      "scottish": 8678,
      "teammates": 8679,
      "portion": 8680,
      "evol": 8681,
      "residence": 8682,
      "belg": 8683,
      "recovered": 8684,
      "gust": 8685,
      "microsoft": 8686,
      "height": 8687,
      "##ifications": 8688,
      "strict": 8689,
      "fireworks": 8690,
      "volunteer": 8691,
      "breast": 8692,
      "##aa": 8693,
      "choices": 8694,
      "robber": 8695,
      "reducing": 8696,
      "sectors": 8697,
      "favourite": 8698,
      "headlines": 8699,
      "ambul": 8700,
      "pdt": 8701,
      "##asy": 8702,
      "latin": 8703,
      "vib": 8704,
      "creation": 8705,
      "districts": 8706,
      "journalist": 8707,
      "ideal": 8708,
      "contem": 8709,
      "##ira": 8710,
      "reputation": 8711,
      "##een": 8712,
      "depending": 8713,
      "merg": 8714,
      "##istol": 8715,
      "celebrating": 8716,
      "suddenly": 8717,
      "craig": 8718,
      "valuable": 8719,
      "realize": 8720,
      "##etary": 8721,
      "ax": 8722,
      "fallen": 8723,
      "alph": 8724,
      "receiver": 8725,
      "overseas": 8726,
      "##anth": 8727,
      "recognized": 8728,
      "circle": 8729,
      "referendum": 8730,
      "conver": 8731,
      "retr": 8732,
      "precip": 8733,
      "recalled": 8734,
      "bree": 8735,
      "graham": 8736,
      "engage": 8737,
      "gord": 8738,
      "##ogen": 8739,
      "climb": 8740,
      "aven": 8741,
      "minority": 8742,
      "laid": 8743,
      "murray": 8744,
      "intens": 8745,
      "exposure": 8746,
      "investing": 8747,
      "bags": 8748,
      "1st": 8749,
      "##enko": 8750,
      "answers": 8751,
      "sweden": 8752,
      "destroyed": 8753,
      "tail": 8754,
      "convention": 8755,
      "refugees": 8756,
      "dick": 8757,
      "scalise": 8758,
      "trem": 8759,
      "sheet": 8760,
      "escal": 8761,
      "traged": 8762,
      "##pg": 8763,
      "interp": 8764,
      "insider": 8765,
      "buyers": 8766,
      "nur": 8767,
      "saint": 8768,
      "##bb": 8769,
      "2003": 8770,
      "argument": 8771,
      "##vi": 8772,
      "periods": 8773,
      "sams": 8774,
      "personally": 8775,
      "##sters": 8776,
      "gray": 8777,
      "##anton": 8778,
      "mumbai": 8779,
      "rams": 8780,
      "broker": 8781,
      "##bul": 8782,
      "opener": 8783,
      "dispute": 8784,
      "innovative": 8785,
      "dump": 8786,
      "demands": 8787,
      "addressed": 8788,
      "interviews": 8789,
      "pages": 8790,
      "organized": 8791,
      "platforms": 8792,
      "illustr": 8793,
      "buzz": 8794,
      "recommendation": 8795,
      "nasa": 8796,
      "repr": 8797,
      "supplies": 8798,
      "tensions": 8799,
      "trailer": 8800,
      "rewritten": 8801,
      "barack": 8802,
      "jimmy": 8803,
      "formal": 8804,
      "cock": 8805,
      "producing": 8806,
      "factory": 8807,
      "rico": 8808,
      "achieved": 8809,
      "toll": 8810,
      "trophy": 8811,
      "sin": 8812,
      "deputies": 8813,
      "chosen": 8814,
      "clouds": 8815,
      "portland": 8816,
      "ninth": 8817,
      "ug": 8818,
      "necessarily": 8819,
      "##uster": 8820,
      "flights": 8821,
      "discovery": 8822,
      "banner": 8823,
      "smile": 8824,
      "##ennial": 8825,
      "pel": 8826,
      "prospects": 8827,
      "mitchell": 8828,
      "requests": 8829,
      "jazz": 8830,
      "nigerian": 8831,
      "fruit": 8832,
      "duke": 8833,
      "brows": 8834,
      "smooth": 8835,
      "reduction": 8836,
      "##itable": 8837,
      "mn": 8838,
      "clim": 8839,
      "vess": 8840,
      "##abwe": 8841,
      "valentine": 8842,
      "prevention": 8843,
      "##agr": 8844,
      "finds": 8845,
      "##rum": 8846,
      "noticed": 8847,
      "zimb": 8848,
      "##jo": 8849,
      "##ione": 8850,
      "deleg": 8851,
      "shoes": 8852,
      "errors": 8853,
      "root": 8854,
      "exhibition": 8855,
      "fu": 8856,
      "##rete": 8857,
      "casual": 8858,
      "conspir": 8859,
      "##oga": 8860,
      "context": 8861,
      "pent": 8862,
      "2002": 8863,
      "neur": 8864,
      "foster": 8865,
      "resigned": 8866,
      "resistance": 8867,
      "toler": 8868,
      "brandon": 8869,
      "referring": 8870,
      "html": 8871,
      "celebrated": 8872,
      "projected": 8873,
      "powered": 8874,
      "zimbabwe": 8875,
      "##ardo": 8876,
      "enthus": 8877,
      "aims": 8878,
      "unw": 8879,
      "gam": 8880,
      "howard": 8881,
      "venture": 8882,
      "liberty": 8883,
      "keith": 8884,
      "testim": 8885,
      "associate": 8886,
      "unusual": 8887,
      "pension": 8888,
      "##aga": 8889,
      "mini": 8890,
      "islands": 8891,
      "cord": 8892,
      "jet": 8893,
      "towns": 8894,
      "statistics": 8895,
      "##vp": 8896,
      "shan": 8897,
      "cheap": 8898,
      "##eries": 8899,
      "resignation": 8900,
      "##utch": 8901,
      "actors": 8902,
      "titles": 8903,
      "##ippi": 8904,
      "dean": 8905,
      "activists": 8906,
      "##itarian": 8907,
      "pover": 8908,
      "yankees": 8909,
      "cruz": 8910,
      "constitutional": 8911,
      "contribute": 8912,
      "mood": 8913,
      "construct": 8914,
      "fulf": 8915,
      "pyong": 8916,
      "cafe": 8917,
      "##aya": 8918,
      "##ipe": 8919,
      "adopted": 8920,
      "##bound": 8921,
      "sox": 8922,
      "##ateful": 8923,
      "presentation": 8924,
      "stunning": 8925,
      "armenia": 8926,
      "attending": 8927,
      "tum": 8928,
      "questioned": 8929,
      "##hill": 8930,
      "bart": 8931,
      "jes": 8932,
      "fairly": 8933,
      "pyongyang": 8934,
      "tyler": 8935,
      "poverty": 8936,
      "wright": 8937,
      "innoc": 8938,
      "wis": 8939,
      "cave": 8940,
      "telec": 8941,
      "elementary": 8942,
      "tweets": 8943,
      "meal": 8944,
      "##kinson": 8945,
      "unn": 8946,
      "accompan": 8947,
      "arrive": 8948,
      "string": 8949,
      "wolf": 8950,
      "tries": 8951,
      "springs": 8952,
      "diversity": 8953,
      "nights": 8954,
      "literally": 8955,
      "##phy": 8956,
      "madison": 8957,
      "segments": 8958,
      "unem": 8959,
      "inches": 8960,
      "##eb": 8961,
      "stephens": 8962,
      "lod": 8963,
      "machines": 8964,
      "virtual": 8965,
      "presidency": 8966,
      "##eld": 8967,
      "indians": 8968,
      "hug": 8969,
      "pending": 8970,
      "##aver": 8971,
      "nathan": 8972,
      "searching": 8973,
      "liv": 8974,
      "walks": 8975,
      "acknowledged": 8976,
      "wildlife": 8977,
      "tracks": 8978,
      "maryland": 8979,
      "dramatic": 8980,
      "unemploy": 8981,
      "##ographer": 8982,
      "##acted": 8983,
      "sustained": 8984,
      "##front": 8985,
      "anybody": 8986,
      "midfielder": 8987,
      "jennifer": 8988,
      "dak": 8989,
      "##bourne": 8990,
      "carp": 8991,
      "ingredients": 8992,
      "galaxy": 8993,
      "constant": 8994,
      "insisted": 8995,
      "hawai": 8996,
      "locked": 8997,
      "terry": 8998,
      "samsung": 8999,
      "hugh": 9000,
      "recruit": 9001,
      "##play": 9002,
      "kit": 9003,
      "swing": 9004,
      "appointment": 9005,
      "##19": 9006,
      "louisiana": 9007,
      "senators": 9008,
      "##ecks": 9009,
      "gil": 9010,
      "##raid": 9011,
      "barbara": 9012,
      "mississippi": 9013,
      "auction": 9014,
      "##cia": 9015,
      "shifting": 9016,
      "atmosphere": 9017,
      "useful": 9018,
      "accord": 9019,
      "##asters": 9020,
      "situations": 9021,
      "##iang": 9022,
      "enem": 9023,
      "glad": 9024,
      "venezuela": 9025,
      "successfully": 9026,
      "nelson": 9027,
      "##agu": 9028,
      "symbol": 9029,
      "exceed": 9030,
      "##onda": 9031,
      "legit": 9032,
      "efficient": 9033,
      "refere": 9034,
      "ian": 9035,
      "noting": 9036,
      "lon": 9037,
      "incredibly": 9038,
      "odds": 9039,
      "stages": 9040,
      "2001": 9041,
      "thrown": 9042,
      "runner": 9043,
      "folks": 9044,
      "blocks": 9045,
      "si": 9046,
      "indigen": 9047,
      "hend": 9048,
      "breakfast": 9049,
      "discount": 9050,
      "mcm": 9051,
      "##gy": 9052,
      "frequently": 9053,
      "larry": 9054,
      "celt": 9055,
      "mortgage": 9056,
      "marath": 9057,
      "urg": 9058,
      "advised": 9059,
      "punish": 9060,
      "topic": 9061,
      "taxpay": 9062,
      "rodrig": 9063,
      "spaces": 9064,
      "##80": 9065,
      "cryst": 9066,
      "dal": 9067,
      "cot": 9068,
      "hillary": 9069,
      "cous": 9070,
      "resulting": 9071,
      "ranking": 9072,
      "narrow": 9073,
      "##agan": 9074,
      "funny": 9075,
      "contained": 9076,
      "##rence": 9077,
      "boyfriend": 9078,
      "##ternal": 9079,
      "indication": 9080,
      "picks": 9081,
      "luke": 9082,
      "salary": 9083,
      "promises": 9084,
      "##imer": 9085,
      "worksh": 9086,
      "educational": 9087,
      "##olas": 9088,
      "reds": 9089,
      "cp": 9090,
      "##imp": 9091,
      "signal": 9092,
      "profits": 9093,
      "cinc": 9094,
      "orland": 9095,
      "belt": 9096,
      "##arge": 9097,
      "recording": 9098,
      "rosen": 9099,
      "spo": 9100,
      "##gate": 9101,
      "attorneys": 9102,
      "doug": 9103,
      "adapt": 9104,
      "kennedy": 9105,
      "gotten": 9106,
      "afraid": 9107,
      "##licit": 9108,
      "explo": 9109,
      "overd": 9110,
      "welcomed": 9111,
      "improvements": 9112,
      "##cs": 9113,
      "hadn": 9114,
      "##eph": 9115,
      "30pm": 9116,
      "gent": 9117,
      "palestinian": 9118,
      "whatsapp": 9119,
      "##aid": 9120,
      "##arch": 9121,
      "scholars": 9122,
      "hire": 9123,
      "furn": 9124,
      "inaug": 9125,
      "10th": 9126,
      "nationwide": 9127,
      "##mouth": 9128,
      "unexp": 9129,
      "gathering": 9130,
      "comprom": 9131,
      "hod": 9132,
      "comey": 9133,
      "robinson": 9134,
      "##irates": 9135,
      "consol": 9136,
      "extent": 9137,
      "kiss": 9138,
      "tu": 9139,
      "##22": 9140,
      "marvel": 9141,
      "thin": 9142,
      "##acked": 9143,
      "prompted": 9144,
      "leaf": 9145,
      "##ixon": 9146,
      "linkedin": 9147,
      "federation": 9148,
      "capture": 9149,
      "overtime": 9150,
      "starter": 9151,
      "loves": 9152,
      "disag": 9153,
      "bish": 9154,
      "ult": 9155,
      "verd": 9156,
      "gill": 9157,
      "iconic": 9158,
      "tob": 9159,
      "striker": 9160,
      "divor": 9161,
      "bou": 9162,
      "involvement": 9163,
      "brilliant": 9164,
      "output": 9165,
      "bund": 9166,
      "writers": 9167,
      "jeremy": 9168,
      "wag": 9169,
      "airline": 9170,
      "rated": 9171,
      "memories": 9172,
      "ownership": 9173,
      "posting": 9174,
      "satell": 9175,
      "##ycling": 9176,
      "latter": 9177,
      "developers": 9178,
      "competing": 9179,
      "##olds": 9180,
      "clay": 9181,
      "expecting": 9182,
      "chart": 9183,
      "mud": 9184,
      "brun": 9185,
      "griff": 9186,
      "catal": 9187,
      "buffalo": 9188,
      "reun": 9189,
      "implementation": 9190,
      "cum": 9191,
      "##ibilities": 9192,
      "helicopter": 9193,
      "ultimate": 9194,
      "orch": 9195,
      "proven": 9196,
      "##approp": 9197,
      "serge": 9198,
      "provision": 9199,
      "congrat": 9200,
      "aj": 9201,
      "dougl": 9202,
      "distur": 9203,
      "##to": 9204,
      "##eo": 9205,
      "racial": 9206,
      "unif": 9207,
      "writes": 9208,
      "##respond": 9209,
      "tribute": 9210,
      "##yer": 9211,
      "colombia": 9212,
      "##arian": 9213,
      "opposite": 9214,
      "##osa": 9215,
      "hann": 9216,
      "jamie": 9217,
      "constitu": 9218,
      "echo": 9219,
      "talented": 9220,
      "jake": 9221,
      "torn": 9222,
      "ghana": 9223,
      "abr": 9224,
      "secured": 9225,
      "correspond": 9226,
      "dow": 9227,
      "appreciate": 9228,
      "automatic": 9229,
      "suspension": 9230,
      "observ": 9231,
      "##ni": 9232,
      "pure": 9233,
      "butter": 9234,
      "prelim": 9235,
      "humans": 9236,
      "fasc": 9237,
      "##ses": 9238,
      "membership": 9239,
      "amy": 9240,
      "flowers": 9241,
      "striking": 9242,
      "hamp": 9243,
      "ster": 9244,
      "defeated": 9245,
      "unexpected": 9246,
      "transg": 9247,
      "villa": 9248,
      "gamb": 9249,
      "argent": 9250,
      "campbell": 9251,
      "##ls": 9252,
      "migrants": 9253,
      "##arth": 9254,
      "resolve": 9255,
      "ukraine": 9256,
      "routine": 9257,
      "ranging": 9258,
      "moderate": 9259,
      "awes": 9260,
      "counties": 9261,
      "skill": 9262,
      "shocked": 9263,
      "##ello": 9264,
      "##izon": 9265,
      "boxing": 9266,
      "undert": 9267,
      "cowboy": 9268,
      "##how": 9269,
      "##umar": 9270,
      "viet": 9271,
      "lakers": 9272,
      "pitcher": 9273,
      "pursue": 9274,
      "impl": 9275,
      "traffick": 9276,
      "sty": 9277,
      "longtime": 9278,
      "taiwan": 9279,
      "indigenous": 9280,
      "appe": 9281,
      "edwards": 9282,
      "organic": 9283,
      "requested": 9284,
      "reviews": 9285,
      "fastest": 9286,
      "substance": 9287,
      "nationals": 9288,
      "packed": 9289,
      "##igation": 9290,
      "ale": 9291,
      "wol": 9292,
      "lying": 9293,
      "legs": 9294,
      "terrible": 9295,
      "loading": 9296,
      "##idays": 9297,
      "differences": 9298,
      "tampa": 9299,
      "dancing": 9300,
      "okay": 9301,
      "exports": 9302,
      "##war": 9303,
      "##24": 9304,
      "boun": 9305,
      "grateful": 9306,
      "193": 9307,
      "jessica": 9308,
      "processing": 9309,
      "##berry": 9310,
      "purposes": 9311,
      "ja": 9312,
      "pear": 9313,
      "##ardash": 9314,
      "arkansas": 9315,
      "murphy": 9316,
      "handling": 9317,
      "essentially": 9318,
      "besides": 9319,
      "##etts": 9320,
      "exempt": 9321,
      "##oning": 9322,
      "marg": 9323,
      "nass": 9324,
      "lor": 9325,
      "endors": 9326,
      "##burn": 9327,
      "cd": 9328,
      "disabled": 9329,
      "capabilities": 9330,
      "entit": 9331,
      "kicked": 9332,
      "##weather": 9333,
      "fleet": 9334,
      "##jan": 9335,
      "screening": 9336,
      "km": 9337,
      "equival": 9338,
      "ic": 9339,
      "2022": 9340,
      "mans": 9341,
      "delivering": 9342,
      "broader": 9343,
      "##xic": 9344,
      "focusing": 9345,
      "neutral": 9346,
      "kam": 9347,
      "customs": 9348,
      "reasonable": 9349,
      "stability": 9350,
      "disappointed": 9351,
      "##castle": 9352,
      "normally": 9353,
      "orlando": 9354,
      "##bie": 9355,
      "transm": 9356,
      "intense": 9357,
      "transgender": 9358,
      "sporting": 9359,
      "genu": 9360,
      "warren": 9361,
      "buc": 9362,
      "tragedy": 9363,
      "comed": 9364,
      "initiatives": 9365,
      "fundamental": 9366,
      "##attan": 9367,
      "cad": 9368,
      "shaw": 9369,
      "tracking": 9370,
      "900": 9371,
      "bust": 9372,
      "jean": 9373,
      "##ateral": 9374,
      "bun": 9375,
      "encouraging": 9376,
      "visual": 9377,
      "picking": 9378,
      "plea": 9379,
      "confed": 9380,
      "columbus": 9381,
      "responding": 9382,
      "disclosure": 9383,
      "substit": 9384,
      "suspicious": 9385,
      "criticized": 9386,
      "diverse": 9387,
      "lgb": 9388,
      "guidelines": 9389,
      "spy": 9390,
      "bathroom": 9391,
      "ted": 9392,
      "##what": 9393,
      "wise": 9394,
      "neo": 9395,
      "cleared": 9396,
      "pav": 9397,
      "##innati": 9398,
      "gig": 9399,
      "password": 9400,
      "progressive": 9401,
      "npr": 9402,
      "sensitive": 9403,
      "brut": 9404,
      "awesome": 9405,
      "##icut": 9406,
      "ski": 9407,
      "wayne": 9408,
      "steady": 9409,
      "vacc": 9410,
      "incorpor": 9411,
      "lem": 9412,
      "input": 9413,
      "tas": 9414,
      "judg": 9415,
      "efficiency": 9416,
      "xi": 9417,
      "rar": 9418,
      "retailers": 9419,
      "cincinnati": 9420,
      "overt": 9421,
      "conclusion": 9422,
      "petro": 9423,
      "hoped": 9424,
      "##apse": 9425,
      "sanch": 9426,
      "finishing": 9427,
      "rall": 9428,
      "participation": 9429,
      "promoting": 9430,
      "taught": 9431,
      "##iques": 9432,
      "uncertainty": 9433,
      "processes": 9434,
      "methods": 9435,
      "welf": 9436,
      "slowly": 9437,
      "michelle": 9438,
      "maintained": 9439,
      "javas": 9440,
[...]
