[PAD]
[UNK]
[CLS]
[SEP]
[MASK]
!
"
#
$
%
&
'
(
)
*
+
,
-
.
/
0
1
2
3
4
5
6
7
8
9
:
;
<
=
>
?
@
[
\
]
^
_
`
a
b
c
d
e
f
g
h
i
j
k
l
m
n
o
p
q
r
s
t
u
v
w
x
y
z
{
|
}
~
¡
¢
£
¤
¥
¦
§
¨
©
«
¬
®
¯
°
±
²
³
´
µ
¶
·
¸
¹
º
»
¼
½
¾
¿
×
ß
æ
ð
÷
ø
þ
ħ
ı
ł
œ
ƒ
ə
ʻ
ʼ
ˈ
˚
˜
͵
α
β
γ
δ
ε
η
θ
ι
κ
λ
μ
ν
ο
π
ρ
ς
σ
τ
υ
φ
ω
а
б
в
г
д
е
ж
з
и
к
л
м
н
о
п
р
с
т
у
ф
х
ц
ч
ш
щ
ы
ь
ю
я
і
։
א
ב
ה
ו
י
ל
מ
ר
ש
ת
،
ء
ا
ب
ة
ت
ث
ج
ح
خ
د
ذ
ر
ز
س
ش
ص
ض
ط
ظ
ع
غ
ف
ق
ك
ل
م
ن
ه
و
ى
ي
پ
ک
ی
अ
आ
इ
ई
उ
ए
औ
क
ख
ग
च
छ
ज
ट
ठ
ड
ण
त
थ
द
ध
न
प
फ
ब
भ
म
य
र
ल
व
श
ष
स
ह
ा
ि
ी
ो
।
॥
ক
ন
প
ম
র
শ
স
ঽ
া
০
১
২
৩
৪
৫
৬
৭
৮
৯
৲
৳
৹
৺
க
ச
ட
த
ந
ன
ப
ம
ய
ர
ற
ல
ள
வ
ா
ி
ு
ே
ை
ᄀ
ᄂ
ᄃ
ᄅ
ᄆ
ᄇ
ᄉ
ᄋ
ᄌ
ᄎ
ᄐ
ᄑ
ᄒ
ᅡ
ᅢ
ᅥ
ᅦ
ᅧ
ᅩ
ᅪ
ᅮ
ᅳ
ᅴ
ᅵ
ᆨ
ᆫ
ᆯ
ᆷ
ᆸ
ᆻ
ᆼ
‐
‑
‒
–
—
―
‘
’
‚
“
”
„
†
•
…
′
″
‹
›
‼
⁄
⁰
₂
₃
€
₹
⃣
ℓ
℠
™
⅓
⅔
←
→
↓
↪
−
√
≤
≥
⏰
ⓐ
ⓘ
ⓛ
ⓟ
ⓢ
ⓣ
─
■
▪
▶
▸
►
◄
○
●
☀
★
☆
☕
☘
☝
☠
☺
♀
♂
♠
♡
♣
♥
♦
⚡
⚪
⚽
⚾
✅
✈
✊
✌
✓
✔
✘
✞
✤
✨
✪
✭
✰
❄
❌
❖
❗
❤
❥
➜
➡
⠀
⬇
⭐
、
。
「
」
あ
い
う
え
お
か
き
く
け
こ
さ
し
す
せ
そ
た
ち
っ
つ
て
と
な
に
の
は
ほ
ま
み
も
ゃ
ょ
よ
ら
り
る
れ
ろ
わ
を
ん
ク
ツ
ト
ラ
リ
ル
ン
・
ー
ㅤ
一
三
上
下
不
世
业
东
並
个
中
为
主
之
九
也
了
事
二
于
些
产
京
人
今
他
以
们
任
但
位
低
何
作
來
例
供
保
信
個
們
偉
元
光
入
內
全
公
共
其
出
分
利
到
制
前
劉
力
加
务
動
務
包
化
北
區
十
卐
南
博
原
去
及
反
发
口
句
可
台
司
合
同
名
向
吳
告
和
品
哲
售
商
嘉
回
因
国
國
園
團
在
地
型
城
基
報
場
增
外
多
大
天
她
好
如
子
學
安
宏
定
客
家
将
將
對
導
小
少
就
局
展
山
州
工
已
市
布
常
平
年
府
度
康
建
式
張
強
影
後
徐
得
德
心
志
性
您
情
惠
意
應
成
我
或
戰
所
投
持
指
控
提
支
收
政
教
數
文
新
方
於
日
明
星
是
時
景
更
最
會
月
有
服
望
朝
期
本
李
来
東
极
林
果
柯
條
楊
業
樂
模
機
款
正
此
段
比
民
水
永
沒
法
海
深
清
港
源
準
灣
為
物
特
率
玉
王
現
理
生
產
用
由
發
的
目
相
看
石
示
社
私
科
租
立
第
等
管
系
約
級
經
繼
續
级
经
绿
美
義
習
者
而
聞
股
育
能
自
至
與
舞
花
英
華
蔡
行
表
被
西
要
視
計
許
評
詞
該
誉
認
說
譽
讀
變
评
費
資
賴
资
起
超
路
車
近
这
這
通
週
進
過
道
遠
還
部
都
鄭
重
量
金
銀
鋼
長
開
間
閱
關
间
限
院
陳
險
隱
集
電
面
頭
類
项
風
館
馆
首
馬
體
高
鴻
黃
點
ﬀ
ﬁ
ﬂ
（
）
，
－
：
？
ａ
ｈ
￼
🇦
🇧
🇨
🇩
🇪
🇫
🇬
🇭
🇮
🇯
🇲
🇳
🇵
🇷
🇸
🇹
🇺
🇿
🌈
🌊
🌟
🌭
🌴
🌸
🌹
🌺
🌻
🍋
🍒
🍩
🍷
🍺
🍻
🍾
🎂
🎄
🎅
🎈
🎉
🎊
🎟
🎤
🎥
🎵
🎶
🏀
🏆
🏈
🏴
🏻
🏼
🏽
🏾
🏿
🐘
🐝
🐣
🐰
🐶
🐻
🐾
👀
👅
👇
👉
👊
👋
👌
👍
👎
👏
👑
👧
👩
👶
💀
💁
💃
💋
💍
💎
💔
💕
💖
💗
💘
💙
💚
💛
💜
💞
💥
💦
💩
💪
💫
💯
📰
📷
📸
📺
🔊
🔘
🔜
🔥
🔴
🔵
🕺
🖤
🗣
🗽
😀
😁
😂
😃
😅
😆
😇
😈
😉
😊
😍
😎
😏
😒
😔
😘
😜
😡
😢
😣
😩
😪
😬
😭
😮
😱
😳
🙂
🙄
🙈
🙋
🙌
🙏
🚀
🚨
🚮
🤔
🤗
🤘
🤙
🤣
🤦
🤶
🤷
🥇
🥜
🥤
🦁
🦄
🦋
##o
##g
##n
##e
##s
##t
##a
##d
##y
##c
##l
##i
##b
##j
##u
##r
##m
##h
##8
##f
##v
##5
##☀
##p
##k
##x
##w
##0
##9
##1
##z
##3
##6
##7
##4
##°
##2
##q
##🏾
##©
##🤗
##æ
##😭
##🖤
##¤
##¸
##ð
##€
##™
##क
##ि
##त
##🏽
##♀
##🤦
##य
##🏻
##🌴
##り
##か
##と
##う
##こ
##さ
##い
##ま
##し
##た
##🇬
##🇷
##🇸
##ن
##ا
##ك
##®
##ø
##а
##з
##р
##е
##и
##л
##न
##🎤
##な
##ł
##ा
##र
##ट
##ी
##ش
##ي
##ل
##ت
##д
##😇
##ᅳ
##ᄀ
##ᅩ
##¢
##💘
##❤
##´
##☆
##¾
##😘
##💪
##ع
##ر
##و
##ب
##ة
##व
##ो
##च
##ق
##♥
##¥
##♣
##о
##у
##م
##س
##⅓
##ض
##💔
##🎉
##ו
##ר
##ל
##🎊
##🙏
##🍷
##🇹
##🌹
##👏
##µ
##ᆫ
##ᄉ
##ᄋ
##ᅮ
##😅
##ح
##×
##म
##🏼
##て
##🏆
##る
##も
##あ
##よ
##す
##☕
##ு
##த
##வ
##ி
##ம
##ா
##ன
##ர
##ை
##ய
##ற
##க
##ள
##ப
##ط
##ه
##ج
##ف
##د
##प
##ल
##ᅵ
##ᆻ
##ᄃ
##ᄅ
##ᆨ
##छ
##с
##т
##я
##щ
##غ
##ы
##ظ
##ى
##ᄒ
##ᅡ
##🇳
##ே
##ث
##º
##😁
##🙄
##😎
##ز
##ʻ
##⁄
##ß
##👩
##ᅥ
##ᆷ
##ᄇ
##🐻
##✅
##г
##ф
##👑
##ص
##💫
##स
##β
##द
##श
##ह
##ذ
##½
##к
##👍
##в
##α
##σ
##ι
##λ
##ο
##π
##υ
##н
##£
##✔
##خ
##²
##✪
##ב
##י
##け
##ょ
##¨
##😂
##œ
##ʼ
##🎅
##🌻
##😍
##💍
##の
##ь
##🇪
##🇺
##τ
##ρ
##ε
##ω
##ん
##💞
##😊
##ध
##ब
##ᄌ
##ء
##ی
##え
##і
##🌺
##♂
##ᅢ
##ᄑ
##ᅧ
##ᆼ
##ᄂ
##ज
##★
##ᆯ
##ख
##¦
##→
##き
##🌈
##🦋
##🐰
##💖
##🔴
##⚪
##±
##✨
##👊
##ठ
##ड
##❌
##✞
##ᅦ
##ᄆ
##−
##⚽
##れ
##は
##￼
##м
##ш
##🏿
##🇨
##🇿
##п
##💛
##🇧
##¼
##⃣
##थ
##ग
##🇲
##ж
##ﬀ
##پ
##💋
##🤷
##उ
##☘
##🚀
##🔥
##א
##ש
##¬
##⚡
##ı
##🎶
##☺
##ष
##💯
##🤶
##🎄
##⅔
##κ
##μ
##η
##🇭
##●
##お
##💃
##👌
##🍻
##😱
##🏴
##🇵
##ᄐ
##б
##🇮
##¹
##ー
##ル
##ク
##に
##✌
##ち
##ゃ
##ч
##ᄎ
##ᆸ
##く
##ई
##ᅪ
##˚
##💜
##˜
##ς
##🚨
##ת
##🦄
##😳
##ħ
##わ
##ら
##♡
##≤
##💎
##👧
##ю
##😣
##🇦
##φ
##δ
##θ
##ν
##🐝
##せ
##つ
##っ
##を
##🤣
##ラ
##х
##🙌
##❄
##ᅴ
##ல
##🌸
##ए
##फ
##γ
##ə
##💚
##📺
##ﬁ
##💙
##√
##³
##🎂
##🎈
##ƒ
##⭐
##😢
##⁰
##ک
##ц
##ण
##👇
##😬
##💩
##🐶
##そ
##リ
##ろ
##─
##þ
##भ
##🥇
##ツ
##ン
##ト
##✊
##≥
##😒
##🔵
##😡
##💕
##😜
##💥
##👉
##ㅤ
##ℓ
##র
##শ
##ন
##😩
##℠
##💦
##ச
##͵
##✭
##👶
##🇯
##¯
##ட
##🤔
##🙈
##み
##ה
##☠
##😀
##🌟
##₹
##💁
##🙋
##ｈ
##ａ
##⠀
##🇩
##🤙
##💗
##🐣
##🤘
##🍾
##⚾
##♦
##⬇
##🙂
##✰
##ˈ
##ந
##😔
##🏈
##📸
##🚮
##💀
##🗽
##🎥
##ほ
##👀
##➡
##▪
##🐾
##מ
##इ
##🎵
##স
##🏀
##₂
##😉
##🦁
##ﬂ
##☝
##🌭
##📷
##🌊
##😪
##😃
##😆
##🍺
##🍋
##❗
##✈
##😈
##अ
##🍩
##😮
##👎
##🥤
##🕺
##ⓟ
##ⓐ
##ⓛ
##✘
##आ
##👋
##🇫
##↓
##🐘
##👅
##►
##ⓘ
##ⓣ
##ⓢ
##😏
##🍒
##🔊
##🗣
##■
##🔜
##📰
##ম
##ক
##া
##🎟
th
##er
the
##in
##on
##en
##es
##or
##at
##ed
##nd
##ar
##ing
##an
in
to
##al
##it
##ou
of
and
##is
##as
##ic
##om
##re
##il
##ion
##ent
##el
##id
##et
##ay
##ec
##st
on
##ot
##le
st
##ac
for
##ur
##ow
##ut
wh
##ol
##ad
##ve
##am
##ig
re
pr
be
##ly
##ers
is
that
it
##ir
##ith
##ter
##ation
##th
with
##im
an
sh
al
as
##ch
##ver
##ill
he
at
##os
ch
##est
##ce
com
fr
was
con
##us
sa
ne
##op
ha
##ere
##igh
##ld
we
##ess
##em
##ag
##ul
tr
you
su
##ak
##ts
##od
##pp
##ear
##ain
said
##oc
##ate
are
##iv
##um
##ore
by
##un
ex
de
se
from
##and
20
##ect
##ity
##ies
this
##art
##ment
his
##ort
##if
or
have
cou
ac
##ab
pl
le
has
##ive
sp
not
go
##all
##ust
##ast
will
##se
##ight
##ist
ab
but
##ack
##ard
##ok
##ial
##ost
##ud
##ant
year
they
ad
##end
br
pro
##ap
##ie
cl
un
ar
##gh
new
wor
##ice
##ell
af
##out
##day
201
##ome
##ia
en
##uc
gr
off
can
up
all
##ip
mar
ag
out
who
##ich
res
comp
their
##ib
##ik
rep
##our
##ound
##ue
per
##ge
more
##her
##ans
inc
##ould
man
tw
##tr
##ong
do
##ough
im
##ions
##ide
us
me
##ine
after
cr
##ame
##ated
exp
##age
one
her
dr
am
mon
had
##ail
rec
##ally
been
tim
about
##ure
she
##ber
so
##ake
were
##ook
##ays
##so
##ous
##ind
##ace
##act
##ire
##ach
##ub
##ff
pe
##ance
fir
##own
##ence
also
which
pol
##av
there
##ther
over
ev
sc
int
part
##ord
##og
when
##ose
its
car
app
##iz
##ary
##orm
##ks
##00
co
##one
##ile
fe
te
##ond
acc
##pt
ind
no
##ian
##ign
##qu
coun
##ree
##ents
qu
dis
##ations
str
##oll
##ely
##ick
comm
would
get
##ike
if
ser
##ass
##ish
##ite
play
##aw
just
first
than
peop
what
time
##ey
##ors
people
ph
ro
two
##ning
##ase
some
##ens
em
our
bl
##able
##ov
inv
high
pre
sec
rel
your
bec
##oin
inter
work
pres
##ket
##oss
dec
cont
##ep
kn
##ct
##ict
how
other
any
##gr
##ition
imp
##ty
##ident
last
##ade
into
op
##ical
##nder
like
##reat
them
##form
##ild
##ob
##amp
my
##ings
##use
##ump
may
##itt
##lic
back
fl
ass
##ates
act
##ek
add
el
##ang
again
min
hel
##ied
par
##oy
##oun
ever
##ult
fin
him
##old
10
##ry
##ock
##ason
thr
##lud
sch
show
##ory
could
##are
most
##ove
##ink
##uct
##enc
report
##iss
##ater
##ood
now
##uring
##ues
att
##vel
##anc
includ
##fer
ap
reg
market
years
under
##urn
##ug
compan
bet
##man
don
##ational
cent
team
##ery
##ious
cons
##ities
##ause
##illion
##ool
##ft
state
bu
while
##hing
##als
##wn
##ement
day
des
ve
offic
##fore
##we
call
##ating
look
19
did
trump
serv
ear
lead
##atch
news
invest
down
win
week
only
need
president
##hn
through
##ton
##arg
three
gu
every
med
before
##ath
##vern
##ix
supp
##cent
rem
even
##ward
##ah
##bs
during
##aking
##ise
govern
##ublic
2017
cour
def
##ting
police
##other
##ased
prov
##land
##les
##ited
nor
start
##ier
help
sm
world
##oot
says
where
well
bus
##ince
because
say
low
dep
end
form
being
sy
##urr
##air
make
##br
##ph
game
bel
against
##ected
##uch
poin
then
prod
##ash
wr
##orts
##cr
##orn
##ily
contr
##iel
mem
ret
see
##ro
##iew
##atur
cap
home
percent
month
##ank
fam
##son
old
know
##erson
company
stud
ed
season
##ull
sou
these
##pl
made
##ual
col
long
##io
##az
good
want
city
bo
##ices
##ert
##oth
four
ter
##uss
school
many
##ife
ke
##istr
run
those
##xt
law
##ven
way
ins
second
government
own
war
##oup
2018
##ful
gen
set
##ons
gl
##ouse
##hip
##way
take
ann
##eric
going
group
##cc
inst
around
##iness
should
countr
##irect
sign
##und
resp
dem
think
##ollow
##eral
##ection
since
aut
##au
big
000
direct
##ivers
follow
wom
##alk
americ
phot
cle
very
30
##gan
sl
##ames
million
here
sur
night
loc
12
found
##ility
##ics
told
##earch
##ange
ma
15
right
read
open
monday
post
business
##ific
##its
##ording
##alth
##ments
##ield
north
##ra
##elf
##iver
##ital
##ee
contin
##up
del
trans
##ope
##ets
still
##olog
##ork
##ner
##ress
det
id
dif
mid
##ather
public
according
##ible
##ene
including
11
##fl
##per
bar
stat
##ives
##ently
bre
char
much
##nes
such
head
south
commun
adv
##ott
child
national
sal
support
sen
house
##ative
eff
##led
##att
plan
jo
##ision
disc
##ms
##let
##ether
happ
care
cor
top
##ween
inform
both
next
##ered
best
spec
between
##ble
face
red
##ular
##ys
health
##velop
##ri
star
great
wed
iss
leg
person
##iving
##ior
##urs
progr
court
hand
develop
put
official
num
does
prop
val
ste
##omet
##iday
grow
##ister
##ina
another
shar
##ime
far
##ave
##ency
##con
stre
tues
prot
rele
tuesday
eng
##med
##eng
##ric
##0s
use
opp
conc
soc
##ists
tec
country
##ont
air
##ying
##ley
vis
##ants
family
##ax
##erg
##ief
##oud
manag
miss
arr
sk
##ved
near
life
though
spe
##bers
##ount
real
fil
mor
camp
##res
##ern
av
##ights
ob
conf
incre
har
pass
##ines
sim
met
##ving
##read
sub
sw
pow
##aff
pat
ask
##min
find
prof
14
intern
curr
five
really
information
come
mil
press
##ling
##ced
200
##ional
place
former
##der
lot
es
cond
##ever
ra
vide
left
wednes
wednesday
photo
cal
white
gre
##ins
##enn
rest
meet
##line
art
la
somet
2016
##ball
##crib
investig
##ird
friday
exper
fire
##ember
##ral
cre
prev
got
jun
##ren
pay
##uck
sund
rece
mod
research
##ised
free
fac
differ
##ody
18
wind
##ject
mus
requ
##akes
##ale
##itter
##ecut
same
##ually
##leg
##stem
mov
##iting
##ience
hal
sunday
pos
oper
13
##ures
share
##tt
##ote
stand
six
polit
sing
##ng
keep
chr
##ele
##view
clear
system
##ann
coll
##ead
each
techn
program
build
##ages
##uary
today
satur
vict
##osp
fund
##ained
ll
point
saturday
russ
##ves
maj
##ata
##ew
##iam
women
##ends
##uction
used
cost
later
##str
feel
##oad
let
times
indust
##yp
auth
##itch
##ury
beh
##osed
eur
##ects
25
anal
united
##ering
sol
##arter
too
##over
##used
few
county
##ism
net
john
called
fri
inj
based
provid
turn
media
17
16
apr
proc
main
however
depart
poss
foot
##ize
secur
##ished
fed
chance
road
expl
perform
march
twitter
sun
econ
##ness
allow
prom
bas
econom
video
univers
##ized
kill
##ived
power
sever
est
aff
##ued
quarter
ris
park
major
##ety
never
past
number
mr
##vers
##ute
##ately
hard
event
organ
record
vi
cloud
announ
##aim
local
days
##ways
##ially
job
##ark
##ald
##ester
pa
belie
produc
##gin
service
##red
appear
##ittle
##augh
won
west
states
fact
hold
##app
test
import
ju
subs
young
little
quest
children
##aining
reported
added
##book
april
distr
attack
points
deal
took
things
author
glob
##par
hour
better
##ains
##til
without
third
##mm
##unch
##pr
community
sus
##ague
##ution
cust
##iven
watch
games
##te
exc
move
level
jan
##ces
##gest
lik
##ned
office
york
return
email
##thing
partic
area
##ention
something
services
##ient
##ats
##ush
water
##ology
interest
line
away
##verage
list
##opp
didn
case
sn
eas
lat
party
saf
data
came
making
full
ext
tax
members
##lin
mc
bank
san
##by
ca
##cept
##oci
##ending
thurs
acr
men
less
thursday
associ
50
hist
elect
class
trad
june
months
##ony
view
##ploy
why
##els
players
super
american
half
hum
##side
happen
##ted
##ipp
coach
money
department
across
different
early
##ically
story
fut
24
##ired
went
polic
##ps
sit
facebook
claim
always
league
sour
##ured
##ards
fur
along
ir
price
##ille
##ready
security
already
##ortun
bill
statement
following
working
champ
pop
##ored
##aken
ple
join
several
compet
land
##ified
special
step
##rem
might
until
side
sent
impr
black
final
center
##eck
chang
international
university
canad
##co
social
##ones
##ator
consid
image
##ama
process
##ium
spok
dev
looking
equ
talk
officials
##ple
##urch
club
morning
alleg
pot
employ
mostly
chief
expected
minister
viol
enter
shot
custom
##hic
food
charg
change
susp
love
kore
hit
series
doc
##ense
strong
jud
short
typ
having
##ians
able
shoot
billion
financ
global
##ison
##thers
seen
il
21
##aign
##ane
dav
##ission
##ended
complet
mich
important
among
##self
##ocr
hosp
invol
campaign
match
death
ref
small
##sh
europe
ang
must
##wh
ant
##oon
committ
opt
##ought
general
cloudy
mat
further
director
reach
give
avail
summ
live
##lex
key
aug
##ox
ball
sex
visit
round
july
growth
field
22
ge
dou
var
##be
future
mean
div
street
deb
##oming
mom
lower
inf
design
tot
asked
##stand
##ai
students
addition
seem
##ville
##port
##acy
industry
##ny
whether
aust
vol
##less
htt
fun
##ature
port
100
##inal
pet
subscrib
proble
others
washing
continue
close
priv
##inc
lear
targ
democr
##oved
admin
tog
conn
forward
fall
activ
terr
try
taken
china
succ
recent
yet
##oor
companies
##ourn
gir
##ees
book
##ases
hol
##iff
counc
##ators
foc
##atic
getting
##utes
highs
##por
23
##ances
walk
washington
mot
ww
execut
once
together
project
##ru
federal
likely
##itions
least
led
opportun
40
latest
cert
##lier
lar
lim
access
##aily
stock
due
##ret
success
mark
##ateg
##ham
previous
##ensive
2015
##ference
given
crit
reports
board
fight
available
ago
ent
tell
order
republic
kind
##ential
##ising
taking
##ged
late
##esh
##int
woman
music
##gress
##ival
##iod
administr
coming
qual
daily
colle
development
chall
vehic
christ
##ten
fail
political
cut
using
www
##back
name
saying
held
den
cam
bring
##ories
repres
hom
##ler
india
staff
meeting
east
##ably
hot
rights
cele
started
financial
period
goal
lows
arrest
hospital
concern
upd
girl
become
trav
tal
ah
earlier
agre
analy
##ners
leaders
council
los
known
sure
hear
##ids
drug
behind
pick
reason
town
##wards
ident
larg
##go
host
##ults
doing
##umb
##omm
milit
decision
##ences
ide
break
sug
celebr
bit
boy
gener
oct
##ana
within
##idence
announced
profess
##itive
brit
uk
vir
tur
gun
##aft
control
lab
capt
doesn
##tern
##ides
cop
done
hours
threat
##ively
educ
sports
comes
address
thing
arm
##uters
non
wa
##que
##sel
light
##ars
rul
gold
er
##ech
aw
cho
##yn
america
ur
canc
shares
##get
treat
spr
##erc
target
##ows
enough
policy
##ench
discuss
wee
ban
online
##ands
##uce
dead
##work
##asing
election
front
room
building
occ
investigation
present
mph
experience
launch
total
film
tit
pract
related
##ared
buy
pub
mass
bene
current
appr
lost
lib
history
fre
hope
weeks
##ization
##erv
mo
technology
bur
expect
jack
desp
##field
##vert
##ided
trying
dom
lo
prem
##bert
seven
fans
esp
trade
stay
provide
##ails
possible
##rap
mult
cup
effect
relations
mess
cred
question
mill
outside
vot
dam
sales
check
rob
action
released
proper
played
##idents
deliver
##uel
28
init
##oke
result
journ
##ne
capital
ger
donald
pict
represent
partly
minutes
sell
calif
source
clos
broad
base
football
##ients
champions
human
include
alm
##ex
##uation
27
friends
loss
stop
29
env
##ibut
26
##ounds
average
eight
fav
oil
appro
##ape
benef
risk
term
son
rac
energ
certain
despite
tem
course
##ugg
##yr
body
victim
hu
orig
december
saw
##off
believe
reuters
administration
##uk
##venue
often
##for
january
##lished
recently
##ift
tre
##thern
understand
plans
consum
mag
issue
phil
secret
##ming
review
russia
commission
##cl
career
##lement
31
##amed
##bi
che
##aps
hon
district
nation
##ger
##sw
medical
##aged
winds
quick
large
##rew
##ament
##ode
congress
release
position
##ability
player
green
febr
conference
arg
killed
rate
mur
february
contact
playing
plac
##aker
grand
austral
college
##aster
##pper
david
thought
issues
fore
##yle
infl
product
##ron
rich
##igr
track
bad
tom
##iety
applic
##ds
##oring
increase
emerg
suggest
makes
thank
di
august
##af
##yl
senior
committee
almost
hop
squ
below
energy
fell
##ondon
wanted
leader
korea
webs
everyone
respond
personal
space
##elt
aud
products
respons
##ograp
management
tour
bow
##ams
account
military
cover
summer
study
##idge
cook
##under
demand
chair
london
##ender
##ael
nearly
##akers
const
needs
enc
##iron
dig
sel
##ots
je
offer
twe
assist
focus
pack
pen
creat
performance
link
ahead
heart
199
##ination
begin
rad
35
officer
imm
crim
particular
central
role
mal
afric
weekend
##ford
cann
shows
officers
fig
tv
region
sept
express
##ault
james
member
##uty
ey
comment
advert
##ibility
higher
spokes
suff
##dle
##empt
ens
##wood
adm
##ivid
shooting
environ
##medi
strateg
wrote
economic
##iter
##ither
##ma
card
single
neg
pan
cand
##orms
currently
age
famil
confir
page
##ample
##ify
canada
received
##ulation
someone
angel
repl
means
tor
##ett
californ
hill
signific
everything
##ney
safety
mother
ep
executive
##uf
site
interview
##ilar
died
mater
##eal
conv
hun
##ba
##iger
##orney
thunder
comb
soon
pal
individ
reve
bab
improve
##lish
cir
attorney
##ips
##joy
##aper
##nings
impact
california
amaz
race
block
actually
2014
running
reb
##ico
potential
manager
foreign
teams
private
agency
prob
showers
##ined
protest
sunny
##ipt
##pm
indian
pain
friend
website
##itting
environment
legal
sil
push
sold
intr
phone
500
authorities
production
couple
results
##oph
##isc
bud
leading
countries
justice
##ara
insp
##ument
bal
alleged
rain
mad
education
instit
##rupt
##bc
immedi
compl
ce
enjoy
events
##ession
anything
##attle
##den
matter
fourth
meas
investment
significant
moment
circ
##imate
brand
areas
inside
deep
##ength
travel
wall
fair
rev
##bo
training
##orr
serious
##ona
geor
##lear
espec
type
wasn
william
especially
##epend
##mp
bir
60
##body
began
##ober
45
00
judge
cult
##selves
##fic
winning
independ
nothing
corpor
##iple
force
##ried
please
value
leave
unc
gar
involved
request
extr
incident
##ural
describ
michael
needed
analyst
##atures
##opped
instead
associated
mind
evening
works
subscribe
gave
england
deter
customers
october
##ij
dan
sect
cross
himself
aftern
search
tick
similar
##yan
opportunity
isn
pros
##ening
seek
##ops
scre
alth
##uit
##cement
afternoon
##ilities
particip
recomm
annual
diffic
although
problem
union
german
russian
https
wild
ok
island
material
alex
sched
vers
dog
anyone
thom
ver
relationship
parents
lives
click
cit
##ogn
via
##ental
draw
ord
upper
fly
##iec
file
range
reser
reveal
groups
mart
##eter
tex
contract
heav
journal
paul
convers
##anch
kim
mac
##ule
rock
202
drive
##uff
centre
##ades
artic
vehicle
touch
##bur
ground
##aughter
middle
prime
father
##ighb
##ises
neighb
property
living
award
##istan
ham
cur
##tain
mob
##omb
scored
hall
##ufact
create
##of
thunderst
content
manufact
worth
wife
##fully
analys
brown
doll
log
candid
terms
pret
prices
happened
credit
network
charl
date
matt
rose
church
fest
workers
self
kids
european
approach
intell
happy
song
civ
##isl
beat
##ocks
driving
laws
abs
phys
##apan
forec
##itor
biggest
##aur
residents
pur
##ask
##ena
firm
ton
above
##yc
constr
worked
##aging
protect
##ady
wood
sup
whole
wel
##itted
challeng
violence
arrested
trust
##bed
pull
partners
##ude
##cript
wal
##ago
syr
ul
box
consider
tweet
bat
prior
thunderstorms
clin
difficult
##atives
growing
vill
##eth
japan
purch
##vey
changes
nine
32
leav
##ston
##ruct
starting
cash
##hold
prim
legisl
##mar
situation
##na
##cast
additional
entire
showed
bay
schools
store
published
king
##ores
else
oh
revenue
##ein
##ram
dist
bea
provided
prepar
indic
surpr
anim
attempt
respect
pitch
regul
stra
goals
##ca
increasing
##itness
70
##aught
wants
quality
images
camer
traff
gas
niger
questions
ach
##ino
jobs
sexual
##gn
##han
##ecess
##action
spot
rather
##ements
##hood
##sc
either
##nn
analysis
##lus
september
pred
ben
answ
whose
takes
plat
roll
anti
vo
conduct
recogn
specific
common
##onse
angeles
proj
true
became
rs
hous
oppos
corn
stage
remain
##ograph
ready
details
victory
flor
##ugh
popular
##ilt
##anger
strugg
vote
markets
dest
suprem
championship
##oo
accept
mer
speed
charges
response
title
fast
##ida
33
hy
directly
scene
includes
republican
regular
engine
economy
terror
swe
pressure
##mber
##arr
sat
##ica
autom
guard
inn
lif
mel
2013
bi
ont
secretary
investors
ath
probably
pic
nove
becoming
november
trial
sand
blue
farm
defense
idea
accused
hus
helped
posted
safe
##aring
displ
cannot
advertis
british
largest
##owd
continued
comments
##utions
civil
tab
minist
god
turned
##imes
heard
deg
attr
##uclear
included
##come
##ha
amb
student
##ster
##me
##la
throughout
brought
industr
cast
##estern
driver
##room
refer
themselves
prosecut
smith
cancer
mcc
rout
##band
roy
regard
shared
cell
natur
##enced
chic
pretty
##wor
##ya
##ened
36
recover
paid
thous
ful
evidence
teach
opening
aim
sam
various
longer
weather
families
fif
seg
achie
station
straight
##atory
##iers
cause
##oid
soft
injury
restaur
intellig
mount
##ban
goog
acqu
##reg
##ceed
users
resour
tradition
communic
##dr
allowed
moving
efforts
doct
unl
model
charged
overall
advis
updates
smart
##acter
remains
costs
hands
unf
gall
example
huge
exist
texas
sett
34
scott
decided
piec
jones
mis
##vin
fear
pac
coast
estab
bord
extrem
##itten
learn
nfl
runs
peace
insur
##ites
nuclear
disp
198
citiz
spent
norm
##ume
daughter
conditions
picture
river
rid
bey
lou
perf
felt
##inese
progress
speak
introd
##ung
immediately
franc
require
giving
practice
google
##uries
cases
##oper
amount
association
robert
sher
spring
##down
ways
##ills
lake
90
platform
easy
treatment
assault
color
##ole
simp
ill
issued
tourn
quite
expand
http
chinese
scr
##rael
##ique
##isions
pm
sem
##ari
hur
increased
french
poll
employees
getty
seems
forecast
##da
charge
mix
rom
prison
problems
snow
budget
israel
lack
text
australia
ceo
exch
##lam
senate
adding
##rect
wrong
favor
finally
immigr
ital
weap
separ
80
agreement
##arm
register
article
looks
virgin
sport
##ware
calls
##ci
tough
enfor
crash
las
##olf
income
beach
reporting
carry
bott
transport
##istic
kick
businesses
##ibuted
##onto
johnson
##where
##ky
70s
tried
obs
crime
effort
ensure
bull
raised
mex
##ota
75
constit
rank
turk
bowl
injured
mike
ten
nom
##anta
que
sale
created
birth
bed
quickly
##mer
extra
goes
ms
toronto
clean
band
discover
chicago
original
##hib
digital
##enge
##ging
movie
athlet
estim
ther
conserv
pair
fill
ut
retail
ber
ended
previously
##uments
double
##ension
sens
mu
copyr
blood
##uth
##xim
coverage
rh
et
multiple
doub
partner
rap
veg
receive
slow
defin
experi
advertisement
named
2012
patients
failed
copyright
gard
society
tele
knew
##kn
rates
stories
appeared
rise
encour
wond
grad
rat
##icted
##uing
promot
dise
positive
##ream
competition
finish
sector
rules
counter
histor
##encies
mic
complete
##hi
opened
##rel
fem
strength
ran
sle
arch
cities
size
division
catch
trip
intelligence
cas
prevent
connect
murder
feb
organization
draft
##stein
claims
revealed
condition
concerns
##uced
window
systems
##fort
closed
ol
remember
decl
critic
signed
perfect
necess
followed
florida
basket
##west
chris
limited
gets
sense
fresh
##ki
apart
husband
forces
##berg
pak
##box
##opping
bond
festival
55
li
compared
##east
features
victims
challenge
continues
canadian
confirmed
mach
37
message
##iant
tournament
##ke
carol
looked
western
fa
hund
van
baby
entr
talks
##ding
eu
##ective
jeff
##ounts
missing
charlott
moved
surv
democratic
thousands
medic
##ipped
governor
attention
esc
##eless
lawy
eg
recommend
hundred
veter
bag
mobile
note
built
apple
##load
cris
numbers
fbi
emergency
beyond
overs
hearing
france
electric
natural
maybe
ps
injuries
chairman
##iction
##my
din
jump
index
rating
wil
influ
conversation
grant
##ider
41
iran
##aming
cars
##ese
wide
obama
ice
reached
simply
described
fix
words
und
levels
##inated
38
resol
nas
sound
##inks
pers
criminal
ability
virginia
premier
jackson
projects
gone
##oti
construction
eag
traffic
##ification
##elling
penal
regional
##light
behav
alb
##iance
##enty
plus
##izing
offers
vegas
##osh
##ires
schedul
##ris
##overs
count
born
homes
trib
yes
witness
po
##ges
americans
southern
operations
door
save
fort
disapp
vice
##time
pakistan
storm
letter
fat
feet
williams
49
danger
amazon
minute
opportunities
tel
required
fox
ele
##ado
girls
talking
ryan
speaking
professional
heavy
der
##20
korean
character
vehicles
##ction
northern
analysts
demon
carr
brok
thanks
##une
owners
##ze
george
cat
##ems
##iet
acad
sometimes
frank
##anced
towards
valley
##essed
##oint
44
crowd
funding
propos
exact
lang
##night
lt
##eed
kar
mos
brief
cab
itself
##com
##icip
baseball
avoid
##ews
basis
leaving
africa
##while
finished
hotel
##chester
##ga
jose
attend
##astic
flow
48
##iring
subst
guys
battle
ess
cool
playoff
claimed
princ
profit
planning
##eline
##airs
flag
academ
tenn
winner
od
louis
##eat
volun
initi
##emb
##itz
##arily
thomas
##orter
brother
spokesman
ny
suspect
unit
guy
bost
display
##oes
nav
launched
obv
funds
highest
##acts
poor
slight
leadership
calling
particularly
photos
commerc
radio
##apped
obvious
spir
steve
##coming
300
science
couldn
options
##eated
197
##itation
##ring
majority
surr
score
meth
39
ministry
perm
agreed
scient
die
individual
motor
##agram
islam
oly
lic
lu
allegations
resources
parl
##ocked
##lim
##ters
internet
##ibly
enforcement
42
tech
##estic
border
shut
foundation
tonight
refl
francis
kept
eye
provides
##ette
##uses
choice
##ario
##igan
floor
olymp
trail
rally
stad
style
impress
train
jim
noted
ram
##lined
youth
figure
opin
boston
chann
commit
independent
instagram
filed
contest
considered
mention
telev
replac
complain
##ala
tool
activities
miles
##ocket
stars
exchange
negoti
commercial
sources
britain
caused
web
org
spending
wish
spoke
send
insurance
opposition
subm
parts
patr
##ander
52
hack
##imb
##tim
mont
seeking
##using
offered
crisis
passed
emb
steph
pun
document
trading
illeg
stadium
owner
##ef
boost
restr
adj
helping
changed
65
application
scheduled
##phone
path
bid
resc
43
supply
jon
sust
##going
51
mayor
earnings
plant
parliam
seeing
served
consult
##eller
meanwhile
reading
##he
organiz
struct
eth
##aries
drink
##vent
drivers
basketball
yards
fish
decades
wat
toward
tickets
winter
fifth
cooper
talent
kid
primary
joined
parliament
appeal
vac
offering
##cription
forced
##kin
army
mexico
crew
politics
designed
teen
gather
##egr
memor
burn
chem
citizens
dark
andrew
location
nba
atl
disease
germany
debt
certainly
asia
##za
sad
2011
champion
identified
minor
square
table
restaurant
democrats
holding
breaking
culture
demonstr
upon
##hol
presidential
emot
fal
##wide
##ani
##hl
beginning
defend
speech
bomb
perh
perhaps
innov
##oe
##iles
weight
mary
##oving
##ously
fine
##rop
resident
deputy
heat
epis
fully
ros
sar
##lor
doz
passeng
##makers
wait
communities
transfer
anth
cold
##mas
uns
mir
martin
##set
##ero
alone
##uals
planned
fash
##ancy
jul
implement
##oles
prec
appar
raise
temper
lay
records
haven
beg
infr
integr
hou
protection
advant
housing
##lines
##omp
cy
##lywood
benefits
drugs
kel
##oom
fan
##inary
paper
successful
46
stocks
sheriff
feed
pip
boys
drop
##ola
hundreds
standard
nick
complex
reality
##owing
feature
pad
##ici
##pool
serve
degree
answer
parties
attract
sud
ariz
operating
correct
##sen
devices
status
comfort
eventually
lee
tow
##gers
##ustr
providing
##oval
##iled
fle
spread
attacks
##iful
##entially
version
strik
equip
republicans
modern
##abor
##men
reporters
fashion
reserved
mental
47
##ili
asking
survey
rising
rod
voice
traditional
penn
experts
jail
weapons
believed
cookies
simple
##edy
purp
segment
domestic
returned
debut
vs
exam
coal
programs
word
##ledge
african
banks
supreme
decisions
benefit
television
earth
session
##inger
sym
fired
##elled
paris
manchester
joe
activity
relig
golf
guest
killing
ones
##icks
era
broadcast
written
sites
except
afford
wouldn
##wr
caught
richard
haw
resign
critical
##ania
aren
##ucky
99
professor
piece
corner
researchers
female
54
##ansas
mission
labor
bench
##kins
##amb
##tress
technolog
achieve
ren
proposed
wonder
##ez
showing
losing
inbox
adop
places
guil
tack
movement
ped
royal
physical
91
strategy
authority
determin
##oma
learning
nature
err
elections
corporation
categ
bell
##zz
damage
shop
liver
strike
explained
##town
detail
owned
divers
##ifying
beaut
keeping
asp
##works
mun
airport
equipment
plays
tay
active
install
fighting
writing
surg
##ta
thinking
gives
spl
feeling
57
screen
linked
##itely
##oul
ded
freed
putting
hair
population
entertain
facing
option
challenges
section
##veland
consumer
hor
spend
ty
subject
peter
christmas
jr
fuel
arrived
syria
cleveland
##house
reform
##ption
##sequ
##ructure
starts
nov
rang
items
##bit
cere
core
load
infrast
langu
##esville
##acher
videos
healthy
greater
located
carolina
##uter
mist
196
golden
##etic
assemb
steel
committed
approved
missed
barr
pacific
##aud
##alid
sleep
abuse
responsible
##cing
gm
scen
##ounded
##erate
yester
##iest
53
reportedly
nations
imag
rail
volunte
pu
ash
row
sav
finance
prince
scot
trou
origin
discl
caption
##ucks
reasons
daniel
guilty
##well
consist
customer
sea
pin
update
cry
2010
##gl
placed
dollar
yesterday
collect
##aded
code
surf
sides
beautiful
##ctions
rule
completely
theat
actions
ohio
operation
album
dism
flood
houston
bob
highly
##mon
dub
gov
joint
tar
dropped
welcome
massive
meant
appears
subscribing
##essions
focused
marketing
jord
56
believes
device
##eman
dip
policies
bul
os
zone
gh
camera
kr
responsibility
flight
usa
method
hopes
holiday
altern
##adel
seat
advoc
parent
infrastructure
##ground
candidate
individuals
nigeria
reduce
##aine
neighbor
suffered
advantage
unique
quarterback
ven
whe
brook
capac
dar
64
memo
proud
industrial
gal
sort
developed
glass
kevin
##iced
minim
ltd
##iami
prosp
dun
exactly
bol
confidence
seed
actor
awards
facility
estate
destr
ken
absol
measures
58
ii
meaning
nice
##oster
##ada
muse
##agn
micr
##ushing
newsp
domin
wid
hits
stuff
notice
arizona
knows
##asts
effective
expert
defence
##ruption
##irt
selling
du
chap
purchase
59
favour
spons
60s
ire
editing
ow
shel
gallery
##ano
##athan
usually
normal
##anda
affected
penalty
corp
##ev
£1
##apt
incred
##ersey
charlottesville
ly
accident
##50
cnn
truck
purs
gain
##cel
bridge
##isation
appre
watching
software
exerc
definitely
##outh
az
lose
mand
outl
##fri
kh
##orrow
standing
agent
miami
climate
skills
jer
tro
yield
72
allegedly
##aj
##don
invalid
90s
explos
occurr
partnership
myself
australian
institute
abc
##dy
##mine
michigan
existing
shots
admitted
pil
lines
##rid
fit
##adelph
tm
##instein
clearly
channel
philadelph
cru
##eration
rene
arab
wearing
scoring
finding
braz
solutions
necessary
difference
measure
66
assets
##ointed
hasn
tight
philadelphia
photograph
pit
documents
400
##oz
2019
assistant
actress
narr
eastern
shown
ron
statements
##ka
jordan
museum
guid
##30
immigration
loved
assess
turkey
mort
estimated
hind
facilities
ongoing
recall
rand
studies
squad
concerned
responded
jam
##care
exhib
spirit
solid
francisco
##gu
completed
##aves
occas
environmental
freedom
profile
brain
##ita
creating
twice
suit
##tery
agree
##ych
mail
factors
accounts
warning
##iar
object
managed
##inn
##inals
applications
english
defensive
figures
amazing
broke
user
struck
patri
##icated
capacity
excited
##sea
##mark
select
bottom
denied
boss
christian
village
kil
alab
dream
ec
seasons
##fc
generation
vent
voters
##ibution
cbs
southeast
oak
proceed
##asc
controvers
entertainment
stated
##ivity
lawmakers
##vant
coff
##rey
##erve
##ula
editor
waiting
collection
##burg
##ador
columb
##nel
surgery
establish
century
decade
50s
lady
ign
josh
audience
##dt
supporters
singer
stopped
ireland
##tch
bringing
##hs
worst
alco
mueller
older
master
retire
##unt
download
brad
wins
signs
doctor
dangerous
walking
sac
##roit
##uke
apply
sister
batt
equal
luc
##ront
fellow
eyes
migr
views
confident
moore
setting
##ictions
manufacturing
taylor
prepared
##bor
bon
faces
61
corporate
ell
ruling
alabama
agencies
cub
##iny
divid
dollars
testing
initial
regarding
##rant
alcohol
##ounding
upcoming
expressed
hate
amid
emp
trend
liverpool
limit
##wise
manufactur
##mony
investigators
earned
##ulated
collabor
skin
names
obviously
eat
dress
produced
seconds
willing
arts
learned
##pped
interesting
##cer
stake
detroit
episode
warm
##friend
##gar
##more
changing
helps
##mond
span
dad
##eme
steps
tweeted
inch
##icians
solution
sor
##osure
yourself
pool
##ois
blog
candidates
truth
##atively
victor
##iment
powerful
##tered
plenty
fant
mah
electron
##ym
carried
gian
##outs
grab
##ini
04
80s
##iling
##oman
davis
01
##ansion
aware
muslim
jersey
armed
warned
carl
separate
gradu
##put
adjust
interested
eric
illegal
##tained
sky
knowledge
favorite
onto
feels
receiving
cath
##izes
loan
##ycle
ordered
##eness
happens
horr
balance
advance
ring
rush
##ship
appl
brazil
hat
77
allows
stretch
memorial
consumers
contain
artist
connection
rough
whate
pray
##bon
legislation
whatever
jew
avenue
male
language
extremely
offensive
##aces
eagles
lawyer
rum
##pts
pulled
announcement
captain
edge
competitive
##igg
hers
aid
millions
computer
##fe
declined
##bridge
produce
##ios
##ali
campus
presented
##ological
##onents
bang
writer
76
animal
organizations
appreci
contribut
hurt
recru
bright
##omes
##anne
bod
allowing
##ube
67
italy
##any
developing
recorded
assembly
dur
weinstein
##enses
repeated
##burgh
psych
##illed
notes
controll
stores
lock
standards
spect
##ae
rub
covered
considering
seemed
capit
suppl
71
##riate
buying
##board
chemical
lov
marc
dut
##har
choose
mountain
##antic
appearance
stan
affect
##win
##bury
prefer
2008
##wa
province
chel
liber
suggested
62
85
saud
junior
bail
technologies
##gb
74
clients
honor
##izz
adam
cham
hollywood
affairs
##ghan
route
lawsuit
##utional
frequ
teachers
resist
prep
paying
kenn
transform
santa
founder
sessions
fis
##know
##uge
remind
opinion
anticip
faced
involving
68
##fol
labour
##icious
##bl
conservative
forest
enh
##riage
exclus
##aked
remaining
confl
fields
kent
drag
kl
books
everybody
acknow
matth
famous
switch
counsel
##ien
##holders
ship
##iju
independence
newspaper
##mates
##iana
driven
cow
doctors
##eg
panel
lin
##arks
delivery
##arters
larger
understanding
##oola
##ocol
wheel
bigger
destroy
tag
visitors
alongside
silver
advice
excell
highway
liter
##ils
##olic
##umn
##market
telling
##ockey
presence
##ati
acting
garden
cav
##ours
wear
##icide
georg
franch
2009
##itar
neighborhood
flynn
renew
pictures
scale
classic
happening
taboola
##arant
prize
lew
pregn
journey
princip
parking
cancel
direction
roads
##ipping
task
privacy
failure
listen
picked
hurr
sitting
rescue
libr
dipl
circum
innings
##ura
secure
##ho
whom
serving
##encing
advanced
##ancing
ontario
surprise
##ijuana
streets
treas
##bing
commitment
##ears
dall
established
brex
agric
##onym
risks
delay
##craft
delivered
treated
stephen
ratings
cos
##onic
pace
occurred
rog
bird
ecl
##ella
dance
condem
tru
optim
healthcare
##woman
##ato
highlight
ira
##ortion
ride
easily
justin
variety
ak
faith
bure
brew
returns
cabin
margin
69
fer
stick
##erties
transpar
##utely
rej
agricult
##awn
hoping
grew
##icient
miller
##olution
none
inning
elected
##aced
supported
sanctions
ultim
guarant
dismiss
celebrate
73
positions
##imin
animals
moon
broken
warri
technical
uber
sustain
behavior
95
##others
##person
ray
materials
marijuana
confirm
downtown
patient
swim
combined
ho
tun
##dom
remained
closer
tells
lived
removed
##eas
tap
doubt
kelly
ticket
##quir
##istics
communications
shock
matches
nut
brian
##uj
schedule
##ower
snap
deaths
##agues
frame
coord
diagn
entered
hell
hang
delhi
yell
##bre
finals
oce
stress
brexit
unp
##unk
bought
##acks
proposal
sample
lane
expectations
vision
##onom
industries
recovery
posts
corruption
conducted
63
##ican
taxes
naz
clinton
##ko
conflict
ceremony
refuge
scotland
dogs
introduced
units
600
sid
contributed
harass
dallas
##10
##antly
approxim
virt
religious
midnight
coffee
saudi
##ua
influence
##itors
commissioner
wing
sweet
print
##loy
initially
unfortun
programme
length
wake
magaz
wire
colorado
84
approp
##awa
800
discovered
mentioned
prosecutors
##atured
sought
tast
wer
sixth
approximately
tests
##itude
##icket
kansas
bann
##apol
##sa
adults
astr
enable
dyn
experienced
iv
##sp
chain
identify
crown
determined
##ulate
bear
##ables
islamic
arena
solar
machine
ford
lind
pharm
seattle
##head
apolog
agents
jason
weekly
austin
##flix
listed
academy
alt
uses
native
yard
expansion
effects
write
tend
circumst
ox
concert
sharing
tra
fel
jay
ultimately
diplom
##standing
accur
breat
dinner
##reek
minnes
150
ml
closing
shortly
##lah
##oses
greg
termin
##ighter
premium
negative
prompt
absolutely
bbc
joy
##ijing
reserve
herself
ble
supporting
hitting
netflix
swift
familiar
bath
beijing
smaller
frustr
decide
trends
##oms
attended
farmers
theatre
nearby
purpose
signing
jac
##hab
anthony
dod
##urning
teacher
##inson
sharp
ideas
bor
values
chelsea
iraq
aggress
gross
hen
conclud
##abilities
bern
##hire
flat
deals
pra
potentially
falling
investigating
shif
minnesota
employee
78
throw
friendly
films
locations
improved
spark
supposed
##iding
surve
defeat
featured
compr
ga
rapid
tmr
regions
scal
calc
harry
younger
truly
transportation
fraud
meetings
hockey
largely
obser
approval
##elle
feat
zeal
types
publicly
##usion
turning
maxim
inflation
occup
giant
fol
barb
##illing
##oned
debate
goods
rein
##actions
declared
worse
metro
##lad
honest
tools
easier
##iat
##auk
arms
aircraft
weak
married
##ashed
possession
determine
quot
false
88
originally
veteran
max
deploy
giants
therefore
##gs
proced
##erous
mol
##dp
rare
outd
raw
tens
##ooth
moments
basic
jess
wedding
tied
clark
wine
buff
laugh
missile
rug
02
remove
bills
na
##de
compar
voted
86
##porary
seriously
##sey
exercise
py
command
relevant
##issions
moves
slightly
volume
ranked
##rett
marriage
##iy
ko
map
lad
newslet
franchise
mut
heading
summit
strategic
rural
sudden
properties
firef
##ties
##ented
##resp
drama
flu
vul
fake
cuts
##lands
kat
##icing
##place
urged
##isted
ip
soccer
soph
gon
branch
inspired
jury
circumstances
albert
##enda
artists
skip
actual
hills
05
##iation
kitch
##ertain
italian
##real
georgia
portfol
owns
senator
threats
identity
firms
songs
nic
anton
returning
enterpr
otherwise
cards
icon
##ih
##akh
crimes
putin
equity
##owed
unless
clar
dividend
##aham
##azz
anonym
upgr
mosc
profession
models
##ias
beauty
yout
brings
mile
earn
withdr
scientists
carrying
sacr
armen
dram
till
talked
southwest
apparently
chances
##rees
reporter
tony
assum
medicine
atlanta
bron
retired
tenness
marsh
palest
spain
scheme
lit
registered
custody
syrian
08
immediate
touchdown
diam
directed
evac
leads
97
gop
congressional
math
mp
zero
##oft
##ivals
tower
jur
##lig
hay
ross
japanese
walked
stands
motion
appoint
warrant
extended
prove
library
arsen
likes
##aph
creative
internal
duty
bes
joseph
jong
gang
##erce
zealand
charity
moscow
06
stun
structure
##ilton
brands
##mo
filled
##apore
fab
currency
2007
##icts
discussion
belong
ott
lots
expensive
stor
##ucing
crack
lux
handed
eld
regulations
pounds
##ogan
acquis
##ington
urban
lob
rick
##illy
##cy
maintain
##rd
rival
producer
morgan
backed
violent
asset
singapore
terrorism
charles
historic
musical
factor
##ipse
refused
relative
##ighth
passengers
replace
ambass
disney
##enders
involve
##aukee
##ius
tomorrow
##ulf
continuing
stone
passion
harm
om
abd
unable
diego
payment
##estyle
scand
protesters
shopping
expects
shape
##agon
adds
entry
perman
##achel
ending
ye
relief
pap
82
eval
headed
warriors
eclipse
element
engineering
utah
numerous
milw
lewis
manage
stab
racing
##40
magazine
drew
weigh
wilson
incor
##greg
raising
##taining
percentage
attempted
worry
denver
suspended
democrat
fees
##alf
connected
macron
adviser
79
merc
youtube
##isf
##elines
##fit
kir
wealth
apartment
uncertain
tie
investments
birthday
nbc
##areness
rook
liberal
embr
grade
##otten
territ
milwaukee
initiative
ties
interests
targets
analyt
##ck
awareness
buildings
tree
busy
waste
representative
##fall
veterans
##season
##otted
lie
practices
northwest
transition
thumb
92
multi
reduced
##lights
83
ingr
##daq
wars
employment
kitchen
##ompl
mech
studio
pushed
ba
tan
passing
##iber
2000
beer
nasdaq
va
assistance
patriots
##gen
bound
consequ
ocean
##iable
sevent
liqu
dynam
fisc
speaker
lag
informed
ends
pointed
olympic
amend
manufacturers
exciting
swed
possibility
pod
##igned
tennessee
patrick
alternative
emph
queen
phase
typically
##coin
increasingly
fitch
scor
2020
matters
handle
specifically
securities
volat
pitts
irish
discussed
87
comfortable
motiv
lawyers
eating
##aling
##iser
holds
stol
stood
indeed
cultural
##osing
bh
generally
nin
visited
commerce
participants
watched
07
81
shr
consecut
minimum
auto
instr
sentence
holdings
essential
arrang
40s
comedy
emotional
split
guests
payments
bj
bitcoin
shift
##amm
orange
util
recip
##iffs
illin
##lusion
winners
da
constitution
quiet
syn
##apolis
retirement
##ophy
ward
therap
ruled
trouble
##wan
counts
impressive
offense
instruct
category
suffering
thread
pocket
jav
##roid
function
portfolio
messages
consecutive
sick
##iqu
becomes
forg
250
salt
alert
##oney
sir
spokesperson
##uations
aver
requires
acknowled
cruc
wrest
93
weren
##ns
targeted
gift
reflect
dedicated
monit
##enez
heads
nash
resolution
ukr
lunch
ment
mechan
worldwide
boat
seats
complic
iphone
##pping
playoffs
arsenal
wisc
registr
illinois
##ading
##atically
mitch
requirements
##acters
vulner
characters
##inations
##gry
##weight
greatest
tackle
loans
cells
adult
plane
##11
imagine
##ints
representatives
institutions
movies
pump
##away
fiscal
possibly
bureau
monthly
##ality
oklah
lam
losses
##lying
decre
##ova
struggling
##onent
dozens
persp
client
reven
joining
landsc
##esa
midfield
singh
##oking
cambridge
sees
athletes
03
##aze
storage
severe
##eted
affordable
semi
forget
##60
89
alive
afghan
footage
leaves
dry
lyn
raj
plastic
gay
rebounds
begins
causing
incredible
ambassador
oklahoma
tes
##uted
memory
orders
bodies
capitol
##aron
thus
ru
##tm
##itals
votes
hero
gender
misc
jenn
##otic
##isa
diamond
tall
performing
importance
##odes
background
##reh
discr
rot
sets
##iders
##oen
governments
protests
##ries
khan
coalition
cabinet
kur
##onsin
neither
complaint
guide
nhl
elig
colleagues
##ulations
##aks
pipeline
criticism
wisconsin
lions
suggests
stolen
##icial
household
madrid
spanish
harassment
##lo
deadline
mrs
subsid
palestin
legend
wales
turkish
plants
##abled
fee
2006
selected
aimed
hole
android
edition
knee
spokeswoman
soldiers
tips
viewers
excellent
promote
featuring
coaches
prepare
##ypt
chick
rent
scar
falls
bloom
##azy
visiting
rocket
decline
outstanding
coc
performed
surrounding
pieces
afp
##pe
##erts
archit
pittsburgh
##equ
dj
##va
managing
andre
concept
surface
maria
compens
195
assists
enjoyed
updated
sorry
loy
##ibute
harris
relatively
luck
turns
cutting
accus
appointed
compete
##inent
resort
clash
convicted
sarah
communication
supremac
threatened
behavi
harv
##uma
explain
dish
##boy
annivers
adopt
clubs
aged
transparency
gap
package
flo
threatening
rugby
##uts
worried
banking
##road
nar
##anna
hey
94
##val
hart
walker
pilot
##mad
grown
nca
magn
enr
estimates
unkn
##aped
suicide
##onduct
mode
asian
distribution
crore
selection
##abe
experiences
revers
historical
##utical
##iences
##cher
emphas
##ll
pushing
craft
license
##ogue
fisher
seventh
##hr
##pa
controlled
sentenced
significantly
##research
intent
newsletter
rookie
##born
anc
waters
fc
inquir
windows
gear
dozen
politicians
temperatures
sean
traded
nyse
deadly
headqu
negotiations
drove
##news
suspected
granted
doors
moham
##word
diss
##agement
philipp
vanc
hopefully
bom
##ikes
findings
lifestyle
##empts
##ensus
ta
newly
highlights
sr
houses
ts
jen
##illa
appropriate
allen
detect
classes
apps
interst
bush
voting
metal
##eland
closely
##fast
hong
atm
dealing
innovation
##ouver
bike
fundament
nurs
intended
##apping
increases
anniversary
##celona
smoke
ups
compreh
guess
dial
##vis
##15
unfortunately
react
etc
unknown
embed
vancouver
attempts
founded
passenger
journalists
##dd
micros
gains
personnel
sugar
barcelona
##och
aside
nobody
cannab
mine
publish
oreg
reply
##tv
battery
ads
##onn
oregon
##pro
##edge
satisf
evans
occasion
lineup
nam
argued
cart
brothers
##usal
catholic
knowing
iron
##rian
cha
struggle
##stone
venez
##life
spin
belief
tamp
##esy
hospitals
##icane
sounds
hurricane
ncaa
surprising
behalf
inspect
agenda
##era
conte
faster
punch
lev
##etr
acts
rivers
nik
venezuel
llc
ka
stronger
anderson
ali
northeast
promise
##illance
stream
distance
surveillance
##ched
overnight
egypt
jonathan
##zy
aaron
encourage
withdraw
cloth
mall
emerging
cricket
surprised
municip
##stream
##ician
flying
tip
error
##ulty
speaks
israeli
follows
lucky
mas
forum
aer
##alo
##icop
##donald
thumbn
carbon
probe
##wart
fatal
worker
##ylv
widely
promotion
##shire
firefight
priority
hud
celebration
pleas
advent
restaurants
readers
barrel
09
advertising
pul
wave
gym
thoughts
##rig
engaged
pattern
lights
elev
dave
pier
repeatedly
accepted
##ux
2005
##ining
horse
detailed
##water
##pass
provinc
troops
##oked
sending
unlik
96
incidents
##aza
clock
thinks
directors
marks
announce
vital
##aire
plate
reaching
harvey
##wich
upset
crude
depend
accompl
indiana
alliance
chees
##inity
officially
kong
critics
planet
##owa
som
##eds
permanent
passes
facts
roughly
hunt
coordin
##17
ark
phoen
unlikely
hosted
##ylvania
promised
residential
penns
roof
yellow
##osph
depth
##ora
controversial
##haw
reaction
194
funeral
represents
boot
substant
participate
slam
modi
guns
osc
gary
provincial
##pton
centers
eighth
pence
improving
fred
kyle
crews
##lyn
bruce
chamber
degrees
woods
weapon
navy
phoenix
##can
##ila
gained
imposs
awarded
wounded
98
predict
recommendations
##aceutical
courts
stations
totally
exclusive
crucial
isol
laur
##ression
##ika
devast
marine
##ouri
cameras
##opher
flex
sequ
attacked
nich
dol
export
interact
##entine
les
cin
malays
column
##aly
investor
racist
blast
syd
##acle
prohib
outlook
electricity
brady
mixed
anywhere
investigate
improvement
courtesy
##exp
shouldn
##oration
challenging
pennsylvania
yank
mining
electronic
opponents
schol
hindi
patch
700
scandal
consp
foods
voc
opio
scores
columbia
athletic
##abeth
##uated
globe
##iters
capable
kentucky
##nam
##bal
##amples
ker
breach
performances
pleaded
failing
antonio
defic
##12
##aled
ank
##erto
helicop
remark
knock
volunteers
effici
territory
##dale
##oral
shirt
shooter
euro
drinking
vend
provider
cu
somebody
grass
fewer
wonderful
##idency
powers
button
discip
ku
ages
victoria
confront
ministers
chat
chip
colon
##itage
regime
##bel
complaints
protected
wwe
triple
##ifer
chronic
hub
combination
forms
##iot
drawn
claiming
cyber
hosts
showc
judges
affili
stable
roster
##pson
##kel
blues
perspective
remarks
impossible
bars
##osis
clinical
linc
depos
relationships
beating
##berts
regularly
bjp
replaced
cents
monitoring
##ounced
diet
##worth
cul
scenes
##oln
steven
temperature
outs
symb
coh
##key
citizen
bedroom
vast
covering
registration
conven
pc
nev
##ss
revolution
##mate
missouri
##whel
instance
extensive
threw
eliz
ech
rig
thumbnails
secondary
volatility
prospect
repair
pound
hamilton
chase
accel
compos
ave
struggled
##inct
##ji
sydney
##emen
hyp
entering
phill
terrorist
coup
wash
links
##ilit
##elson
##18
chocol
democracy
##yang
##star
deser
suc
##bell
illness
girlfriend
##force
regulatory
trick
tourism
invited
cannabis
##inho
deeply
yu
thompson
##rison
fame
contracts
representing
veget
##fire
maximum
matthew
accomp
redistr
firefighters
defending
networks
rav
leon
haz
gathered
##ray
unus
defender
##ete
iowa
ourselves
novel
emerged
mainly
unlike
acquisition
##bn
##ingly
##mes
ist
recommended
violation
ottawa
flav
settlement
providers
suspects
charlotte
christopher
cream
opens
olympics
nashville
sympt
##ker
##ography
agriculture
streak
keen
calm
momentum
mum
rejected
gab
tri
strip
allies
crazy
bears
musc
sant
##beat
transaction
assessment
reput
##uable
##umin
discussions
chef
lincoln
basically
causes
explore
##ommod
##ja
exit
ingred
##backs
blow
jets
rif
offices
dre
desper
atr
2004
electr
##aska
##othing
escape
abb
bru
lav
outr
stepped
welcom
accommod
hired
filing
parks
coaching
operate
##phones
entirely
targeting
medium
thor
obtained
homeless
dim
transl
heavily
ramp
loyal
##pay
landscape
info
##uous
pharmaceutical
abortion
submitted
##ela
##ounting
professionals
tank
producers
cooperation
citing
rewr
tig
##iner
anticipated
kilomet
fantastic
##anka
##ria
captured
##gage
concent
explains
##iano
dating
elizabeth
disaster
celebrity
##owski
rehab
encoun
delight
explosion
neck
roberts
purchased
teenag
paint
heritage
##mingham
principal
interior
valued
usual
##perform
surge
##leans
menu
guidance
comprehensive
##walk
##iev
teaching
##otive
flash
euros
plain
operator
architect
##rell
ease
jumped
saving
meat
theater
sweep
birmingham
##ders
phones
##okes
##amin
orleans
chapter
concentr
description
prosecutor
##itzer
colomb
mirr
desk
firing
shoulder
120
##fa
##lers
lan
revenues
excess
disord
entre
carter
shall
##ologist
consumption
yeah
reward
andy
hide
anx
trees
gate
##ales
vulnerable
easter
effectively
streaming
strategies
pictured
subur
jacob
fundra
funded
##iveness
cole
beng
desire
##anny
treasury
aband
wage
championships
##irty
peak
##osen
organis
kal
lies
##acc
overwhel
racism
buck
appearances
##uits
usd
sab
fixed
##ht
sanders
##prene
kingdom
outdoor
saved
##imination
proved
prominent
tact
keeps
headquarters
simon
wy
neighbour
attach
##igen
ai
unclear
applied
##ports
rounds
adams
toy
entreprene
##45
##isan
tea
label
cinem
##olit
blame
tam
russell
serves
aggressive
hid
magic
bump
fitness
##aka
proof
supports
prin
futures
airlines
luxury
bonds
lord
awa
arabia
£2
permission
mistake
##unes
ronald
rape
ay
soul
clothes
##met
##gary
patrol
cycle
##eep
investigations
collected
stayed
manner
loud
nest
extreme
misconduct
tested
respectively
elder
staying
oakland
cra
shareholders
automotive
##ti
dil
persons
copy
behaviour
espn
##uate
##abet
primarily
oblig
combat
savings
mouth
atlantic
letters
##tenance
developments
alexander
encouraged
shad
pleased
queens
exposed
chocolate
drawing
subsequ
fought
sum
##oves
murr
tennis
##cious
galax
puts
jar
managers
eligible
##thr
elsewhere
legacy
##intend
kings
settle
tx
tesla
marked
gunman
todd
##ashing
compensation
liquid
dw
puerto
roles
conversations
maintenance
formed
montreal
lowest
executives
##uru
twenty
consistent
dear
dates
cited
101
opinions
##oured
ratio
um
##maker
##tra
trained
##fr
versus
pride
quant
milk
troub
##ishing
preparing
indicated
immigrants
##nic
creek
rely
spoken
vin
contacted
venue
strongly
crypt
tariffs
disappear
gib
indones
recre
recon
md
dust
reference
wells
grounds
pedest
##aug
redistributed
academic
lap
enterprise
regulation
ot
extension
medal
sustainable
##isters
smartphone
brid
30s
chicken
graduate
fi
amar
horn
##point
manh
recognition
##etime
dies
covers
mumb
fishing
witnesses
regardless
gif
neut
parade
acquired
spotted
succeed
autonom
riding
opposed
concluded
stuck
deficit
monitor
restrictions
shelter
rab
##iti
afghanistan
petition
tai
##mann
strange
##ups
rooms
visits
roseanne
stem
hook
fla
limits
amendment
##eston
referred
##kyo
nat
recognize
dismissed
brill
crow
clothing
advisory
statue
mack
outcome
##ourne
temporary
##icul
expanded
vig
##ovic
estimate
cher
##timore
ufc
tokyo
spots
replacement
empt
bry
##osphere
dat
banned
employers
##che
arrival
solo
subscription
##oppers
whit
jere
##tle
theme
valid
generated
theft
elements
symptoms
palace
jewish
poly
municipal
sed
expenses
##car
plot
organisation
rice
whats
##una
noon
unve
underst
sight
##anged
##ture
conce
##riers
resulted
collaboration
nevada
polls
invent
vik
grey
stanley
hosting
ib
##uild
pink
##iture
##iration
##iors
baker
2nd
grace
intercept
disrupt
blind
scientific
mississ
species
circuit
fears
throwing
fog
kate
donations
maker
chest
surviv
##enz
fled
##umes
intention
mit
rah
tigers
holl
extend
rear
cheese
consequences
cardinals
blocked
rangers
enth
chose
nomine
gor
han
emails
enhance
elite
harder
##endum
relax
assume
absence
##iere
expanding
##laim
elimin
consensus
congr
##die
eve
##abad
audio
engagement
padd
races
rolling
finger
angry
damaged
inquiry
rivals
forever
##rick
shah
lift
pregnant
benn
forth
baltimore
##sl
tiny
##eing
##po
henry
kath
##hal
taste
legislative
legislature
ky
represented
properly
articles
hunting
fo
##jects
gulf
hip
htm
mour
deput
resource
therapy
synd
scottish
teammates
portion
evol
residence
belg
recovered
gust
microsoft
height
##ifications
strict
fireworks
volunteer
breast
##aa
choices
robber
reducing
sectors
favourite
headlines
ambul
pdt
##asy
latin
vib
creation
districts
journalist
ideal
contem
##ira
reputation
##een
depending
merg
##istol
celebrating
suddenly
craig
valuable
realize
##etary
ax
fallen
alph
receiver
overseas
##anth
recognized
circle
referendum
conver
retr
precip
recalled
bree
graham
engage
gord
##ogen
climb
aven
minority
laid
murray
intens
exposure
investing
bags
1st
##enko
answers
sweden
destroyed
tail
convention
refugees
dick
scalise
trem
sheet
escal
traged
##pg
interp
insider
buyers
nur
saint
##bb
2003
argument
##vi
periods
sams
personally
##sters
gray
##anton
mumbai
rams
broker
##bul
opener
dispute
innovative
dump
demands
addressed
interviews
pages
organized
platforms
illustr
buzz
recommendation
nasa
repr
supplies
tensions
trailer
rewritten
barack
jimmy
formal
cock
producing
factory
rico
achieved
toll
trophy
sin
deputies
chosen
clouds
portland
ninth
ug
necessarily
##uster
flights
discovery
banner
smile
##ennial
pel
prospects
mitchell
requests
jazz
nigerian
fruit
duke
brows
smooth
reduction
##itable
mn
clim
vess
##abwe
valentine
prevention
##agr
finds
##rum
noticed
zimb
##jo
##ione
deleg
shoes
errors
root
exhibition
fu
##rete
casual
conspir
##oga
context
pent
2002
neur
foster
resigned
resistance
toler
brandon
referring
html
celebrated
projected
powered
zimbabwe
##ardo
enthus
aims
unw
gam
howard
venture
liberty
keith
testim
associate
unusual
pension
##aga
mini
islands
cord
jet
towns
statistics
##vp
shan
cheap
##eries
resignation
##utch
actors
titles
##ippi
dean
activists
##itarian
pover
yankees
cruz
constitutional
contribute
mood
construct
fulf
pyong
cafe
##aya
##ipe
adopted
##bound
sox
##ateful
presentation
stunning
armenia
attending
tum
questioned
##hill
bart
jes
fairly
pyongyang
tyler
poverty
wright
innoc
wis
cave
telec
elementary
tweets
meal
##kinson
unn
accompan
arrive
string
wolf
tries
springs
diversity
nights
literally
##phy
madison
segments
unem
inches
##eb
stephens
lod
machines
virtual
presidency
##eld
indians
hug
pending
##aver
nathan
searching
liv
walks
acknowledged
wildlife
tracks
maryland
dramatic
unemploy
##ographer
##acted
sustained
##front
anybody
midfielder
jennifer
dak
##bourne
carp
ingredients
galaxy
constant
insisted
hawai
locked
terry
samsung
hugh
recruit
##play
kit
swing
appointment
##19
louisiana
senators
##ecks
gil
##raid
barbara
mississippi
auction
##cia
shifting
atmosphere
useful
accord
##asters
situations
##iang
enem
glad
venezuela
successfully
nelson
##agu
symbol
exceed
##onda
legit
efficient
refere
ian
noting
lon
incredibly
odds
stages
2001
thrown
runner
folks
blocks
si
indigen
hend
breakfast
discount
mcm
##gy
frequently
larry
celt
mortgage
marath
urg
advised
punish
topic
taxpay
rodrig
spaces
##80
cryst
dal
cot
hillary
cous
resulting
ranking
narrow
##agan
funny
contained
##rence
boyfriend
##ternal
indication
picks
luke
salary
promises
##imer
worksh
educational
##olas
reds
cp
##imp
signal
profits
cinc
orland
belt
##arge
recording
rosen
spo
##gate
attorneys
doug
adapt
kennedy
gotten
afraid
##licit
explo
overd
welcomed
improvements
##cs
hadn
##eph
30pm
gent
palestinian
whatsapp
##aid
##arch
scholars
hire
furn
inaug
10th
nationwide
##mouth
unexp
gathering
comprom
hod
comey
robinson
##irates
consol
extent
kiss
tu
##22
marvel
thin
##acked
prompted
leaf
##ixon
linkedin
federation
capture
overtime
starter
loves
disag
bish
ult
verd
gill
iconic
tob
striker
divor
bou
involvement
brilliant
output
bund
writers
jeremy
wag
airline
rated
memories
ownership
posting
satell
##ycling
latter
developers
competing
##olds
clay
expecting
chart
mud
brun
griff
catal
buffalo
reun
implementation
cum
##ibilities
helicopter
ultimate
orch
proven
##approp
serge
provision
congrat
aj
dougl
distur
##to
##eo
racial
unif
writes
##respond
tribute
##yer
colombia
##arian
opposite
##osa
hann
jamie
constitu
echo
talented
jake
torn
ghana
abr
secured
correspond
dow
appreciate
automatic
suspension
observ
##ni
pure
butter
prelim
humans
fasc
##ses
membership
amy
flowers
striking
hamp
ster
defeated
unexpected
transg
villa
gamb
argent
campbell
##ls
migrants
##arth
resolve
ukraine
routine
ranging
moderate
awes
counties
skill
shocked
##ello
##izon
boxing
undert
cowboy
##how
##umar
viet
lakers
pitcher
pursue
impl
traffick
sty
longtime
taiwan
indigenous
appe
edwards
organic
requested
reviews
fastest
substance
nationals
packed
##igation
ale
wol
lying
legs
terrible
loading
##idays
differences
tampa
dancing
okay
exports
##war
##24
boun
grateful
193
jessica
processing
##berry
purposes
ja
pear
##ardash
arkansas
murphy
handling
essentially
besides
##etts
exempt
##oning
marg
nass
lor
endors
##burn
cd
disabled
capabilities
entit
kicked
##weather
fleet
##jan
screening
km
equival
ic
2022
mans
delivering
broader
##xic
focusing
neutral
kam
customs
reasonable
stability
disappointed
##castle
normally
orlando
##bie
transm
intense
transgender
sporting
genu
warren
buc
tragedy
comed
initiatives
fundamental
##attan
cad
shaw
tracking
900
bust
jean
##ateral
bun
encouraging
visual
picking
plea
confed
columbus
responding
disclosure
substit
suspicious
criticized
diverse
lgb
guidelines
spy
bathroom
ted
##what
wise
neo
cleared
pav
##innati
gig
password
progressive
npr
sensitive
brut
awesome
##icut
ski
wayne
steady
vacc
incorpor
lem
input
tas
judg
efficiency
xi
rar
retailers
cincinnati
overt
conclusion
petro
hoped
##apse
sanch
finishing
rall
participation
promoting
taught
##iques
uncertainty
processes
methods
welf
slowly
michelle
maintained
javas
reserv
publication
redd
empty
gut
concrete
hearts
bullet
javascript
##inder
connecticut
encounter
conspiracy
caval
traveling
lisa
addressing
cohen
##mont
controversy
typical
cable
##usalem
blamed
##ito
somewhat
interv
jerusalem
quoted
argue
categories
childhood
sisters
mexican
decor
groc
supremacists
switzer
admission
eb
mirror
wick
##emed
sponsored
seized
accusations
opioid
##25
sole
releases
##achus
hiring
sexually
welfare
stall
overl
abroad
##arms
##oyd
transit
ballot
insight
cdt
##ads
contrast
colleg
realized
poison
kay
reign
breaks
quarterly
container
nonpro
makers
installed
facilit
chiefs
generate
##inking
collins
controls
universal
##encer
##terest
kinds
advocate
##leton
pill
orient
##ographic
bachel
egg
hidden
survived
delayed
##izza
conservation
cm
privile
cubs
approached
objective
wet
phen
caps
##eding
##ladesh
somewhere
bangladesh
##achusetts
introduction
freshman
massachusetts
amounts
nominated
gordon
pricing
fighters
pas
##andez
coordinator
kash
alexand
yields
lawrence
palm
##net
##acing
enl
testimony
hors
robot
clinic
utility
constantly
douglas
lgbt
traders
lifted
councill
landed
nomination
burning
dna
##erse
##ares
marshall
marathon
ridge
protecting
drum
nutr
sanchez
##ointing
detained
trigg
##zing
hunter
denn
dc
martine
colour
diseases
ambulance
##ogs
wore
inapprop
scenario
goalk
dining
topics
activist
personality
rapidly
##igar
licens
condemn
bm
##here
everywhere
loving
alter
110
pled
##kshire
underway
submit
##acon
guarantee
##lining
participating
##uls
alan
indonesia
##13
paddock
##itis
superior
dominated
##ded
alumin
##child
enjoying
preliminary
##iah
##vens
illegally
dece
caution
describe
ni
appeals
packaging
goalkeep
remote
brooklyn
duo
files
reads
tribune
##atar
knights
ensuring
nazi
tear
addiction
speculation
proposals
fantasy
##ece
noise
apparent
##di
mi
procedures
universities
hike
enroll
kardash
watson
precipitation
shir
diplomatic
suite
specialist
aspects
flames
begun
##bow
newcastle
anymore
sacrament
shout
qualified
##erb
sons
##ulating
incent
compliance
##lr
coron
manhattan
##lan
demanding
accurate
bub
gonz
jesus
autonomous
myst
##aware
mistakes
rio
tier
settled
##gun
consideration
removal
singing
duties
##sex
##endous
bachelor
theory
exclud
scroll
chand
contains
mason
prol
tent
##aco
dodgers
bold
salv
hydr
guitar
discrimination
##16
gren
pregnancy
berlin
##eria
seeks
spell
##ista
kap
deport
departure
tone
##aws
dressed
promising
alloc
spiritual
understood
##izer
mck
shell
cs
herald
neil
suffer
##oping
defined
diagnosed
wides
praised
drinks
viewed
##cott
warner
followers
observed
##itial
jane
suggesting
backs
meets
interstitial
oscar
electoral
sg
##arrass
##nie
cardi
strikes
emissions
##ikon
2023
berg
teleph
flooding
##pread
##onia
embarrass
##omen
documentary
tears
dor
developer
peters
shops
perry
anger
foul
eggs
designer
township
indicate
fires
witnessed
beef
slid
quit
martinez
attacking
honour
dual
##hy
##ujala
amarujala
advocates
##elli
imposed
predicted
institutional
tumb
jerry
rushed
dreams
##aughters
trillion
##iro
institution
benchmark
craw
opponent
argentina
fern
penalties
##35
anthem
anch
##ype
trucks
evil
bats
rou
habit
motorc
bin
charging
depression
reforms
cb
protocol
contributions
screens
sponsors
bever
pause
##opez
feelings
disclosed
commod
##lessly
rolled
mcdonald
additionally
ranch
balls
nad
collective
20th
morris
calgary
##umph
midd
isolated
random
gmail
radical
attendance
quarters
nan
contribution
outlets
pione
unfair
hood
odd
protein
swimming
lip
widespread
bb
bunch
presents
titled
crashed
eikon
missiles
roger
ranks
complicated
turner
grav
##acco
stewart
administrative
babies
deserve
feedback
destination
renov
##gi
walls
suv
artific
##udeau
##itr
entrance
##ifies
##oli
lean
sacramento
asks
listening
signature
lopez
erd
adjusted
longest
sib
##gregor
##media
ast
##hand
dialogue
lobby
rbi
survive
##xx
##wal
pron
dropping
campaigns
singles
strengthen
castle
wages
##essing
##lington
maine
thick
barn
beaten
sparked
procedure
relie
##enger
pulling
adoption
aqu
insights
neighbors
bil
ft
pix
aviation
militants
shadow
mourinho
assign
danny
instant
4th
occur
barely
vlad
nu
alberta
bloomberg
curt
casino
shore
iranian
throws
cf
knife
trudeau
wider
detention
nationalist
malaysia
vendors
fool
harrison
##ication
bennett
melbourne
rash
##brid
##endra
robbery
por
employed
qualifying
pinterest
overview
##teen
briefing
attempting
crystal
##hu
susan
##ahu
hawaii
travis
harvest
imper
lion
premiere
roman
##iott
ry
##unction
lifetime
scrut
collapse
penins
##iece
violations
##hari
experiment
consistently
bengal
brooks
##oa
consent
reviewed
##wall
##itious
stressed
external
religion
theresa
fighter
pizza
addresses
instrument
classroom
bass
parker
operational
extraord
anonymous
voices
whenever
##enham
switzerland
seal
poland
solve
divided
cape
contributing
vacation
implemented
integrated
comeback
distribut
anyway
##ucker
affair
landing
##oric
imports
preferred
##asp
iii
isis
logo
handful
daughters
commander
##acies
##omo
fortun
spic
##iary
tradem
journalism
##brook
collaps
viral
nc
broadway
itv
##ellor
investigated
hotels
hob
##argo
deeper
alf
twin
reck
intellect
inters
forecasts
embass
universe
unity
papers
##itens
krist
meg
robust
thail
##ctional
feder
photographer
booked
donation
greitens
cooking
competitors
##borough
upload
formula
##uro
charlie
prosecution
equivalent
nhs
##lings
raiders
availability
conservatives
peninsula
bryan
offseason
aub
proceeds
##ipper
vet
headline
techniques
trig
trips
thailand
empire
cavaliers
comparison
ware
item
attractive
cowboys
whereas
departments
mcgregor
thomson
dubai
vary
unr
##aro
loaded
components
dispatch
touchdowns
unemployment
certific
cruise
##rol
alban
##uez
##imir
distinct
isa
checks
##club
outperform
physically
podcast
wireless
overwhelming
##atherine
dict
motors
trag
##aping
sits
shield
grid
calend
rib
electronics
perp
##manuel
interim
unpre
smoking
wrestling
thorough
hr
##mir
##king
anxiety
sciences
##attered
gram
elderly
timing
##ivan
silence
delays
ethnic
emotion
relatives
breath
consolid
dispos
lineback
inher
rifle
inspiration
gonna
dy
##yard
##mal
arrests
substantial
cass
preced
proceedings
derby
##iller
tourists
channels
##top
kidn
##oped
##uting
summary
merch
shed
dynamic
##cos
knocked
confirmation
agricultural
kirk
##bron
agreements
assigned
adequ
uncon
creates
##mart
financing
bradley
disorder
dakota
##wick
defendant
barg
terminal
intervention
1999
##ws
##omfort
cameron
workplace
carlos
micro
rebuild
gaming
##bean
modest
spencer
inacc
##obe
3rd
nonprofit
revel
somehow
upgrade
bread
involves
narrative
desert
riders
sophom
backing
hello
##ensively
rachel
##gle
##ros
launching
reddit
hans
authors
preparation
crossing
wanting
teenager
zoo
richmond
kenya
guardian
portug
erdogan
decent
philippines
metrop
bottle
arguments
dolph
viewing
##olo
invas
consulting
rex
boards
obtain
stamp
boom
##no
carries
everyday
verdict
expense
##istry
referee
garcia
lottery
loose
survivors
##ensions
emmanuel
transactions
liked
runners
tables
delta
##do
##uther
careful
grabbed
cooler
sne
supervis
replied
regulators
judicial
maintaining
##lie
goalkeeper
steele
courses
##print
episodes
corps
bollywood
borrow
persist
bent
shame
equally
bald
mick
##bec
operators
expertise
##western
resume
3d
perfectly
explan
##icate
ng
overcome
automatically
##23
sri
integrity
datab
cheating
felony
wre
reass
franklin
cigar
mt
indianapolis
permit
operates
friendship
generations
zach
trials
enorm
##part
11th
closure
##phis
conviction
gardens
seemingly
implic
cats
rome
scholarship
kardashian
wings
trains
humid
carefully
remarkable
collision
##pd
completion
ucl
drives
reed
hardware
sponsor
borders
marcus
nerv
130
incorrect
##keep
scope
costa
artificial
mug
acres
blaze
killer
telephone
##elo
railway
analytica
##agh
fate
##nell
chaos
disappointing
highlighted
##anted
memphis
volunt
establishment
carrier
accomplish
bankrupt
weird
tired
##14
dealers
safely
backl
travelling
placement
bot
forcing
marl
letting
diesel
pollution
glasses
q1
##lev
mountains
##oat
rarely
##ami
##athy
mars
toil
coastal
earning
hatred
rogers
yor
fault
dh
gest
holy
lessons
copper
merced
chanc
clip
reliable
tort
##pal
plc
seniors
postseason
prayers
accessible
editorial
##lis
cleaning
attitude
elliott
pomp
mull
toys
gusts
sha
symp
globally
dere
demanded
joke
##oday
adventure
jefferson
innocent
nutrition
holidays
reserves
visa
deployed
vladimir
muslims
toxic
chuck
##wear
##bank
cosby
repeat
##adi
issu
cycl
ankle
##bar
announcing
##zer
lucas
liberals
##tech
911
panthers
lung
rc
trapped
190
##shot
peaceful
parish
desperate
divorce
moral
tobacco
##yth
acquire
exception
##fs
carib
reveals
##iley
condemned
##ige
eagle
##zo
unpreced
benj
unprecedented
hanging
epa
repeal
chemicals
saves
celebrates
##90
stops
360
subscribers
thousand
nato
impressed
birds
hodg
introduce
##pan
##ampton
princess
##mi
interf
challenged
barry
inmates
civilians
phenomen
##eli
superintend
dublin
organisations
donated
exhibit
mutual
embassy
conscious
rip
bc
accum
diabet
treatments
mayweather
manip
convin
reflects
occasions
swiss
evan
contacts
##ussels
infect
tremendous
##shore
timber
##ahaw
180
pup
param
visible
bak
##grav
parliamentary
##rians
explosive
##70
sudan
nag
browser
burgl
beth
bapt
##oria
bristol
intim
sophomore
##oh
bacter
juan
##gie
bio
fold
emma
survival
##new
qualify
meals
rb
##orous
virus
matthews
diver
prescription
holes
surrounded
charter
##acular
##aba
burden
yuan
oliver
kurd
calendar
##row
guaranteed
grap
gaz
attached
whis
##olitan
insist
unt
cn
brent
connor
yah
structures
##aca
##ippers
analytics
##isd
##vere
##gow
##break
brow
defended
suspic
lynch
bone
fy
sod
poet
inspector
hs
12th
describes
requirement
camps
cater
rd
##agen
##haust
##ima
lakh
rental
stir
naturally
inaccur
centres
##orious
invested
sterling
donate
##anbul
anytime
##rets
##estone
gran
##ran
rodriguez
istanbul
rhet
experiencing
cryptoc
tang
##ception
drunk
ss
outrage
belgium
blake
infection
exhaust
steam
engaging
wimb
beck
semif
examples
harb
21st
##mun
firearms
deliber
105
framework
nazis
patt
soil
medication
wound
##holder
ahmed
bishop
##riel
chad
settings
##stock
discussing
credits
storms
##alia
temple
vietnam
monetary
guards
touched
gb
format
annually
##shine
arc
scan
manufacturer
convinced
##van
stance
spray
toss
bic
hacking
heather
1998
buhari
assured
magistr
functional
mps
£3
##tering
drake
angels
diabetes
gmt
bernard
quebec
similarly
crossed
retailer
anonymity
shocking
dennis
fare
mlb
twins
connections
inappropriate
reiter
prad
fried
1980s
dug
cros
struggles
reception
offence
au
alle
interviewed
ashley
trop
##ylie
##icester
billy
dominant
lamb
thai
grants
speakers
tillerson
moreover
##rupted
delighted
instructions
triggered
garage
stakeholders
sued
crop
##ledon
ally
seoul
emer
cem
respective
showcase
##acking
teens
nassar
##df
digit
philip
workforce
humanitarian
graph
hybrid
engineers
ronaldo
vit
medica
lighting
emotions
engineer
superintendent
lagos
mandate
contemporary
##enna
inspection
movements
wimbledon
cryptocurr
halft
popularity
vigil
trafficking
stap
lakes
acceler
extraordinary
murd
stepping
focuses
stopping
criminals
painting
brussels
mate
authent
laura
definition
##obi
medicaid
##emble
heights
##ikh
##angers
pere
rapper
lebron
##ept
cotton
leicester
silent
containing
entrepreneurs
dement
obstr
badly
##mund
locally
sentencing
aspect
##col
ucla
##iate
experim
##etta
routes
##kar
minne
muham
##plus
benjamin
sunshine
classified
abused
faculty
minds
interactive
##oto
halftime
operated
actively
mcl
waves
inev
##pc
oldest
steal
oliv
##ierra
priced
##uded
reverse
20s
unch
brush
reject
fda
gabriel
chan
courage
pose
##jected
answered
rsi
bout
cz
billions
dash
tale
##km
tott
stole
studying
kw
execution
colors
ric
##bits
authorized
outfit
convent
purchasing
luis
mystery
mainstream
appearing
assaulted
swan
spectrum
cancelled
hiv
ordin
cake
butler
default
subway
##jar
##icon
hern
urging
arrives
txz
declar
##owned
underground
petrole
url
hes
##yon
minneapolis
##azier
kumar
##mid
trim
##ulu
##vo
reyn
##chi
orchest
horror
spotlight
##bu
##ei
nervous
luk
1990s
rushing
##umber
##ache
organised
expression
qatar
starring
anna
rises
##mons
spill
rud
ancient
fib
slide
pupp
##omed
shake
queensland
johnny
romantic
designs
kashmir
fing
shipping
pitched
rumors
aston
pipe
lets
nate
lig
embrace
terrorists
##aser
devastating
unders
emily
assert
dawn
ig
eager
jurisd
debr
reop
parad
advisor
script
##inge
vert
teeth
philos
edmon
hedge
alarm
fabric
saints
bonus
##apers
transformation
checked
125
buses
##issa
passage
refugee
scratch
ore
batting
##minster
##uten
alerts
rockets
ghost
transferred
audit
spectacular
frequent
arrangements
##kh
safer
revised
##osc
athlete
bryant
##000
governance
carson
pope
burst
brig
dutch
marin
roots
announces
##oded
pentagon
##gom
heroes
praise
hardly
vel
bombs
chancellor
tiss
accounting
soldier
plug
motivated
linebacker
edmonton
cox
shower
petroleum
epic
achievement
dolphins
displayed
##dog
salah
leeds
##iciary
intellectual
melania
rup
choosing
practical
gates
##rin
helpful
concuss
browns
dementia
##nut
##ghai
stim
nico
porn
portray
trio
importantly
##laimed
accompanied
amp
tune
promoted
unveiled
##vd
electrical
unac
frag
backup
ling
monument
perce
mb
continu
14th
dying
fargo
##children
bash
gw
hull
##gal
mills
assad
pointing
abandoned
subscriber
makeup
ports
websites
puck
edward
##ologists
strongest
bulls
##raft
yen
##mel
finale
edin
##guard
bias
meaningful
yemen
logan
merger
entitled
gdp
acted
uniform
##mother
##ptions
distributed
##comes
##pat
seahaw
cockt
##erie
signals
##oken
unh
checking
engines
350
montgom
keys
vocal
##igate
studios
absolute
enormous
##lock
whist
violated
voter
ek
harsh
dealt
##goal
rhetoric
##21
sony
##aki
1997
sleeping
bik
##erning
honored
reachgoal
ct
teenage
tottenham
nod
surely
fundraising
requiring
##eta
peers
seeded
mvp
##uctions
refres
impair
##iva
montgomery
removing
brazilian
##wire
leverage
equality
muhammad
tiger
bris
handled
shanghai
confederate
pf
jailed
##aint
releasing
burns
tragic
purchases
##edia
ladies
dup
fifa
wyn
ordinary
13th
dyl
mandatory
furniture
##lay
stevens
associates
consultant
gand
nurse
filmm
massac
##urance
hopeful
daw
bt
##ugu
crashes
component
##ylum
sull
arguing
audiences
commentary
##ozen
trauma
##inely
kane
stroke
examination
##orth
suns
mccabe
aides
hass
18th
treaty
caribbean
sinc
acid
doubled
seahawks
asylum
economics
##afts
hyd
doss
##aman
dent
ze
russians
optimistic
thorn
fier
bases
##haul
tomm
scrutiny
##thetic
##anim
trademark
trades
cagr
ki
##apeut
legally
detectives
outcomes
##ettes
sacrif
lauren
horses
sheff
preview
prosper
broncos
frozen
arriving
##reen
katie
oz
##idem
margar
suppliers
inner
leban
##erald
certified
hin
sentiment
hughes
gentle
shep
margins
studied
##vereign
ov
##ean
##rad
sovereign
##ping
##anded
politically
conducting
satellite
##ando
raises
frustrated
gifts
anne
dated
demonstrated
##usive
deck
simpl
bra
ultra
##markets
eliminate
peng
steelers
pradesh
postmedia
briefly
polar
nose
deemed
deny
renewable
roma
louisville
bombing
detective
criteria
fights
103
barriers
rebels
installation
heroin
restore
portra
packers
metropolitan
yorkshire
bee
##itters
nursing
aggrav
tape
##million
accuracy
fert
£5
mercedes
##ims
pig
sierra
designated
dn
mog
doubles
beloved
exploration
enthusi
joel
lanc
kan
usc
everton
##uces
segmented
ios
frustration
muscle
comply
walmart
existence
bigot
bands
##omin
gene
celebrities
legendary
pok
lands
nominee
database
##iaz
##annon
overlook
grocery
derek
receives
filming
greek
winn
canadians
scared
toyota
telegr
lect
reh
aluminum
nixon
##astics
homer
spicer
vr
##kk
chev
dynamics
hd
participated
nap
packages
nunes
complained
td
lex
19th
downs
presidents
##marketresearch
tempor
preserve
wi
pine
alaska
displays
refr
oun
refund
##esty
cler
clicking
boxes
offences
curry
teammate
carn
bug
stu
taxpayers
porter
##oni
grave
trev
wishes
joshua
bos
impose
superv
trainer
masters
explanation
##uja
##illo
taxi
biz
citizenship
stakes
usage
farms
jared
startup
sized
inland
inclus
shootings
greece
##atoes
##itement
deer
##omy
##aux
sheffield
comic
metres
merely
##oop
twist
tourist
intel
applicable
mend
##jab
retain
posed
restrict
##lee
coat
krem
lists
raf
burned
gibson
aide
athletics
lump
pond
attracted
overhaul
160
jacket
jin
wrapped
postp
ukrain
therapeut
cc
lanes
phillips
bog
phr
##uration
prest
##chenko
##28
photography
mul
##hd
steep
congressman
cliff
cruel
enemy
computers
oxy
rend
ammun
genetic
lau
convert
flush
nightclub
employer
1995
honey
lawn
##aving
thrilled
bayern
assisted
couples
2021
chips
renewed
##father
sew
soup
##77
troy
marie
testified
averaged
trigger
honda
##iatric
migration
economist
##oors
##jay
colleges
wels
declaration
ruth
enterprises
obst
carroll
##rics
stead
photographs
devot
##ea
fm
interference
##ouch
climbed
libya
replacing
homet
scul
advocacy
architecture
##wind
haul
decrease
dm
##mans
##54
selecting
judgment
bobby
##fell
ridicul
##ahan
sufficient
sgt
hernandez
coinc
henderson
workout
revol
solely
##airy
jama
genuine
shy
blan
ammunition
equipped
immigrant
bankruptcy
prost
unav
escaped
kurdish
posit
##esc
hence
integration
leak
listing
elabor
combine
thirty
yahoo
sullivan
femin
meter
##ahe
clearing
chargers
separated
##urt
prescrib
programming
tonnes
nigerians
mcd
##hner
subsequent
recovering
tons
resur
evolution
cheer
disch
cousins
##ilst
harbor
karen
collecting
motorcycle
edt
questioning
shortage
ethics
hannah
millennial
concerning
sanct
disappoint
apologized
collapsed
##gor
##eded
romance
beliefs
##cons
##bish
##isive
rescued
notable
15th
catching
technological
assass
impacts
grandmother
pedestrian
suspicion
stealing
closest
hometown
scout
samples
##aha
virtually
cemet
sandwich
cemetery
##asi
meters
##99
##ahl
completing
##isons
weakness
hodgkinson
reloc
offerings
traveled
forb
plun
deserves
##central
1996
fitz
cheaper
eps
gaining
damages
indicator
kab
superstar
homeland
versions
radar
glen
principles
baptist
##iri
notified
laboratory
##string
ignored
1000
trusted
skilled
vic
jewel
styles
liam
vern
sections
interpret
ferg
ibr
comedian
bailey
##rep
##eshow
apology
provisions
retali
responses
locals
approve
celtics
explicit
wondering
treating
nv
offshore
rankings
hander
brick
productivity
hazard
locker
representation
welsh
probation
nestle
##active
kend
lapt
affecting
underlying
cops
bottles
reynolds
demonstrate
##ilitation
epidem
homeown
nether
ws
sheer
##astr
chaff
gover
##ycles
##aton
orth
##tz
grandchildren
batter
##fund
ukrainian
tours
dossier
gi
julie
##orted
oversight
enhanced
reprod
passionate
delegation
##osy
bitter
buried
seeds
capitals
legitimate
##lake
vowed
smell
pledged
##inery
aging
spurs
unaccept
##74
whilst
unanim
battling
compass
prevail
sung
relating
lg
oxford
uc
claire
bronze
mete
publishing
nominations
flags
lesson
troop
researcher
exploring
lac
fence
formally
parked
impression
sauce
vand
indict
farming
1970s
##oko
impacted
appealing
140
patterns
depends
##li
monster
##eastern
expend
delivers
explaining
honestly
wp
fract
powell
andrea
holland
##oj
##ede
mild
evacuation
vikings
celebrations
##ken
flour
##arthy
transported
##imm
matching
punjab
cattle
enabled
desc
drafted
stup
careers
priorities
differently
supportive
##ori
##asty
scam
hyper
temporarily
gaza
mario
swept
governing
##ques
pastor
mak
##33
uncomfort
lah
##chain
170
login
dairy
equities
pepper
musk
musicians
musician
ferr
gad
nair
commented
punishment
heels
quote
pole
breathing
##ourt
kicks
vincent
##arez
##quez
pitching
resolved
tyr
cinema
##fers
naj
approaches
bulld
formation
##alez
crowds
sque
tatt
tenure
nj
predecess
azcentral
grove
102
immun
##criptions
kas
offset
hackers
##liest
unions
valuation
sask
excitement
bip
##tors
topped
frazier
##65
matchup
weaken
dental
crush
propag
economies
pets
glenn
admits
absor
mm
merkel
bengaluru
civilian
mccarthy
workshop
##ested
##ateur
tommy
upside
victories
mohammed
molec
breeze
##ecca
reflected
lasting
obam
affects
flip
panic
brave
lovely
functions
determination
bruins
slot
brutal
chester
knight
##math
##apes
logistics
leonard
marketplace
gp
formerly
tropical
lending
##fest
objects
denies
breakdown
chambers
stephan
nerve
crying
disgr
##75
worries
sov
farmer
alpha
pengu
drilling
##aved
carey
supremacist
gol
netany
edinburgh
accepting
evacuated
flew
slideshow
holders
##ucci
tunnel
subsequently
styl
ignore
vegetables
preventing
##power
##omach
cla
16th
ballistic
##ante
brib
hatch
loun
seam
##inding
calculated
traditionally
tackles
reminder
hbo
##32
remembered
kidney
wholes
##licts
netanyahu
##list
colin
massacre
corporations
8th
harvard
leather
##nold
misle
patchy
##eling
##echn
milan
urge
tension
##iously
dylan
dot
deposit
kremlin
hem
aftermath
respondents
unacceptable
##lets
greens
poses
rebound
dive
trace
cer
##iminated
converted
homicide
admit
##ecur
##acare
fid
smartphones
scientist
repairs
empower
qb
tub
painful
conventional
smugg
defendants
pays
pga
whip
newsroom
devils
fortune
stating
robin
humanity
1994
nicole
tue
abuja
executed
dign
venues
affir
cree
nab
communicate
substitute
gonzalez
slim
sculpt
urgent
##omi
warming
reviewing
guided
uncle
rey
reader
##oline
sandy
blu
discipline
tire
relation
##ags
acknowledge
amongst
armenian
kus
angela
##pur
lightning
laps
ambitious
pete
describing
gymn
pti
tempt
strain
slipped
infant
##step
bowling
mask
resil
richards
intersection
lone
##athers
understands
borough
intimid
lined
manning
newton
anchor
greet
nationally
##inating
filling
gradually
##try
17th
danc
sorts
priest
##lett
##uda
releg
supporter
perez
cod
ducks
thur
##breaking
certificate
hi
drone
consultation
lanka
104
clem
davies
federer
cosm
relay
foss
westminster
accountable
bah
gem
ace
##opes
boosted
projections
wes
conflicts
transparent
gott
##acker
interven
awk
lengthy
mobility
nd
confusion
productive
##ressed
##ardy
wheels
rodgers
##afe
spoil
apc
underc
desktop
rocky
uncomfortable
##zed
trent
bigotry
nancy
boeing
vessel
improper
murdered
oversee
rehabilitation
tactics
netherlands
##kir
##grounds
corrid
folk
straw
technique
##rome
bridges
##eason
sadly
destruction
brighton
leafs
##post
##awi
solic
dirt
##ipts
##85
##anmar
1993
unfortunate
preseason
nowhere
revealing
blockchain
intrig
palestinians
ner
replic
meghan
tumblr
##wealth
prayer
##ema
myster
tasks
##lu
powder
##ucc
##ahim
jews
tul
alexandria
gandhi
genes
defe
bullying
afc
beta
happiness
hunts
myanmar
warnings
barrier
lens
partially
palmer
reid
restricted
##elihood
helm
confidential
lease
og
wagner
sue
pierre
marry
canceled
purple
rains
reluct
nationalists
negotiating
pv
identifying
organizers
##iop
chol
exclusively
array
jarrett
pleasant
babchenko
contractor
graphic
burger
pronounced
edu
soviet
##ii
excellence
bother
shaped
undef
maple
eddie
historically
broadcasting
##writer
warehouse
hik
##irl
awkward
ships
cuomo
seb
scrap
yoga
winnip
commonwealth
fiction
enquir
disability
standings
accountability
newest
jagu
##ouses
risen
sophistic
outlet
christians
##ieties
cocaine
griffin
respected
jeffrey
winnipeg
dirty
garb
stupid
opted
oxygen
exists
##otherap
##cats
arth
warr
advisers
privilege
bucks
wade
evident
demonstration
czech
blaz
boast
stuart
##plant
49ers
bare
##ridge
shoppers
livest
notably
domain
battles
bacteria
schem
stranger
liz
drops
hurrican
##vs
##aho
considerable
prisoners
laser
sensor
composite
##osystem
antib
segmentation
##ulous
investigator
creator
killings
5000
pompeo
##ailable
mattis
exchang
brokerage
canyon
##heimer
##low
disabilities
belle
iraqi
demol
aggravated
transparencymarketresearch
riverside
drill
damaging
wang
cyn
108
persu
exceptional
mentally
hudson
cycling
authentic
bulk
youngest
warn
appropri
openly
1992
hurricanes
fet
##chat
server
firearm
thanked
dressing
stabil
mg
neighbourhood
occupied
deciding
kem
scng
##comm
joins
loyalty
shareholder
garner
apartments
kaz
ral
draws
toilet
rocks
flows
profiles
##uson
acre
sof
cargo
governors
##stop
##roe
suburban
hect
ri
enab
indicates
klopp
##watch
##uri
civic
defenders
sb
planes
licence
furthermore
boots
barrels
emirates
gujar
cookie
horrific
clashes
vine
##ardi
geograph
accusing
pickup
emphasis
sach
##arn
grat
blanket
stark
pour
##inos
##ching
nebr
catherine
pursuing
##ellation
drain
cia
dubbed
diagnosis
fined
##through
colleague
compare
titans
principle
obamacare
wounds
advances
sells
physician
sharma
programmes
##29
##ules
##oca
households
waited
triumph
worthy
##umed
landmark
rebel
rede
politician
judiciary
uncover
drought
myth
mothers
winger
approaching
pitches
len
115
mobil
##su
rainfall
interstate
qualif
instruments
##ibutes
notification
lawmaker
hutch
##iola
abu
pct
##reach
declining
founding
azerb
concussion
azerbai
delaware
1990
attendees
pursuit
##ationally
remem
entities
deleted
angle
trash
##boards
wheat
verizon
5th
##bucks
slammed
##otes
discour
kicking
introducing
##rie
connecting
nebraska
harper
balanced
villages
welcoming
##eda
unnecess
compromise
manif
scattered
immune
sd
bets
feeding
appreciated
750
ebit
mets
##caster
sang
jumping
permits
##hall
opposing
##isha
blank
##byn
administrator
partnerships
wals
kilometers
capability
##etti
reconc
##essa
inclusion
##othy
volumes
vint
##dling
polish
refuse
naval
nfc
trending
dramatically
##agg
applicants
shirts
##organ
flexible
##avery
##bus
oral
bounce
nra
##once
norway
identification
lp
##eton
blocking
weighed
##tains
shane
chains
plum
tender
arbit
filmed
pointers
pants
spart
sensors
courtr
applying
##imited
##27
inqu
##thouse
##alling
boats
##conn
linda
directions
stats
accessories
rhyth
talib
speeds
wreck
pand
##ullah
motorists
##urer
cherry
asc
thirds
delicious
##borne
plaint
zh
generous
intelligent
##ingu
slip
corey
recreation
##gets
unlimited
flexibility
stomach
currencies
soy
starbucks
##asses
difficulties
mik
##asha
subjects
influential
aap
transmission
##fan
grill
courtroom
stam
narendra
opec
slump
cardiff
vessels
ced
##pen
wip
##ctic
quad
lynn
hiding
crist
sprint
newspapers
##arre
continuous
ecosystem
##itary
traum
disappeared
councillor
recession
commem
avo
achieving
minimal
duncan
suz
forgotten
inspire
prohibited
pledge
pointer
##nis
brien
maduro
diamondbacks
surprisingly
economists
voluntary
attributed
fits
insists
flagship
£4
##tc
barnes
lyr
grenfell
kol
neighbours
##ecurity
wrap
rays
inflamm
kin
mock
tat
##tha
##qual
gorge
backlash
juven
bend
##ener
confused
juice
reminded
jenkins
unavailable
aggreg
tablet
arbitr
suitable
bour
##iba
injuring
wealthy
nurses
recreational
##bling
oppose
abdul
maid
acceptance
spreading
deployment
michel
recruiting
zones
intends
contents
##erick
patience
averaging
lemon
glas
##affle
gro
##assian
flint
springfield
##uv
##kes
glam
skept
greatly
stabbed
conor
rolls
##bane
##stown
##ords
painted
rider
entrepreneur
launches
excessive
nail
multip
auditor
spa
donors
matched
simmons
graduated
stanton
caring
gujarat
dayton
speedway
prizes
preser
goldman
curb
peer
collusion
##eva
withdrawal
##fty
nw
competitions
inventory
sara
opera
106
carpet
auburn
sanctuary
worn
weekday
automation
inclusive
chaffey
automated
supplied
albany
minus
difficulty
reiterated
align
unite
examined
hampshire
munich
implications
emerge
##auc
wow
businessman
##olly
median
entity
tissue
lith
##ucted
misleading
convenience
arthur
jays
lasted
##urred
skype
maps
raz
irr
kad
chile
##aku
rosenstein
cure
mamm
alice
##umble
scary
##boro
ears
wilder
prevented
##aints
##allel
supplement
##88
rust
placing
earthqu
ugly
austria
sail
gps
oc
##strom
240
mead
productions
scorer
viv
evaluation
##lif
##aheim
aur
gd
pant
tract
rubber
##bull
cogn
performers
protections
clarke
bearing
breakthrough
pedestrians
dame
tin
##parts
nascar
memorable
##isms
gardner
occasionally
printed
1991
accommodation
recruitment
111
2025
devastated
boulev
fever
aol
mere
slated
##uably
##udes
cooked
examine
kle
salaries
fines
grandfather
dishes
riley
##arma
negotiate
##onso
##acious
disturbing
adap
pakistani
mice
unbeat
owing
janet
anaheim
tougher
amateur
##enson
##vy
joey
mechanism
scram
motive
negl
dell
pleasure
notorious
catches
strictly
sidewalk
countless
perceived
warmer
shootout
nord
##oust
subsidiary
zur
##irs
panels
restored
malaysian
deserved
bikes
moss
rings
##nik
trevor
convince
##stage
##oville
honors
ana
hawks
ferguson
rebecca
intensity
##eong
alz
spirits
luther
screaming
contractors
hudders
samuel
afterwards
neighborhoods
sharks
lawsuits
darren
syndicated
##press
brett
huddersfield
incumb
guam
cups
hp
bullets
excuse
hamm
##roll
hung
spirituality
ridiculous
snapped
marking
##uating
exped
issuing
hungry
##acles
ibrahim
blend
simult
psychological
moy
superb
cel
clippers
suggestions
commonly
royals
empow
tong
helen
simpson
bmw
dough
entertaining
touching
simultane
piv
##theless
conj
brock
blessed
nr
siblings
rcmp
accidents
accounted
hacker
##acent
floyd
advers
facilitate
horrible
nevertheless
snapchat
accomplished
adequate
portugal
invasion
wend
retreat
arguably
cope
##34
undermine
meteor
stanford
nominees
partisan
diving
halt
##held
debris
9th
##py
##ancies
surrey
boundaries
jurisdiction
##zi
sweat
invite
450
defens
responsibilities
##oly
concerts
inspiring
hikes
aspir
swedish
batch
##usted
entries
lever
administer
exercises
boulevard
outfield
pie
##pin
dividends
wicket
plaza
warrants
vintage
##gio
leaked
counting
##aven
southampton
billionaire
##ihad
alike
achievements
silicon
precious
mig
sic
timeline
lebanon
tory
##rus
##rist
##iliation
kushner
ralph
silva
prompting
notting
##oven
serb
infinity
quietly
davidson
joh
tac
##roy
acceptable
healing
alleges
unlaw
##omez
phenomenon
##chang
##istical
eliminated
lifting
##itated
minassian
regret
cuba
fisa
accommodate
pills
donor
courthouse
specialty
ns
frustrating
dens
counterparts
stones
stored
partial
cort
habits
establishing
apologize
medicare
sacrifice
falcons
flooded
kohl
epidemic
myers
stoke
contam
layer
kylie
forens
##urring
pressed
separately
feared
##isle
beast
produces
rallied
marco
wheelch
evaluate
wik
##iances
appet
inaccuracies
shepher
penguins
churches
rides
intensive
licensed
##swire
majors
cement
investigative
imprison
hammer
nichol
cody
##bh
responders
chronicle
##avan
cryptocurrency
lounge
##mare
##feed
beneath
##26
##55
owens
brack
restoration
cbc
peg
procure
assumed
biological
casey
##eley
climbing
noah
utilities
bucket
youths
ditch
displaced
regulator
advisors
compiled
salmon
sweeping
oy
pirates
samp
watches
caut
curious
perpetr
betting
lb
gambling
rm
borr
diaz
gur
stunt
idaho
disclose
meantime
lid
##dam
extending
chen
communist
erik
sham
amanda
booking
##len
##iq
cavs
unfold
complement
divide
##oard
trails
contrary
recipe
##aria
seth
alexa
##mail
irre
hydro
banc
##pled
brewers
##arc
enabling
privately
crowded
jacksonville
compelling
sooner
alar
astrology
sunder
appreciation
vp
alien
surpass
wickets
tut
furious
verified
##ortions
grades
cct
gau
neph
##achi
##pot
bloc
considers
q4
supremacy
pixel
offenders
adrian
algor
chin
soap
cant
brend
wherever
acquisitions
motivation
7th
kos
commons
starters
implementing
branches
peterson
preca
##identified
cornerback
wiz
charities
annoy
##iffe
charleston
raptors
##ellers
##imedia
heated
strategist
destinations
algorith
##immer
chairs
satisfied
bite
##quer
renowned
randy
kenny
schemes
polling
jak
sentences
wallace
declare
litigation
indictment
milestone
erin
aiming
mohamed
sf
crops
amber
stal
corrupt
burr
jurors
volley
blew
##36
##isi
poster
secrets
outing
mane
freezing
cork
titan
floors
beverage
attacker
##otherapy
medals
coroner
fay
rut
offs
wolves
oroville
sophisticated
leagues
rp
distingu
brisbane
measured
gaps
##eon
hav
sequel
fossil
tide
priorit
oval
sends
manuel
109
wooden
chemistry
richardson
ravens
gazette
##eav
##astian
robots
heyer
uae
stays
marit
interaction
connectivity
##din
fres
spare
pyeong
fitting
disruption
premises
dian
##je
buyer
pharmaceuticals
bizarre
sealed
stein
assuming
montana
mes
##igious
rotation
stephanie
glasgow
appealed
##newswire
philosophy
violating
whistle
shine
portrait
burglary
heal
ney
apnews
##world
awaiting
syrac
limitations
##keley
branded
baseman
holder
messi
holly
argues
lieuten
propaganda
taliban
horm
##orate
naked
vertical
config
mcconn
kilometres
outbreak
whoever
incons
natal
seiz
credible
##mu
spice
testify
protesting
condol
teenagers
quinn
initiated
chasing
transcript
bible
peoples
serial
realistic
##alled
colts
recommends
jal
##fits
gomez
ndp
olive
pt
curve
commitments
astronom
lobb
syracuse
utt
nicholas
pioneer
pyeongchang
brom
##alg
notion
supplier
depr
jaw
##anes
berkeley
dragged
confer
nottingham
sunderland
##ieg
##opa
flaw
paramed
structural
chapel
affiliated
##orse
maur
keeper
glory
##oba
councils
intimate
##rane
blacks
##arity
perception
critically
shutter
seasonal
poetry
alleging
mounted
fiber
searched
lamp
defl
flavor
treats
joyce
##44
suits
30am
walsh
##ellar
ethiop
iot
permitted
affiliate
##nar
themed
hospitality
beneficial
bomber
lenders
shannon
intermedi
confronted
grammy
##around
notifications
noble
deterior
languages
fingers
pivot
reliance
mcg
enables
bosses
logged
zurich
##idi
clarity
##eno
##ospace
awful
tooth
##atta
upst
unnecessary
##name
daniels
stere
strat
##linary
nol
booth
alv
leap
internationally
arrangement
bubble
compassion
sussex
jed
presenting
insurers
gt
##uitt
albion
pag
compat
##ounce
provoc
expressing
##zel
reinfor
pupils
gasoline
randall
aber
embark
deceased
clerk
fiance
mim
indoor
texans
dependent
##due
troubled
rus
##osi
nightmare
moist
absent
overturn
lyrics
refusing
rallies
fluid
##arged
##retion
retrie
220
jesse
syndrome
abe
##inda
fatally
shifted
##ches
6th
dana
nz
yellen
assignment
spouse
unidentified
demonstrations
curtis
turnover
exchanges
dock
##inces
stub
##onde
blessing
175
crackdown
continuously
##iya
##bles
raid
ivanka
jas
nova
riot
##dles
grip
avengers
neymar
kris
sharply
certification
commodity
endeav
islamabad
artistic
divisions
margaret
aids
##far
unle
fleeing
coleman
unbeaten
allegation
bannon
printing
lgbtq
seas
superher
generating
diagnost
font
##isure
flick
##ibr
pave
##went
alternatives
brewing
##urd
##lies
107
windsor
burnley
##fires
thir
1989
mcconnell
liability
sul
##uala
##oons
##aments
define
egyptian
launder
##bird
##appy
mechanical
overdose
sev
##ensen
dealer
sustainability
aerospace
disposal
alzheimer
ost
frost
legislators
aboard
possibilities
garrett
obsc
vermont
protective
beaches
##colm
unchanged
analyze
invitation
jab
bureauc
bureaucr
##bled
##obile
visitor
eleph
bones
##atics
staged
goalie
blown
##each
##rock
timely
messaging
shin
elaborate
hoff
##orp
owen
disagre
##itative
unbel
provinces
costly
rhythm
nsw
##ras
plates
interactions
physicians
mugabe
continent
beyonce
sizes
comparing
finn
propri
observer
cellphone
disappointment
garbage
takeover
##afta
laughing
isaac
tolerance
aes
gav
hitter
knox
convictions
acquiring
disagree
autop
pressing
encourages
lovers
smok
versat
tenants
##isy
feud
recognised
misd
1b
threaten
bilateral
malcolm
obligation
##pack
##uctive
manifest
shoe
##xon
##orton
sometime
populations
##neath
retiring
filings
julian
ebitda
cair
rol
##mph
frances
compound
passport
inauguration
underneath
vacant
marlins
freeman
firmly
kis
##ju
##enberg
rever
verification
extremist
strengthening
objectives
ing
batali
excluding
chop
agrees
telecom
consists
predecessor
admir
watchdog
breezy
swansea
dale
##itas
usat
denmark
wrist
modified
tah
##otto
regarded
decreased
fundraiser
vip
moder
counterpart
workshops
heath
ard
bam
upgraded
dl
instances
karl
##mat
ultr
olivia
alphabet
##awei
##orne
publicity
bullpen
rahul
turnbull
policing
designers
tuition
irs
mold
prnewswire
devin
digest
##ais
salman
unbeliev
##fo
impeach
kapoor
cauc
adverse
financially
huawei
vaccine
genoc
criticised
##grad
suggestion
##midt
lieutenant
enforce
disg
rim
technically
slowed
parole
##iasm
##hum
runway
supervisor
##unting
megan
caller
hunger
##66
junction
preparations
duck
##49
deton
1987
frankly
accurately
reckless
##ped
hearings
raped
chill
fortunate
practicing
astros
decreasing
##lisher
##angu
transplant
##oux
boasts
delib
nets
##enne
witch
quarterf
appointments
laz
shawn
creativity
sensit
ferry
##erte
caroline
briefed
beverly
guardiola
gst
norman
obligations
maritime
##inel
inequ
mega
credited
bloody
##otyp
shakes
cease
duch
1960s
landl
durant
assessed
airports
fond
jokes
##kg
commissioned
martial
theaters
lak
##inction
header
baldwin
pilots
melt
##apper
refresh
bulldogs
cheek
inevitable
corners
weighing
travelled
mant
##inate
##mented
candy
extract
##anned
mma
insult
jpg
securing
minded
tribal
jenner
##idal
britt
fuller
alexis
shoulders
##atti
commissioners
unrest
aired
concentration
nyc
beds
9160
rode
perth
hospitalized
bipart
corridor
##ifax
juvenile
meek
restruct
endang
facial
influenced
croat
statewide
credibility
assumptions
##ao
##rich
predators
prestigious
lil
##report
beats
walter
coin
urugu
favorites
homeowners
instantly
viable
applies
uruguay
bing
eug
wholesale
wenger
agu
wool
inconsist
##piece
ceremon
ceiling
q2
rational
hailed
##week
cultiv
accordance
telegraph
jackets
explosives
##hot
casting
enthusiasm
avoided
opioids
publisher
psg
weekends
##auer
advancing
discounts
recalls
borrowing
##fare
##ogy
banning
916045
##cot
troll
brink
serena
rewards
undergoing
fent
nt
puzz
fulfill
persistent
goss
grain
charts
disorders
vander
popul
somers
pdp
sut
expectation
exchanged
elevated
coupled
leisure
##eryl
germ
predictions
constituency
##inski
dire
outreach
horizon
gorgeous
infam
dill
kens
pes
hopkins
dedication
ellis
reactions
geographic
cute
fusion
pitt
wheelchair
arnold
foreigners
slee
wentz
licenses
solidarity
##ilia
hilar
realise
##iggins
dimin
nobel
apprent
arranged
patterson
dort
possess
dose
smiling
graduation
sidelines
##dled
##fish
corbyn
conclus
festive
recycling
miner
chi
gareth
gregory
cyr
processed
yon
##tor
##adh
970
tweeting
dominate
vibrant
##agger
barrett
flower
detection
lumpur
vod
injection
logic
##ascular
php
##bra
edged
educated
defer
shifts
disqual
reconstr
crawford
fow
strang
thresh
quotes
clemson
azerbaijan
severely
hostile
1986
deposits
pall
shorter
incumbent
eleven
devoted
millennials
kits
abund
blair
denying
radiation
ventures
significance
cott
blade
centuries
##nity
repay
##sole
clinics
calculations
zip
preval
##ui
slugg
merr
ounce
militant
condolences
wrongdo
pst
##eff
##mith
reaches
##elters
mines
conversion
rumours
##anor
undergo
unified
stunned
laptop
##kov
haley
holmes
##het
##aby
##rington
reli
satisfaction
fierce
nh
##acht
fails
1980
graduates
pir
northwestern
licensing
pork
rhp
accelerate
deliberately
duration
##idav
##irez
harmful
audi
quarterbacks
gaga
kyr
ston
unfor
patriot
controlling
daca
##ums
justify
sympath
nl
metals
penetr
indicating
kuala
infer
neal
intend
limiting
vernon
discusses
regulated
##hawks
enlarge
incentive
uttar
wildcats
constructed
##eny
imported
doubts
##zb
amen
locks
accordingly
cyp
ef
##mc
stint
discretion
fancy
zan
##ocal
newcom
medi
incentives
sas
encl
##ayed
wellness
proportion
25th
surveyed
experimental
##95
##100
ambi
keaton
topp
##leen
crunch
backyard
petty
councillors
catcher
genre
diplomats
jor
choir
##oub
decides
indef
##76
meh
idol
mush
##ifi
cough
recognise
mentor
twel
visas
bros
mainland
affidav
petrol
1988
cov
lethal
finances
mature
lightweight
ensemble
null
irving
cancellation
neighboring
shepherd
rt
##uber
##aching
jewelry
relegation
##xy
wines
##etheless
vas
##unal
brendan
conway
missions
nonetheless
drills
clever
uncons
paradise
pla
starred
unlawful
merck
##strong
rhode
orchestra
cctv
tying
underperform
fifty
columnist
prosperity
abol
##ogether
ces
##lon
kills
homers
collectively
ink
supermarket
medications
anticipate
optimism
wildfire
bids
underwent
youngsters
simultaneously
##iki
committing
administrators
parkland
cigarettes
tribe
colonial
##enzie
preston
harmon
eleg
shade
carriers
goodby
##angel
##unning
midlands
##uki
presum
##orable
contrad
totals
highland
realised
abbott
vista
abilities
ramirez
##health
contender
autumn
needing
skate
weaker
twelve
burton
godwin
laying
mound
mates
incoming
##anga
infected
biot
wisdom
najib
##orized
holt
capped
chrome
finishes
consultants
wyoming
cousin
jeans
beard
poised
kerr
enemies
xia
fueled
icel
113
penny
gel
##ski
##vas
##utt
verify
lenn
drones
##lean
payroll
grande
mahar
##giving
##iments
rehears
##right
whites
copies
chapman
merchand
berry
collections
qa
slic
xav
##rah
thankful
declaring
##enh
talents
##emon
proving
contestants
robertson
inaugural
coy
pressures
135
issuer
##anche
procurement
##uz
##ommun
disputed
##uccess
sket
exploded
outdoors
forming
execute
endorsed
tn
bipartisan
outlined
crafts
miracle
dragon
leaks
broadband
rit
revival
preference
##opsy
fortunately
117
melissa
accessed
vendor
paired
migrant
frequency
##uder
visibility
questionable
dortmund
sellers
willingness
patent
genocide
gat
documented
bombings
masc
resorts
manages
cautious
zacks
sidel
shorts
contributor
##unted
112
surround
brewery
suburb
midway
variable
analyzed
consumed
troubles
feas
failures
belonging
erupted
hed
wich
abuses
voiced
strikeouts
surgical
rack
##drop
pard
1967
kerry
##jud
manual
corrections
floating
troopers
trinity
clad
fallout
effectiveness
animated
interceptions
##ranean
handgun
confrontation
hamstring
ply
semit
muk
##emi
mineral
lowered
demonstrators
fx
infections
lately
ripped
trafford
flowing
altogether
forty
225
profitable
unrel
console
broadly
##aches
##auth
moroc
profound
culmin
wan
##hard
reinking
leo
jeop
boosting
correctly
hartford
lok
dispar
grows
gul
skies
aerial
fascinating
nintend
fright
roast
unsuccess
heating
committees
avoiding
conclude
tus
##wu
huff
hindu
##tin
pockets
mansion
piano
##uds
disputes
gaap
abandon
##aul
##esters
230
deliveries
absurd
imperial
harbour
magistrates
nintendo
breed
comparable
subsidies
lal
##oir
aval
reunion
iceland
vest
skipper
levy
lun
arctic
worship
livestock
##nc
spike
obes
educate
stabbing
beckham
adtech
autism
zuma
##rog
##iox
revolutionary
maz
expose
rohing
##antha
wrongdoing
nafta
theories
thrones
midday
duterte
hasht
marginal
bib
dess
tense
hamas
sebastian
conceded
##lain
prepares
registering
oriented
relied
networking
##hran
celtic
shelters
heaven
roberto
cv
##hou
harmony
kc
parallel
juvent
##tedly
gauge
bark
separation
##enter
miranda
albums
ancest
taxpayer
debbie
intentions
namely
bhar
exter
mixture
ibm
gilbert
##leys
1984
eligibility
pharma
sounded
ventura
ordinance
eater
sworn
transformed
##lements
##flow
semifinals
mam
tb
sting
burial
phrase
obesity
stride
mediter
navigate
tires
##gies
laf
performer
thermal
jihad
##eters
raymond
podium
##rob
characteristics
reflecting
##tures
mcgr
lodge
sink
##uba
johan
##stit
##weg
##mus
quint
figured
pd
relies
withdrawn
til
spelling
indirect
##most
themes
##cha
thereby
specialists
eman
fixture
sacred
juventus
battled
##rix
##feld
sny
greenhouse
##79
leh
panama
obstruction
cocktail
nok
chor
travelers
mindset
splash
airpl
diana
##itate
newport
ipad
estr
maintains
bacon
conting
observers
gosp
##aky
##omic
complexity
wc
128
tornado
remembers
forensic
##aren
##isk
distracted
desperately
##aye
tucker
prescribed
##icans
appla
territories
broadcaster
alumn
##ksw
##oints
##will
jos
sacks
curricul
utter
mohammad
tally
anz
##ashtra
##hart
clause
30th
convenient
##46
imaging
endless
##38
monkey
brokers
posing
burg
literature
dignity
##asa
regards
dispens
relent
positioned
budd
lindsey
patel
stripped
steering
appreh
rect
schum
jackie
cybers
containers
shouting
middles
kensington
grief
identities
bleeding
favorable
pam
##rea
murders
slower
medicines
elevations
surplus
forthcoming
hb
postponed
tattoo
skr
seaf
profitability
acute
settlements
vangu
##cock
lloyd
switched
selfie
derail
clayton
##hem
setup
slate
remainder
bernie
advise
receivers
sally
syl
advantages
##fut
##the
midst
boycott
liquor
nig
contrace
##ergy
compliment
synthetic
inject
occurs
touring
##etically
ambitions
shutterstock
hir
aggregate
114
insurg
bolt
pi
potter
attraction
complications
laundering
grie
yad
graft
999
christine
loop
sticking
evolving
fruits
blowing
plag
mathem
hilton
spider
couns
laure
185
ethan
congratulations
sidelined
vanguard
carrie
salad
denial
volatile
batteries
panther
##cu
slowing
liquidity
sv
##bin
blvd
650
shark
credential
##istically
deliberate
mediterranean
##asia
worlds
markle
##gg
boo
closures
sheets
thurman
threshold
recipient
tipped
convey
tops
cataly
notre
blas
castro
correspondent
exemption
fertil
joked
turnovers
festivals
fs
brav
environments
kidnapping
impaired
curriculum
caf
lahore
##etics
sake
assisting
fowler
burke
neglig
##say
##arios
affl
justices
legion
##ogr
hardy
durham
unbelievable
hollow
confirms
therapeutics
mysterious
heck
sanction
dangers
congest
immin
reson
monica
tee
##ewan
quart
yours
adjacent
ellen
julia
tehran
generic
independently
spends
##itte
aunt
##case
##loe
coachella
gesture
pist
##respons
nicolas
tanks
rapp
awaited
##ophob
pacers
discrimin
##urst
bliss
references
submitting
g7
stur
salis
eventual
highlighting
hassan
bp
£6
theor
disin
spraw
laughs
mercury
hog
submar
volksw
turb
kenneth
rifles
darkness
ambien
snyder
nepal
sergio
nun
niss
##bach
steals
lucy
wichita
performs
macro
restructuring
successor
interface
##iac
gravity
bless
1985
##affir
edit
##arts
##oots
watt
disresp
tournaments
tackling
coordination
cens
suck
##astrop
##acey
tariff
surveys
expenditure
rw
yale
##rez
continental
00pm
assembled
grizz
monitors
##ugs
risky
undersc
owe
##rov
##etz
congreg
salem
ish
unst
snacks
fatalities
shelf
gateway
evolved
##reet
seekers
prospective
##37
submission
kon
monroe
revenge
rohingya
benz
goodbye
##icides
resemb
prediction
pom
yam
devon
usb
sexy
lacking
wondered
beside
lub
unse
computing
olds
songwriter
##link
inmate
##amine
##agar
mosul
##rest
##affe
beverages
staples
##ager
imagination
elbow
preferences
traumatic
gala
##yers
##long
seating
basement
moz
unconscious
186
surfaced
##now
monaco
reaffir
spear
##yne
##chan
healthier
providence
staffers
travels
savage
newsletters
tends
##ader
hein
riv
sip
contention
stormer
emotionally
proprietary
canal
incon
metab
relaxed
volkswagen
cull
doping
jill
##ivities
afterward
precision
turf
kara
ras
##eca
bruno
rivalry
worrying
##hawk
fury
patric
sunset
##books
machinery
##uy
thrive
pruitt
thoroughly
arlington
freeze
snaps
infamous
fals
##ilateral
explor
hott
grams
buddy
resolutions
belgian
##rat
##ilion
competitor
ern
poorly
pedro
rans
##rera
##oulos
fuels
8pm
##igma
guer
smashed
hw
relate
minors
##atchewan
robbie
cage
edited
disciplinary
chant
suited
valerie
louise
dominance
occasional
incorporated
maharashtra
nn
tiff
bradford
recipients
saskatchewan
ks
magical
archae
poisoning
7pm
ips
mounting
screw
gupt
hardest
guardians
kv
kg
nost
insiders
semifinal
bans
refers
samantha
showdown
embedded
ankara
filmmaker
145
costume
competed
assaulting
essay
uh
unaware
ahmad
lamar
tsx
##bod
downgr
speeding
gunfire
blockb
##ulative
deuts
wrestle
calories
goalt
conditioning
tribunal
overwhelmed
##olved
wears
compact
clearance
leslie
doj
premature
accidentally
orbit
armstrong
favourites
salisbury
pts
finest
sergeant
endorsement
##quet
precise
##mers
##leep
##iler
lining
mw
##kr
sah
merit
upgrades
scoreless
prisons
adela
teamed
helicopters
census
toe
desired
tore
##icting
norweg
slavery
thankfully
kang
sho
exceeded
routinely
undis
jaguars
beers
earthquake
paramedics
##isely
scra
builds
scenarios
affidavit
coached
stafford
embraced
paintings
functioning
hugely
sights
##ulates
abortions
swap
damn
semin
wu
decisive
##brough
pep
retained
vari
rockies
ferrari
iq
legitim
mash
##iggs
enrollment
##afort
intermediate
atop
islanders
£10
bie
ie
##bir
muscles
xavier
stitch
stroll
blonde
##cci
forwards
caz
tmz
glimp
hotsp
gunshot
jumps
reluctant
glimpse
xin
shaking
kkk
mish
startups
endured
reinst
jamaica
laughter
hacked
butt
manafort
steadily
moor
riy
##run
##opy
guild
intentionally
petersburg
##anyl
backdrop
10am
promotions
aurora
allied
geoff
nike
subtle
cunning
bees
astrona
##adan
resistant
adelaide
##isco
##uka
neighbouring
woke
editors
enjoys
satellites
misdeme
##izable
pumps
alfie
uploads
genius
founders
hayes
mariners
##31
owed
isab
finland
signatures
dismant
##berger
warns
fixtures
correction
statistical
lesser
##iatoday
##aults
stellar
highways
conclusions
##rec
helmet
##ahah
##urry
##agher
##mania
defam
bidding
dys
##iago
unwanted
hitler
ethical
mercy
##ulent
##group
humble
dumb
##oro
asleep
nigeriatoday
allocation
nigeriatodayng
##arius
unanimously
terrace
tempe
isle
counted
preserv
topping
griev
acclaimed
ipo
gin
lc
substantially
flavors
socialist
##heim
##uity
inability
##ovan
oath
recipes
magistrate
##elly
prolong
lud
fork
allison
##gey
middleton
gospel
ough
rf
anders
scouts
stiff
successive
philly
unlock
wand
haig
humor
indefin
anfield
turnout
storyt
sentinel
kurt
embarrassing
natalie
imminent
bounced
##foot
hispan
##occ
timothy
likelihood
essence
examiner
bedrooms
tricky
cay
jungle
##marks
kany
activated
crosso
eli
spotify
lyon
sq
##robe
shades
peru
distress
essex
basin
##opoulos
cares
rabbit
xbox
##78
chry
barcl
believing
loses
luckily
pistol
resid
americas
turnaround
organizing
qualities
presenter
##kowski
marri
halted
waffle
bro
indicted
labels
offender
##atories
fuck
sta
2030
1979
tunis
katy
pearl
##sk
finalists
timberlake
qualifier
premiums
##uan
freel
heavyweight
sachs
artwork
manufactured
archive
reservations
fentanyl
hast
vegan
singled
undermin
traditions
convinc
williamson
superhero
monuments
##attled
189
pens
sank
tracked
replay
1983
bombard
##md
indul
streams
halfway
rounded
permanently
centered
commodities
lighter
##jee
##itudes
batman
plymouth
fount
yog
##tse
colored
pharmacy
tamil
smiles
instructor
matur
##casts
remot
unnamed
##idy
##stan
newborn
casualties
##ocaust
pp
##iw
##arians
chew
crook
dodge
habitat
joan
coral
robbed
purport
deportation
##steps
vick
##agne
##arten
grind
injust
##erable
reboot
sergei
lender
touches
planted
belongs
rbis
aka
##advant
ideology
complaining
jol
zen
rumor
##sky
neill
legends
forbes
reconciliation
geneva
malik
minorities
outer
steak
##geries
wildfires
switching
shi
fron
distant
moody
bernardino
clutch
graves
wheeler
ix
rage
##chem
##usting
surged
safeguard
pestic
##icia
sticks
holocaust
consistency
psychology
banners
litter
zucker
expo
midwest
6pm
mered
##found
##ecd
partnered
archives
trailed
##anthrop
interpre
slaughter
prote
##beit
##upp
associations
sherman
rapids
unsafe
troubling
messenger
icc
##ioned
##adena
##ucts
retro
recruited
lh
pyr
glac
defenseman
feather
readings
towers
sheep
##adequ
shelby
distinctive
inadequ
searches
##agwa
tablets
unpaid
disturb
admitting
restart
210
trailing
skull
innovations
yong
dum
storey
indicators
undoub
bella
adjustments
norwegian
prix
prescott
famously
filter
reflection
poo
attractions
hottest
##ulus
abh
humph
abby
pg
tuck
sharon
malicious
hungary
grabbing
fraser
directing
ate
greene
destroying
kathleen
wynne
hilarious
pile
##iens
seller
##uffle
nikki
ought
disadvant
##amy
##earing
delete
commenting
treasure
##trump
handing
vatic
turmo
##guy
contempl
merchandise
nissan
albeit
commence
tak
blo
meredith
mast
reagan
##hani
unpred
redskins
##elong
surgeries
extrad
echoed
hail
softball
aberde
blunt
infin
##anson
purdue
uncovered
toast
##otype
billed
teaches
vandal
boring
poured
##sson
sequence
turmoil
omar
prone
refur
oils
yo
##lot
chatt
##ached
emphasized
reel
##hips
handy
courtney
andrews
mnang
unpredict
##39
whale
##holm
instrumental
sabha
unconstit
fores
betray
reacted
graphics
camping
manufacture
examining
nons
barred
predomin
attracting
lucr
appetite
prud
shipments
fran
skating
distribute
sprink
telecommun
gown
lips
elon
employs
halifax
fairfield
void
survivor
lucrative
dv
cooling
##build
##mb
charitable
270
uncertainties
ordering
culinary
labs
skrip
##esis
collar
bicycle
ole
##reated
locate
capitalization
vegetable
##unders
sixers
inex
commuters
##oppy
quicker
mnangagwa
inviting
ntv
accent
philanthrop
tasked
diplomat
aggressively
accelerated
##opic
transfers
geop
revis
mosque
cynth
##cester
rochester
trey
reversed
enrolled
fas
hint
minn
teresa
cardinal
duchess
lis
dread
pdf
##add
booker
precisely
roth
baghd
methodology
umb
consolidated
tosh
constand
abusive
##ansing
torres
leaning
schmidt
factories
##unct
amph
fixing
isolation
vatican
southeastern
revamp
mistaken
relying
apt
pitchers
gymnastics
spoilers
alarming
aisle
foles
116
paths
molly
vince
ala
weed
detr
potatoes
enrich
spillway
refriger
cw
dixon
ginger
detected
greeted
afrin
evangel
blaming
flown
ivan
cdc
dir
hil
hats
zimmer
##etcher
billboard
renovation
pokemon
croatia
pizz
flair
retwe
interpretation
hogan
##lander
enters
cuban
##nan
##56
bowls
panc
##rs
##kill
confessed
shutdown
1968
photographed
codes
##emouth
unin
crab
footprint
##xual
laughed
precaution
hone
##alt
salute
reduces
##maid
ambition
falcon
pulse
dilig
##future
203
solving
wit
##with
downstream
wallet
chloe
walt
breathe
positively
quir
terrain
bleacher
punched
venezuelan
kohli
endangered
##oos
##ilation
ani
1982
boundary
magnitude
cognitive
##vine
118
classical
specialized
identical
ricky
##uer
winston
budgets
trustees
ullah
batters
dustin
pab
sack
##page
##48
guine
laund
dismissal
chore
##osport
freight
derived
bikini
huntsman
cybersecurity
junk
behavioral
##dc
wors
lacks
debuted
##ml
southgate
##ennan
alternate
southwestern
28th
mcmaster
dud
nit
pont
pepp
mckin
objections
nb
##arta
campaigning
inequality
rafael
thriller
servers
physics
shipped
repe
morrison
multimedia
geopolit
beans
charm
exxon
terrifying
collaborative
beau
crashing
amended
occurring
outright
kendall
mccl
bluet
##rain
dumped
hawk
obstacles
credentials
##table
gofund
linking
walton
contested
scare
##owdy
contests
flee
roland
christie
athens
phillies
##nat
shoots
consuming
pasadena
pvt
##iman
uphold
flank
illustrated
perpet
colours
123
reigning
alumni
lover
rica
upt
downing
reno
cnbc
wendy
organize
barbec
duff
initiate
##53
ain
erect
discont
stretched
fitzg
mats
##atable
irreg
recruits
bis
braves
premiers
peacefully
indexmarkets
indexmarketsresearch
loads
phillip
##42
recurring
insisting
westbrook
rebuilding
torture
undoubtedly
##ulin
imposing
wield
##eer
bye
rovers
informal
grandson
renewal
eliminating
eco
##esp
engulf
airs
webb
knocking
explicitly
##59
judging
aggression
barton
##igo
regulate
supposedly
##archy
brass
rainbow
mccorm
fatig
layers
corresponding
spur
composed
schne
colorful
televised
enhancing
cristiano
##gence
blasted
bargain
disrespect
adorable
knicks
circles
philippine
##chy
depot
berm
tolerate
cec
##chool
miguel
##station
deaf
biology
gotta
bluetooth
kess
hurting
calculate
##proof
cunningham
gofundme
irregular
gloves
cathed
warrior
##houses
grandpar
cooperate
caucus
aly
##nia
unm
ignor
pornography
serbia
challenger
advertisers
announcements
organisers
municipalities
naw
oven
amn
subjected
bs
vicious
devil
jewell
praying
unhappy
tube
likewise
patron
##amo
miners
posters
tomatoes
cultures
1970
determining
seafood
ineff
alp
manit
##atched
wyatt
evolve
##aters
clarks
76ers
kathy
floods
##folk
cardiac
##kind
##encia
swings
dab
stain
22nd
creators
strengths
payne
closes
counseling
ez
##avel
##ovich
colony
forgot
stranded
defeating
##ye
detain
calf
monitored
retaliation
ket
concealed
precedent
unconstitutional
##tar
##dar
contenders
catalyst
bould
liberation
tags
auck
stern
newer
resh
johns
immers
composition
inhib
##uese
threatens
heartbreaking
nuts
germain
3pm
cory
kor
##ounters
confirming
encountered
benefited
immense
jinping
damp
hick
##asse
##econom
atlet
arra
chevrol
stylish
dancers
9pm
emailed
trek
lacked
bullish
quantum
ethiopia
bpd
wong
alison
kinder
allocated
##ovascular
agreeing
hinted
autopsy
surrend
railroad
nadal
barber
portuguese
experiments
jae
pale
justified
auckland
4g
lance
##hear
encounters
anxious
yadav
sput
upward
apparel
diplomacy
fitted
##osity
marquez
2b
disl
##bone
flats
standoff
##screen
succeeded
meddling
violate
suburbs
dawson
careg
marion
##otti
volvo
flyers
berth
coordinated
huntington
kuwa
hitch
verbal
hammond
reliability
cynthia
pors
t20
23rd
redevelop
sharif
daddy
##alay
##mental
##ondo
cornwall
1981
bean
1976
chevrolet
dos
slice
hyder
lighth
sacked
##arf
##abouts
tactical
##giene
grim
snake
nyp
processor
captioned
##ava
yeti
detailing
revelations
eyew
hygiene
tightening
nolan
nostalg
toughest
adjustment
attends
reps
sco
##aways
conferences
nokia
manila
dominic
amendments
lancaster
interfer
santos
exterior
pec
stagg
apex
bypass
sci
##undai
##cation
stairs
marketresearch
hurdles
wished
aligned
##anti
raids
resilience
##angelo
throat
potato
refusal
##wright
von
£8
trap
intact
##uffed
cigarette
statute
##esha
jacqu
washed
kanye
byr
este
occupation
abdullah
qualcomm
lindsay
johannes
##eson
mayo
realdonald
##game
wasted
phd
inflammation
assail
intriguing
realdonaldtrump
sie
##ecraft
trin
skel
linux
orientation
cathedral
standout
caes
distributors
ftse
stack
larson
hazardous
binding
niel
##aders
hyundai
550
shelves
lexington
##quit
dugout
carnival
degr
##astically
buys
waist
tuned
lukaku
weekdays
baking
shit
surviving
genuinely
lionel
cyl
geography
demonstrates
mls
improperly
##fly
knees
turbo
listened
homem
yang
stumb
##ifa
elimination
baked
hicks
skirt
patricia
hij
##park
jag
proxim
quoting
intercepted
broward
overseeing
##issance
glou
##htb
##eni
gy
##inas
constituents
bn
kindness
silly
requesting
neglect
##law
phu
europa
kimber
morocco
##airie
inquiries
brigade
deutsche
anat
tres
mcn
educators
insurer
crushed
intake
documentation
assumption
cush
loot
##drew
itunes
##imeter
peaks
companion
headphones
paramount
##bee
leone
easing
raced
partnerid
faithful
lia
backgrounds
##erness
cairo
bieber
ya
##brand
##ernick
toddler
adapted
bast
kier
kiev
cran
polled
vanessa
hashtag
volleyball
sep
indy
temp
portal
##ugging
combining
navigation
adventures
cocktails
diane
convincing
monte
lowering
paperwork
forgive
uganda
cruelty
plaintiffs
atletico
marketresearchfuture
##iak
##rooms
dunk
ignoring
lament
pelosi
consort
maiden
f1
##ptive
fletcher
obtaining
lineman
rented
directive
attackers
koreans
tasting
reilly
##agara
##ollo
plunged
aberdeen
##olph
groom
crus
pursued
advancement
presumably
hash
smash
contracted
navig
comprised
supervision
undefined
##gard
problematic
jammu
braun
observe
reminds
concentrate
preservation
withdrew
chairperson
hurts
vacu
lava
##addy
##ulator
##formation
gratitude
jd
covent
hallow
veto
alder
oracle
brains
fellows
imagined
850
technicians
architects
dund
earliest
infield
kickoff
1977
sprawling
stair
totality
obsessed
hydrogen
purported
suing
lowe
harness
prevailing
##47
trader
bolster
guarantees
adaptation
intervene
qualification
accidental
appliances
evaluated
##omon
wellington
volcan
hype
fitzgerald
aaa
mesa
##atan
##illery
mari
##atorial
constraints
pavilion
##ulture
##ofi
islamist
blockbuster
uw
fro
assaults
famed
marching
evaluating
paw
188
web1
puppy
##orf
carers
disastr
##itorial
1972
fou
mouse
155
continually
irma
declines
negotiated
mariah
density
jp
correl
stalled
zuckerberg
kot
##osures
somalia
urgency
robotics
orthod
notch
indec
admissions
inconven
hispanic
##ovo
publications
tractor
##aland
clarify
fen
##owdown
mentality
baham
accuse
burgers
donaldson
digging
radi
semic
lobbying
##ser
##court
thie
##elman
slay
##contin
existed
##live
proves
trustee
gavin
weber
portable
texts
knockout
mansl
##hydr
vance
##inum
motley
baton
fabulous
accessing
bolton
happily
2024
enquiry
sensitivity
jc
126
metoo
coating
promotional
milton
destiny
manslaughter
aus
shook
subd
fundamentals
vind
##ieth
saga
mann
overly
24th
extremists
ramos
learnt
pierce
efficiently
sungl
wt
mali
##anova
personalities
mccain
speeches
pinch
alley
frontier
automakers
cocon
gifted
shouted
snack
cooperative
kaep
hib
zack
resumed
invit
assurance
moms
australians
mla
canber
##ichick
indie
##eka
##ophone
allan
gupta
surprises
organizer
gangs
belonged
outrageous
mell
brace
francois
romania
etf
##pear
indis
runoff
punished
alerted
##ulsion
cardiovascular
lodged
conjunction
inevit
fluct
johnston
packs
katherine
contempt
260
fernandez
autoplay
hospice
nasty
wig
ensures
punk
float
middlesbrough
regina
superst
lightly
assessments
vault
##osition
emm
##after
forests
888
heightened
##bart
cambod
molecular
willie
##geon
adopting
spectators
hayden
magnific
sway
unint
nickel
pund
keyword
sedan
wary
stif
tricks
meyer
ours
belichick
surch
disastrous
poul
oneplus
males
sophie
vibr
niagara
reopened
##nal
##cepts
additions
municipality
fernando
##gone
nearest
landsl
catastrop
bombers
observations
browse
catastrophic
ud
##ahi
rigorous
hornets
aa
##rise
##uto
ori
canon
prejud
sideline
fisheries
observation
dispatched
deferred
conform
strangers
marched
pilgr
isaiah
symbolic
kaepernick
##oka
disconn
danish
1974
surrender
##points
##usa
tracy
##writing
interception
infectious
mogul
elephant
##rik
212
jackpot
mclaren
pivotal
mald
##aires
##yside
payout
constitute
undercover
kt
bloss
secular
festivities
chestnut
kell
wander
wounding
stray
belfast
garlic
vocals
##illes
acoust
accusers
amnesty
proximity
bray
sensation
tumor
##rique
mcmah
fcc
##inging
##quin
metall
##09
neat
burk
forefront
1973
firefighter
pensions
unreal
niche
ci
##akar
measuring
sandra
hiking
cared
##ospher
terrific
extremism
philippe
£7
##had
orph
##master
##fil
instructed
amenities
abrupt
119
rivera
pipes
disgrace
lsu
executions
breakout
##ometer
virat
accompanying
##ibles
26th
bryce
pals
wn
##eco
altered
192
specifications
telesc
condemning
coventry
nak
##erm
##140
leah
doyle
costing
practition
destruct
##function
guilt
quantity
embarrassed
jakarta
inadequate
das
clues
portions
whitney
##amic
incompl
pairs
consequence
liga
lol
expired
busch
bits
villain
submissions
bourn
upheld
mcil
pops
cheated
chandler
lecture
5g
##ications
recons
knot
canberra
ioc
reacts
abn
consc
militia
##ylene
##dened
structured
phuket
ump
##sten
silk
gallon
treasurer
crafted
surgeon
chir
sensational
ransom
bunk
comics
##ocese
noel
129
origins
rory
##opr
dispr
intervent
##pit
irrig
activate
secretly
versatile
halloween
semiconduct
##bley
evacuate
concepts
bach
vouch
##matic
brake
unauth
##ishes
defining
tossed
sided
interm
usatoday
##jet
##zman
congo
eden
presentations
roller
##avia
freely
northeastern
filip
classics
##ipple
oscill
cedar
bcci
arrivals
answering
hawkins
rogue
belleville
situated
pools
rita
##osion
ampl
scholar
pics
##graves
124
melan
##ocity
ballet
magazines
airplane
grandparents
naming
denis
##swick
discharge
bride
lauder
platinum
owning
oceans
headquarter
commemor
##economic
sheikh
dont
slo
valencia
hunters
animation
jerome
misdemeanor
gle
##owitz
couch
##ourse
##heads
hypoth
entrant
assassination
hyderabad
chim
outfits
affection
2026
abraham
shields
administered
infring
cartoon
ngo
maver
handic
harden
connects
cellular
##feit
remed
norfolk
costumes
vijay
participant
distinguished
##uding
intol
paraly
stefan
implied
sind
##vest
##inence
regain
defensively
reef
chich
fraction
suspend
##otypes
##ectives
sunglasses
gn
##rated
rocked
frankf
kub
newman
afl
outgoing
ample
territorial
waiver
lonely
decorated
##ocument
pean
##places
oversees
sneak
##oise
expans
132
extends
##shots
applause
fathers
##fi
colder
eugene
terrified
27th
expressions
schedules
integrate
##oda
122
comprises
##mines
##kok
mint
billboards
ew
inhab
coins
setback
improv
scotia
vigilant
unpredictable
ike
invision
workouts
windy
stretches
pune
debates
certainty
ladder
abbas
translate
carriage
##ashi
geopolitical
chun
boyd
graduating
igu
pud
##ulk
usher
tomb
enact
parson
misses
persecut
overturned
strained
overlooked
schneider
nypd
##aram
slowdown
campuses
judy
liu
contestant
cuis
kaw
##68
herbal
nk
shab
kinderg
brunswick
chenn
##marked
akin
diox
yearly
11am
undocument
disclaim
jointly
publishers
alfred
toshiba
fost
lied
##ials
residency
sundays
benefici
##closed
330
rosa
cosmet
injustice
undocumented
presently
##ologies
fax
##fax
fringe
sailing
plastics
whereabouts
youngster
parenthood
wardrobe
##online
##orig
exams
offenses
upr
##eke
litre
jpm
##isse
##eto
recordings
chefs
shakespear
xl
tol
incomp
peel
balloon
vars
boarding
promotes
karachi
disruptive
condemnation
undisclosed
dul
rag
##fect
byron
monk
annie
arrow
organs
rooted
stip
boise
concessions
coveted
plagued
ik
tapped
capturing
swiftly
skeptical
fb
ub
##zan
donovan
yac
danielle
narrowly
nielsen
consortium
lte
##rod
beings
varied
compromised
pearson
vacuum
tina
seag
##ieu
cobb
##ultz
armour
malware
laundry
societies
ramsey
osh
nooz
alberto
hut
individually
verge
sag
##endale
##ourg
clement
testament
revive
females
wishing
seated
braw
monop
quo
gallagher
1978
perspectives
farewell
grit
outsc
slap
cautioned
inconsistent
prairie
lifelong
##iaries
##inis
##iza
labeled
undertaken
bahrain
contaminated
vogue
onc
clips
planting
integral
##patrick
insuff
expresses
allege
feast
shortages
consume
floral
homemade
revelation
cans
airbus
kingston
##rella
literary
congestion
gs
arise
swall
summers
positioning
audition
outsour
zamb
notices
addict
121
eurosport
malawi
mortality
##kett
propose
klein
fresno
##esco
welles
uniforms
bisc
##stad
##agers
unre
quin
symph
tuc
##pec
triv
##uchin
concise
metre
pushes
relieved
socks
##annah
layup
fict
##note
proudly
bournemouth
handles
erie
surfaces
##etical
bankers
##boat
embracing
beneficiaries
yas
staffing
semester
horiz
shaun
nou
tyson
##anagan
handc
canadiens
fountain
dioxide
zar
##ouring
##gee
practically
fragile
quarterfinals
bermuda
cbi
norms
##eze
dried
donna
insert
pulls
padres
correctional
mechanisms
barclays
##dings
goose
succession
oilers
departed
reliever
eased
##67
##asis
beacon
perkins
moto
msn
proposition
hobby
rees
##izers
undergrad
smack
cannon
separat
microb
thieves
coconut
ds
dorm
##iating
##ulia
##aleigh
purse
accomplishments
gast
fors
prey
rai
eyed
halls
gc
##41
pratt
designing
reneg
salvador
manitoba
ians
saturdays
envoy
265
preceded
baj
crane
encry
automobile
outfielder
xxx
dumping
prolific
resilient
imprisonment
cout
communicating
anticipation
consciousness
guinea
##hma
carm
popped
underwater
rhino
wald
##rose
9am
mia
outsp
##iko
housed
pediatric
bashar
##stra
##sworth
recognizing
therapeutic
##uers
expires
sliding
staffer
##iesta
observatory
interfere
frames
respects
##liner
strengthened
exploitation
##wi
inexp
215
denounced
##getown
fairness
photographers
varying
goo
thrilling
##imburs
nicely
cows
##69
thames
##quis
31st
ou
touted
traction
herman
glove
midter
spacex
tesco
bengals
delegates
bargaining
mourn
tand
stump
##empl
homelessness
plains
plowed
considerably
catalan
cob
verb
consultancy
hailing
grapp
herb
serie
netted
222
christina
##glom
rewarded
invasive
bracket
builders
honoured
##iji
elliot
dresses
rouge
functionality
premiership
wem
triang
205
reset
annex
masses
bowler
sponsorship
reconstruction
##card
synth
vitamin
nonsense
dang
reimburs
outp
downside
prohibit
aluminium
abnorm
fp
lut
yelling
##ainted
madness
mindful
nephew
wax
singers
illicit
fifteen
nicholson
deadliest
florence
skiing
tiffany
##estoppers
##forward
discharged
##eur
cleaner
whopping
ars
circus
laden
byrne
flies
##etto
##iciency
apollo
ordeal
scholarships
inevitably
cycles
phenomenal
jedi
##face
reasonably
patriotic
nutri
supervisors
##vet
chased
optional
debts
saunders
29th
tendency
orioles
mcilroy
lithium
##change
globes
sourced
cheers
dunn
incomplete
lomb
wast
varsity
##via
servants
fares
1950s
magnificent
##isible
apiece
lowry
injunction
elegant
##z0
spite
sanjay
watford
escalation
##hes
incomes
slogan
develops
substances
chaotic
illnesses
martha
cram
ambr
##efa
cms
rats
governmental
fairy
counters
plunge
fatigue
miz
pest
##oding
margraves
##atham
variant
selena
corrected
rupees
surcharge
playstation
##ovak
insane
dragons
weighs
joking
tata
spac
playground
probable
segreg
thanksgiving
##mn
shores
fries
packing
empowerment
##udge
##soever
warfare
301
encomp
literacy
subsidiaries
pelicans
ctv
##cor
constable
berkshire
watkins
shelton
##tw
##edo
humane
ensured
picnic
instruction
##thritis
exempl
brennan
blanc
mnuchin
classrooms
portrayed
schumer
maturity
recount
ballots
##uffs
patrons
exploit
spat
disasters
mae
settling
sympathy
yates
##ados
shapes
shea
champagne
designation
forecasting
interestingly
bangkok
conglom
distinction
sovereignty
moisture
hoffman
hulu
distraction
assistants
1975
bakery
headquartered
wah
collided
hampton
voluntarily
portsmouth
tongue
wholly
50th
ceremonies
bates
ming
pact
suarez
clare
explored
macdonald
railways
##continental
chennai
##fw
anush
drown
##iani
tyres
wen
tran
caliber
improves
lup
tir
accred
maya
jeep
unsure
widow
rpfl
hc
##eting
enacted
escalating
undertake
mcgrath
xx
##fp
backpack
assure
metrics
prostit
aspirations
proteins
attitudes
hurdle
batsman
muhammadu
stems
##check
soaring
interventions
##ingham
goodman
happier
nigel
barca
##ophe
welcomes
incorporate
jewellery
bere
zoning
##kan
##eshire
cleaned
certificates
amir
georgetown
attributes
soda
nude
expire
politico
curling
brotherhood
reservoir
woes
##osta
cluster
donating
##ieri
listeners
guitarist
impeachment
##hurst
kne
##oya
reopen
somerset
nsa
shortstop
creatures
proposing
willis
suffers
prisoner
klan
buffett
stalk
##azed
sixty
curios
flagged
shutting
jacobs
trespass
soared
##ango
##cripts
filters
pasta
feminist
kuwait
strapped
emmy
basics
contentious
auditorium
emanuel
frankfurt
rope
hag
##manship
staggering
poc
antar
peacekeep
##kirk
johannesburg
whatsoever
144
looming
vibe
gan
growers
crisp
saddened
tailored
kristen
5pm
##poon
##uner
##enny
sincer
##just
##pps
customized
wembley
##turn
##roots
##raj
1971
consolidation
stamford
##61
##arium
paige
bulletin
reyes
blasio
submarine
##izations
reunited
barbecue
##onies
##anas
rooney
steer
personalized
lend
rena
progression
congratulated
catering
cind
##shaw
denuclear
tales
digits
oht
rewarding
shakespeare
kum
acl
amd
demographic
webster
installing
atmospher
##iper
marina
timet
cald
economically
cancers
straightforward
inputs
relentless
spearhead
claud
rooft
competit
##pleas
thunderstorm
jurgen
goaltender
redes
liberties
thoughtful
disappearance
godaddy
pairing
categor
masks
4pm
huck
stoppers
shaping
valve
augusta
stoneman
breit
airstr
massage
envision
greenville
cracked
concentrated
unsuccessful
##acas
fashioned
dominating
reservation
gly
wives
socially
refin
divest
balcon
hansen
hond
sore
adoles
confusing
listings
jenny
##jans
thriving
280
bulgar
traject
avenues
##ycl
forem
saus
scoot
inspections
destructive
3m
bore
##journ
enduring
wonders
garnered
raleigh
##89
paulo
undefeated
prolonged
##jection
##mill
##ciation
fraudulent
£20
##hen
finalist
judged
##times
onion
viewer
misin
baghdad
accepts
empathy
apologised
defeats
kazakh
telecommunications
bum
tara
uefa
##rina
hew
exac
abstr
keyboard
pablo
##yton
cried
scoop
characterized
uploaded
unanimous
outspoken
jub
alib
spinal
cracks
disreg
advising
stressful
sputnik
£30
grasp
uss
##isman
avalanche
realm
##ickson
fist
wo
thwart
harley
trooper
nicola
dnc
sears
##asan
##usk
beautifully
libraries
spinning
exacerb
shack
disposable
cyrus
##63
##ishi
institutes
restraining
laboratories
1969
bac
zak
parkinson
##hamed
materially
husk
demonstrating
boris
##names
salon
hanson
##mag
##isher
##istries
##nataka
gum
elaine
##43
##avid
fielder
damasc
sands
emphasize
fishermen
bundes
pistons
kd
popping
##fts
##ayi
##bern
scat
airbn
devos
uncomm
gamble
##mings
##icism
1500
enforced
stretching
catalonia
dipped
jugg
##icable
adele
recognizes
liabilities
tribes
utilized
altercation
##ipher
reductions
marker
homec
buzzfeed
##hacker
flaws
sutton
chorus
pew
indonesian
hust
nah
clashed
prescriptions
broch
##inke
mustang
foremost
recap
256
analyses
##orah
marj
therapies
##acity
glow
allowance
vienna
particles
karnataka
candidacy
demolition
beam
149
taxation
prohibition
coyotes
##usters
amster
behave
responsive
##echnology
shred
sap
strive
elk
skid
circular
exceptions
dictator
nitr
##odies
freeway
banker
arresting
crosses
minimize
cubic
sculpture
gerald
chal
realty
sanofi
rescuers
concludes
chichester
dee
magu
grassroots
damascus
hm
hover
##buds
humili
deriv
scandals
##base
##rent
1800
travellers
moose
compliant
khal
autonomy
ohtani
##vie
couture
##ounter
santiago
airbnb
brag
165
creditors
partnering
koch
avenatti
salvation
2pm
##orship
porch
predominantly
amsterdam
iw
##elia
whales
robb
egreg
controller
pog
policemen
bonuses
##stead
overhead
seizures
zomb
mixing
grabs
anonymously
jorge
bind
##loo
##escent
##imental
##essional
eva
distract
crimestoppers
geographical
##cane
delicate
composer
sioux
wolver
enthusiasts
busiest
farrell
##prints
##aneous
cryptocurrencies
persuade
138
premise
##araj
##ieces
beaver
discovering
discred
nursery
deported
nairobi
dart
##uve
toled
shining
##ignment
backstage
pouring
reins
peek
specially
socio
parkway
erosion
termination
fingerprint
reproductive
storytelling
bally
ion
##bies
##being
310
museums
utilize
kers
nex
abusing
angles
savvy
umbrella
dare
ler
circulation
predictable
hastings
pw
thes
seals
receptions
suzuki
a3
pony
##72
leigh
overweight
invented
grounded
##guards
jok
khl
sik
##enos
##ubs
killers
competent
landf
boxer
shrine
acknowledges
lincolnshire
squeeze
nerves
influences
academics
frederick
clo
mayfield
refuses
acoustic
keral
##isen
##soon
misch
##lyak
takeaway
401
battal
reinforce
descend
appropriately
##bold
##amps
##wayne
intra
revoked
entrants
inspectors
overwhelmingly
voy
ministries
hourly
##mington
responds
trainers
ranges
specified
rejection
gossip
engulfed
sochi
##azi
metric
costco
extensively
developmental
necessity
langley
judgement
dessert
spani
brakes
gron
respir
negatively
##igs
needle
excer
maggie
vulnerability
ruin
taj
slave
stef
franco
apologise
buttons
wynn
affirm
therm
definitive
mgm
compatible
kindergarten
bury
gors
huss
zver
##uman
sparks
upbeat
141
blitz
optical
unic
yorker
freelance
professionalism
##iotics
ji
##edict
dew
adher
##avi
valent
##ija
poles
intercontinental
inaccurate
surrendered
lure
peps
successes
##afa
kabul
wesley
cosmetics
hos
kun
##isers
shim
solved
##ycled
watts
irrigation
hondur
##tel
purely
gos
tc
retention
slew
punct
keny
palestine
distributor
cola
nim
s8
sans
##making
gloss
plead
grandd
swims
punching
kislyak
porsche
uncommon
wylie
framed
newark
elvis
breeding
mcdon
cooperating
imperative
antibiotics
disgusting
zanu
unrelated
defamation
zverev
##reports
shiv
strokes
obl
excav
typeof
cracking
predicting
stemming
inherited
bahamas
##arty
compounds
##uggets
jumper
symphony
curiosity
heel
chunk
villagers
disregard
##zes
##track
##ogram
defenses
advertisements
misuse
rhimes
##habi
showcased
mtv
##inational
shen
arson
madden
kelown
comfortably
wto
##71
##iga
handout
authored
gradual
brooke
cindy
toledo
blackhawks
prosecuted
shutout
noozhawk
sark
stokes
thrill
chron
##official
unexpectedly
dancer
algorithm
##rt
##stick
agr
staple
##gars
##ibe
##ensed
marketbeat
standpoint
homest
kerala
##berries
contend
gowdy
flesh
honoring
moses
enthusiastic
populist
lent
##qa
marcel
thereafter
##ensual
##tingu
wellbeing
factual
baylor
morton
lesb
algorithms
proactive
untr
villanova
obstruct
shap
coloured
multinational
trojans
pharmac
kidnapped
claude
rin
behaviors
ingredient
cuisine
egregious
extingu
swath
excluded
mund
napol
stigma
buoy
passer
sentiments
tighten
victorian
maximize
fundamentally
##14054
cuc
##enza
ashamed
neon
racially
architectural
absorb
foundations
statues
subjective
dissent
ebay
preserving
nawaz
mong
##assed
glance
negotiation
##7414054
yacounter
yacounter7414054
##urable
privat
archbish
stuffed
bodily
bake
amer
poem
mortg
squeez
diagnostic
gag
bez
amit
monarch
harare
policymakers
criticizing
mortar
translated
trajectory
trout
armor
tonne
casc
lank
refinery
collaborate
##ilo
adid
##avis
phel
roses
rejecting
dude
##hist
countryside
farther
tagged
terminated
warsaw
griffith
sewer
##broken
charming
cornell
crosby
##olves
detonated
disprop
tories
realizing
freak
1965
showcasing
remotely
skripal
msnbc
##erting
andres
stopp
##ovals
rosem
comprising
smoothly
lily
##olk
underest
##ussia
concord
##affer
tayy
cumber
##icz
pras
brant
phant
parag
doubling
parenting
mahm
xiaomi
##wen
newfound
marvin
ames
emo
arrange
branding
utilization
##gowan
mk
clara
mccoy
undertaking
bentley
humidity
chrys
jarr
##amar
tunes
aesthetic
nuggets
ree
##gro
##otta
combines
sadness
pumpkin
tread
##urally
unpr
libyan
satisfy
ounces
##iology
ceos
marshal
##sch
##idia
roh
nicar
##liga
spiel
activism
malta
escalated
caldwell
ruff
queer
rizz
##emia
##ifics
monter
memorand
akron
courier
##ricks
##laus
tenant
eyebr
acknowledging
msc
favored
reacting
karaoke
sober
revision
snowfall
sandwiches
cud
ort
indoors
##ullo
shotgun
torch
ashes
##radio
##goers
circulating
memoir
spanning
disrupted
poker
feasibility
##rc
unwilling
reigns
jod
rink
##olis
powerhouse
driveway
pipelines
cosmetic
slog
slovak
veterinary
scotts
biod
lively
uniqu
##orns
inspir
tanner
##ograms
intoler
##´s
forged
abdom
##okovic
internally
sunrise
sparking
aborig
belly
133
angus
bick
cheryl
crimea
influx
1964
dense
kogan
shale
hefty
commute
edges
gerry
amounted
compares
tenth
minerals
hue
##bot
##hern
disgu
caleb
alcoholic
barkley
conscience
rant
slash
logical
respectful
albu
ecu
unfairly
exhausted
ernest
mata
##dan
##cano
##elyn
demise
finalized
freedoms
culpr
icy
wak
throne
coca
otc
hemp
imf
deadpool
365
pell
defect
depressed
erad
stormed
tangible
lum
staging
sabr
##abh
darling
ivory
fractured
disproportion
arbor
stationed
blazers
aet
hints
induced
guides
emergence
mersey
ses
##ono
unequ
confron
stockholm
abundance
prevents
closet
rebell
whitt
chopped
10pm
djokovic
cpi
smuggling
##querque
##64
##utory
reese
colbert
##ophies
arbitration
cured
##abi
communal
protects
greeley
tomato
albuquerque
ousted
toc
##elin
shaken
afor
barring
fastball
assessing
dg
kip
kau
nir
##vu
pleading
enlist
eyewitness
mits
felix
grizzlies
##fir
##isal
##asket
chalk
commands
receipt
mcder
freeland
selections
lingering
mcmahon
kre
excuses
fortunes
harassed
traits
bathrooms
ding
toby
goff
anzac
flir
blackburn
##hampton
timetable
4k
moin
##alous
##amel
outings
harr
upgrading
fidel
reconsider
onboard
bundesliga
respiratory
kob
##wives
##atem
##uled
##iche
insufficient
dhabi
woo
##fun
alger
##opal
seize
##ceptions
downloaded
weakened
##mind
##urg
frater
mang
calvin
msp
inquest
perpetrators
sketch
kp
##andro
##ementioned
edmund
preserved
aforementioned
wj
##isley
outline
pressured
pumping
##enzo
vaugh
exotic
betty
syrians
glorious
southbound
prototype
restoring
systemic
mccr
cena
##fin
spoon
madh
bishops
alvarez
prevalence
bair
mesh
##ocation
##ivo
historian
cottage
rl
spree
slater
readily
varieties
divisive
psychiat
ruby
maxwell
microsc
gorsuch
rn
alonso
freestyle
##city
##hift
enrique
downhill
##fu
burlington
##izzle
scouting
sinking
##ifiable
downward
indications
speedy
inventories
berger
issuance
memorandum
rv
##cut
diab
burnt
cj
##hra
donnell
320
protocols
tayyip
shattered
fry
specify
transforming
foam
nadu
##lifting
metabol
tant
##hm
##iona
weaver
schul
wildly
bronx
2000s
h1
##hel
inception
shank
revital
vanilla
baggage
ecb
magnetic
jennings
lumber
##frey
exagger
aclu
##troll
harold
curated
proposes
tulsa
statutory
pats
139
footwear
216
footballer
tactic
adequately
gently
thigh
skir
swinging
archbishop
roch
refined
tomlin
kenyan
papad
kissing
alexandra
wiped
##writers
symbols
fah
pne
##aney
mighty
savannah
kaiser
siem
whiskey
##estershire
##urious
##osexual
##icking
nyz0
deduct
sacrific
foresee
redevelopment
carolyn
shrink
##roads
tighter
##itures
overc
glitter
clarified
readiness
mcgu
mattress
templ
gestures
##iston
allerg
redempt
ramadan
intentional
quantitative
surpassed
5m
lue
slides
smallest
chemotherapy
sodium
xen
perimeter
crest
exposing
sword
##biid
breitbart
##bilt
##armed
##idad
##leigh
interrog
wraps
borrowers
hutchinson
##iegel
sulf
##enched
boliv
carlo
crowned
sync
impairment
##bons
commended
##eyer
newsday
cait
derrick
spreads
fulfilling
dalton
##sty
drif
1966
laurie
escalate
jpmorgan
herrera
nationalism
##worthy
daytona
ti
##tic
##des
##jri
##asth
earl
paced
thornton
affirmed
tunisia
wigan
loos
cheering
prosecute
methodist
hypocr
bunny
boutique
renaissance
dz
mama
tapping
famer
lasts
unsett
franchises
eclips
surroundings
falsely
##ongh
##ryn
potent
commanding
boulder
prow
groped
##actic
##awar
gloria
##mino
faction
thirteen
contingent
kins
pend
##elight
ches
teaser
northbound
builder
satisfying
meadows
wink
##rical
##00m
rodney
ribs
gentleman
disqualified
lago
vag
##emma
latino
lancash
q3
bowie
scranton
3000
borussia
filmmakers
seizure
extradition
aster
specifics
ironically
cfo
atmospheric
weston
fallon
texting
katrina
mitigate
cbd
bounds
transcripts
avoc
embry
abbey
poisoned
##abil
supplements
apprentices
sanctioned
yacht
##hh
chilling
##ologically
altitude
homecoming
defends
raft
churchill
constructive
##bard
##ollah
guiding
oaks
promptly
hort
vw
embiid
smarter
metr
diluted
##uu
tril
paypal
qualifications
##offs
imagery
scorp
livelihood
##bys
##pi
quiz
billing
db
##amon
atomic
crumb
dishon
vie
gunmen
practiced
odor
shuttle
penned
parameters
legitimacy
discontin
twisted
browsing
coronation
yere
##vance
estates
volunteered
illustration
##arus
##ido
##idan
##agua
cron
1960
privileged
refreshing
bribery
reaffirmed
ans
colo
omaha
mechanics
ned
sous
tj
##iated
##quest
workload
gunners
applicant
chaired
upstairs
##73
##eye
regrets
enjoyable
lifts
rover
endure
instability
protested
demonet
carlson
adjusting
928
elevator
nvidia
brittany
lawson
volcano
gerard
cooks
mandated
##user
##iferation
coats
rematch
charism
airing
irrespons
rentals
pardon
##itan
exited
##ogg
flake
parap
advises
landry
lambert
relaxing
wb
relates
parcel
schwart
augmented
paula
klux
comparisons
##jriwal
zion
##hole
##sted
##osit
pert
attain
hardship
irvine
approvals
##gae
unemployed
orthodox
orphan
420
dand
carly
weddings
baseline
irwin
ritual
##idu
projecting
explosions
allevi
insulin
preventive
misunder
yerevan
lng
##pes
roundup
translation
lungs
peanut
##gon
spieth
rauner
probability
woodland
conglomerate
une
arun
assam
easiest
ruined
clifford
jeopardy
congregation
chrysler
tart
##onte
waterfront
biom
colombian
utterly
cbo
render
##fred
##irable
shak
leasing
impart
possessing
##oxide
##cliffe
degener
unusually
##kal
schiff
centric
suscept
bites
jonas
qaeda
lur
##ysis
patio
celebs
understandable
##lair
##lem
discomfort
passive
prosecuting
jonny
hank
cro
cleanup
##2017
pavement
wrestlemania
pneum
thugs
chili
counselor
casualty
buns
empowering
lancashire
awe
##lamation
occupy
blankets
coo
undergone
similarities
disciplined
fulfil
bbq
contamination
eh
unear
guatem
capita
roadway
greenwich
creature
misled
bullied
witnessing
##kirts
vanderbilt
honduras
lash
accuses
##icked
roadside
eaton
mentions
crypto
ribbon
accumulate
overlooking
telegram
puzzle
hoy
hitters
fren
alibaba
lime
##lift
withhold
arv
graff
crushing
##grass
flame
retaining
avid
legalization
biased
pathway
waving
grac
firmino
possessions
rallying
ivy
##wid
##ayo
mee
ops
instinct
homered
##kei
foil
guerr
mortgages
yel
seasoned
179
explores
makeshift
odi
passwords
coutinho
##journal
moines
za
monsoon
carb
bluff
replies
##zzi
proceeded
dwayne
moll
norton
centennial
mcfar
exhibits
drums
##repres
diagnostics
ely
lax
manley
##eatre
patches
nif
##sein
boe
circulated
progressives
tipping
disappr
plaintiff
tucson
ons
lifes
dudley
shaz
notify
typo
campaigned
spectacle
cyclists
knoxville
nix
##eet
impending
proclaimed
illum
balk
sene
##log
brunch
manor
parr
##insights
africans
paddy
570
dragging
dwell
##lib
##58
updating
spacey
wilderness
engineered
480
pioneering
peck
##andra
aboriginal
higgins
adr
rao
discounted
chung
fridge
intu
kejriwal
postal
dillon
crescent
hooked
wicked
asserted
vivid
##abee
swamp
robotic
cummings
kemp
clue
indexes
pinned
scorers
vietnames
vietnamese
zoe
tha
##orial
burd
rampage
ricardo
##emar
##itez
fielding
##ijah
kicker
escorted
sidney
slaves
continuation
epile
golfers
outskirts
dazz
nina
groping
127
objection
waterloo
installment
rumored
undergraduate
gra
durable
affiliation
backlog
bung
1947
manhunt
spielberg
dowd
sig
##51
flurry
crem
bowman
werner
admiral
zambia
trac
parc
registry
tackled
anushka
kom
mh
pint
specializes
bolst
therapist
lavish
stevenson
semitism
caregivers
guru
suk
##odo
marines
avon
analyzing
kazakhstan
fiat
##olia
sax
mcgowan
sonic
revived
taco
interrupted
backward
servant
reth
pickford
sexuality
bernstein
lads
nikkei
solicitor
maneu
balcony
cels
##inqu
phases
1950
booming
slapped
mapping
boro
tanz
breaches
flawed
clarkson
fad
##kata
grape
daytime
simulation
pads
jaime
cah
yan
##last
##beck
everett
petitions
wizards
napoli
rih
vid
##storm
##grove
jealous
benitez
attribut
battlefield
rubio
professionally
ingram
khloe
mab
##inness
meyers
severity
liable
##ipei
aetna
##uchi
182
razor
yonge
poultry
haj
tristan
artif
137
solomon
deepest
unveil
negligence
herds
regrett
depress
storyline
austrian
fearing
gregor
inherent
bugs
cyprus
semiconductor
jh
##pers
orte
grilled
contributes
##avez
professors
counterpr
consequently
santana
bombardier
taipei
exploited
mri
carc
invisible
formid
boil
simone
wipe
£9
deed
ideological
krish
inflammatory
sult
adhes
tampering
dome
petr
remembering
width
##ozone
averages
dong
strings
succumb
bowen
hurry
luxurious
oscars
dt
wanna
##uming
backwards
equation
garros
royalty
carpenter
sneakers
johans
descent
##lessness
resisting
ortega
smoked
syner
sincere
empowered
celsius
pn
atkinson
##amphet
schu
chrom
repaired
accumulated
cholester
kessler
indecent
vague
humour
tightly
pk
##hed
##estation
offline
operatives
cinemas
kand
np
orb
##reeze
knives
boone
surging
openings
##ukes
versa
hormone
vom
##von
shallow
4x
cakes
meditation
authorization
bravo
kershaw
##aan
indies
##mins
raping
feeds
kuz
congratulate
aad
##las
##enary
chavez
diamonds
spells
formidable
qc
##gt
##86
haas
##ieve
gluten
147
promo
futur
urine
bihar
venus
fibre
##answ
peyton
benefiting
encouragement
weighted
await
reinforced
unauthorized
tanzania
##bag
alum
chiang
trunk
battered
consisting
zachary
weaknesses
forbid
slumped
cambodia
rooftop
midland
mckenzie
toilets
nrl
##birds
cholesterol
vonn
asean
##about
##apor
gramm
275
aspiring
honorable
lengths
vinyl
pigs
bothered
annoying
repeating
battalion
caret
patty
brewer
punches
deliberations
obstacle
lafay
abnormal
tib
##obs
turbul
bert
##oice
blat
granting
contributors
ting
##bear
methamphet
rotary
bored
strongh
staring
sitcom
jacqueline
monopoly
lugg
stacey
hai
strick
##atorium
argentine
guyana
atroc
adidas
3s
goth
##cz
##atisf
sao
##quette
barth
lego
violates
outdated
kimberly
pamp
tate
spilled
barre
airways
##thal
ems
blows
152
136
classmates
allegiance
varnell
infants
mural
wilmington
baku
tahoe
##ecure
sak
progressed
tasty
hussain
lafayette
comcast
nowad
calder
restraint
reversal
penc
##bags
mons
scots
##web
catastr
terminate
paragrap
nicaragua
rizzo
apples
condo
copied
figuring
rowe
equaliser
collegiate
nowadays
waking
yar
##cm
##core
##lia
grin
limerick
balancing
scoreboard
naomi
sofia
brochure
unhealth
cara
##velt
reminis
ideally
inflicted
projection
laurent
fuelled
coatings
glamorous
lenses
ranger
colangelo
168
gunn
renee
renovations
distributing
strawberry
unleashed
kieran
##vic
seism
drastically
146
uran
cinematic
granite
laptops
newcomer
roc
mcaul
millenn
bale
yak
##icacy
reit
proxy
valuations
modeling
rubbish
tastes
vaccines
prostate
##cup
expelled
consensual
##pring
councilman
generates
emoji
senegal
##acki
resurrect
drainage
provocative
alpine
fellowship
renegoti
tt
##orie
flock
honesty
cly
suffolk
restraints
eldest
expenditures
iphones
rost
exeter
invites
haram
chooses
cameroon
automaker
texture
replacements
pogba
dion
##mott
##anni
volunteering
##walks
aided
pains
marble
elijah
api
156
captures
##cloud
cheered
franken
rodrigo
mickey
reassure
wasting
finch
madd
remarkably
ipswich
glacier
sparr
goat
##actory
messy
tvs
entrepreneurship
luggage
obr
##pace
chlor
seaw
hazel
estranged
jax
tsa
##full
##edonia
##olu
surreal
debit
mcauliffe
cac
linger
vog
##ackers
roe
ahl
totaled
aleks
stainless
##imi
plas
lookout
131
balances
recalling
reminding
forums
kolkata
sz
##mt
##ongs
squir
perfection
journeys
expedition
reim
##umbs
##ksh
##ilee
variation
paints
buccane
jensen
unansw
enlight
slick
soundtrack
biotech
woz
chipped
bras
##enews
exercising
aziz
belongings
daunting
patrols
curtail
fronts
hier
ipl
textile
wilkes
competitiveness
dino
##herty
herd
losers
sounding
proceeding
ridgefield
disgraced
riyadh
shazam
bian
##inth
159
151
theatrical
##keeper
tacoma
plight
##appe
logs
layout
columns
smiley
##ked
opting
toggle
scream
annualized
518
julius
diverted
oj
sse
##oku
groin
##ibo
barrow
teddy
seamless
dickson
ama
ulster
punt
novak
namib
208
pro32
##assing
signings
mcin
optimal
astronauts
invitational
forge
##iants
##ultural
deplet
290
cheat
pretend
melaye
marian
bios
osborne
3b
kale
sis
sasha
coven
##azing
153
confined
halep
predicts
0800
stoppage
ia
##sbury
##atra
marketers
dictators
spaniard
platt
leaking
##gren
sanitation
groundbreaking
melting
introduces
zhang
fridays
upwards
emery
gardening
bells
exemptions
apprentice
rak
##atement
##owell
politic
overdoses
##enhagen
##code
##atri
##inkle
painter
bedford
slept
collector
cruiser
ellie
lill
wk
##itating
##antino
outages
cripp
148
casinos
detectors
chandr
rouhani
qualifiers
spacecraft
##mor
shadows
indefinitely
redemption
frem
varg
##mk
##ombo
destined
heroic
chopra
##ols
prints
##odel
medina
keynote
heartbroken
scrum
mentioning
gearing
gour
lush
embattled
eaten
##sports
pumped
surgeons
sheeran
methamphetamine
aless
dealings
selfish
dissem
mckay
jog
##iently
tray
compuls
##ulton
shortfall
scheduling
dimension
jait
outscored
doses
amc
##atural
142
lauded
footsteps
administrations
hoover
gregg
manipulation
faso
kia
##cely
suites
##ensional
myri
specials
summoned
sensible
supplying
merchants
wielding
corm
pike
##felt
weimer
camel
waivers
godd
transferring
splitting
advocating
yankee
unanswered
hasan
arthritis
overst
rhodes
cables
princeton
ronnie
ym
##lc
baron
ballroom
bowled
warranty
rajasth
traffickers
sibling
##hua
##wig
reposit
airborne
sustaining
amphith
anatomy
underpin
confisc
screened
screenings
intensified
inappropri
olivier
lauderdale
fug
waz
stacked
skyr
interviewing
outlaw
fouled
tav
##hap
##axton
morph
swipe
strauss
proliferation
offensively
rae
stripes
innocence
##dahl
##imen
exh
sponso
factions
involunt
motives
urges
ridley
##08
recycled
schwar
snp
houth
peterborough
naira
burkina
midterm
pb
##elu
twent
reclaim
swir
copenhagen
loft
rainy
consulted
stringent
haunted
##ighton
recep
myr
lavrov
unhealthy
##asion
##usp
commenced
splits
bundle
jurisdictions
hectares
undermining
inhabit
mkh
##62
cougars
extrav
asthma
rwanda
melanie
sincerely
thu
repub
crises
vale
unspec
referees
divorced
trophies
candles
dmit
disturbance
ome
vil
##fb
##zn
##ande
belts
mercer
laguna
overdue
sarg
canucks
##gev
drowned
##crowd
descended
fictional
fade
yelled
stras
wray
lieu
shrimp
albania
dary
lashed
morales
rounder
frankie
measurement
advancements
siege
mens
##girl
##acion
underwear
supermarkets
banana
bayer
dentist
henn
mous
oecd
zid
elm
referenced
alternatively
dodd
aliens
renovated
aubame
rents
shor
##ppo
goodwill
displaying
tavern
sabot
aubameyang
canton
jade
kear
£50
##ayan
heidi
spiral
866
inspirational
jaitley
kud
wein
inclined
thrust
homework
154
calip
germans
breastfeed
cyclist
lazy
tok
sums
sunlight
sexton
israelis
motorcycles
supervised
sasik
rihanna
nec
##isans
cove
westbound
mornings
kimmel
macau
overshad
nickname
pederson
##anto
becky
cites
frenchman
relocate
eduardo
spartans
stratford
wozni
##advert
friction
##echkin
sleek
£100
narcot
merchant
abolish
##hardt
chattano
gloucester
dix
forc
commend
realities
basil
lansing
##urances
suppress
businesswire
julien
cerebr
skinny
nicot
validation
neglected
seventy
blooming
deng
##store
whirl
specs
strategically
dani
icons
homeowner
meteorologist
rajasthan
unspecified
narcotics
iz
carmen
stockp
curtain
snowboard
chamberlain
mitigation
discourse
smackdown
lesbian
merseyside
auss
gyn
grays
partition
obese
financials
galway
disneyland
omn
jio
rous
trot
edgar
advertised
clinched
occupants
meadow
huskies
buccaneers
cider
##eri
spik
resent
destabil
sheridan
bowlers
utmost
##poons
sampling
coke
##nant
##tree
mondays
conducts
watering
gambia
coincidence
prevalent
abruptly
inappropriately
bauer
faw
##wolves
obsession
555
efcc
##film
nifty
zidane
##aic
adity
overb
bled
hussein
blogger
deficits
mackenzie
router
nutritional
brigitte
##osaur
spun
roose
blister
headache
objected
##cker
cue
fd
strides
formats
payton
clearer
224
occupational
msci
boko
spurred
winery
glendale
subt
refiner
235
toro
counterfeit
astonishing
nichols
quartet
kov
overcrowd
resting
hostage
1963
puppies
gina
bystand
440
fascist
mbappe
boasted
irresponsible
##erved
upfront
posture
angelo
theatres
stubborn
hary
longstanding
dynasty
daesh
gibral
inaugur
rightly
logging
miserable
euph
hoax
acceleration
fibr
imprisoned
kern
yi
##alone
downturn
suppose
looph
energetic
orthoped
variations
horton
##gc
depre
raided
subscriptions
baskets
lymph
javier
jaguar
einstein
ls
##eday
adhere
inducted
gubern
discard
143
gunshots
darker
sinclair
b2
boll
hanc
##enth
apac
slashed
campaigners
govt
sparkling
evacuations
horsepower
slices
susceptible
vy
img
demo
profiling
134
blackrock
renault
lyft
blogs
accelerating
crossover
##eliness
concession
chriss
##onymous
mudsl
landlords
rouse
##ente
stagn
##iao
marx
blasts
imperson
loser
richest
diocese
mccann
646
threads
marjory
wagon
##iem
##ombe
conrad
plumb
abst
accol
commentator
shrinking
andersen
cite
dvd
ubi
£85
##lb
diary
lii
microphone
forestry
friedman
helmets
trinidad
triangle
daly
##04
capitalize
##ophys
rss
deduction
embarrassment
immunity
rehearsal
##asketball
papadopoulos
ratt
expands
drastic
diversified
installations
virtue
praising
unveiling
quar
childcare
classification
arabic
exporters
benton
wester
traces
##ecki
avery
mackay
kendrick
arsene
phantom
hq
mistr
##anity
stard
shay
timed
sob
headaches
selfies
forecasters
squads
gubernatorial
hale
dias
325
gmbh
portfolios
chickens
bumper
myriad
fg
sok
1962
tumors
apprehended
nostalgia
sasikala
mou
uzb
weiss
nood
operative
phrases
vodka
semitic
compelled
247
populated
trusts
psychologist
hsbc
uzbek
sto
unofficial
ariana
knit
murdering
leonardo
ovechkin
hotspur
mv
rr
##pill
generosity
bully
embarked
sluggish
paraphern
pits
##ople
fairfax
separating
alek
drummer
cheerle
intimidation
##ophobia
landfill
intolerance
grud
##ynia
despair
malaria
unpop
betsy
kelowna
schwartz
mch
coma
spine
brighter
herbert
blades
denim
vegetarian
fiery
botan
penetration
grievances
##boldt
##hub
showtime
lima
diy
consultations
withdrawing
downgraded
oncology
mce
##rej
onions
emergencies
olson
nuc
##bly
##ecting
##abs
carved
intox
paras
policeman
damian
gods
dui
ibrahimovic
huckabee
roosevelt
##dal
##wave
arising
##onga
croc
caracas
insect
authoritarian
stressing
screenshot
manifesto
granddaughter
##enheim
carne
humboldt
ministerial
volt
breached
neutrality
sina
sloven
recommending
handsome
kalan
sergey
refrain
telescope
paraphernalia
720
gee
sings
##umi
##ellan
##ippy
kelley
rejoin
abdel
mirrors
diligence
sausage
polo
contacting
badge
heartfelt
aleppo
wiggins
##cross
electorate
eighteen
##hany
hazards
mdc
nish
bran
goodness
##erica
geo
goldberg
lesnar
vastly
sacrifices
geographically
pbs
shat
repet
rollins
actresses
forgiveness
rx
##tes
sage
##allah
impacting
marcos
gamers
kare
corona
eastenders
wakefield
portraits
refunds
gdynia
gibraltar
ego
lester
##dn
aces
quitting
governed
excel
assertion
patriotism
lough
spears
##incts
jockey
protester
societ
funk
marty
340
plateau
colonel
bain
negotiators
triggering
##atical
prag
perc
considerations
srin
iger
pon
##cht
leop
planets
favors
randomly
clown
upsc
arrog
samar
archer
whistlebl
rodeo
lamented
intoxicated
foy
hated
nm
nud
##erman
peach
smiled
doctr
coco
malls
orchard
rancho
hk
token
iso
hepat
##estr
resched
ethic
mandalay
mansfield
lobbyist
peppers
cushion
obrador
fumble
lea
unjust
snag
dwind
molecules
humphrey
unpopular
##akis
##akash
gras
winding
footing
denounce
veterin
condemns
scrutin
accumulation
wizard
pyram
hancock
##imo
tyre
##balt
##ogenic
ryder
bourbon
vpn
kee
157
deborah
reasoning
728
geared
exceptionally
horizont
##98
tox
royce
rhinos
nutrients
hose
kod
uv
uconn
landlord
##arella
##entin
##unts
##avers
underdog
gluc
245
370
commercials
rugged
abstract
haiti
##grown
blackmail
affordability
lhp
lund
endurance
waits
souls
priests
ecuador
monet
thru
transc
internship
garda
soros
demonetisation
vans
##hills
##fold
bred
theirs
artillery
recept
clubhouse
tomas
resolving
spinner
shahid
drunken
pesticides
amesbury
cboe
gend
identifies
multic
##ukh
hyde
discoveries
vacancies
measurements
##played
gore
vt
##elect
studded
##ometric
permitting
pursu
bangal
spicy
rendered
shiny
##chron
phosph
financed
matrix
criticize
42nd
dimensions
havoc
jeopard
tucked
zinc
##fessional
##atoon
##ecured
haute
flashing
schw
marketed
llp
galleries
##uw
##orman
##insky
birdie
exceeding
rashid
newcomers
cylinder
hath
lace
nys
hex
flipped
businessmen
idlib
citi
supers
unsecured
scarlett
frightening
arraigned
##bands
##mand
##orously
addicted
handmaid
technician
##burst
fearless
##aden
##usc
depicts
tuesdays
skew
strikers
psychiatric
raven
pupil
cinn
visibly
almond
applauded
##arious
parental
aviv
murderer
vicinity
intervened
enquiries
gid
nai
##jw
##mob
##aru
##ibu
medically
sixteen
denise
meltdown
bleacherreport
##corn
norwich
##phere
rebounded
70th
unsur
horrified
hannity
ymca
oman
toes
##pted
moreno
dams
cellphones
ovation
chesterfield
rutgers
##chemical
volcanic
vc
hab
ninete
lorr
##onna
##ecs
reich
roaming
highlands
statistic
obit
extensions
##shed
375
derbys
glamour
bureaucracy
##etter
fourteen
rollout
romero
declass
borne
adjour
bonnie
cayman
iguod
jans
##isch
##urp
##umen
visually
checkout
ensuing
##orrent
blueprint
constitutes
freddie
ngos
haryana
##ror
##ambi
##ifier
bravery
remedy
305
panor
batted
cocoa
istock
riots
sleeve
##cal
neville
peac
elias
balloons
accusation
hutchins
unfolded
##96
##plan
coordinate
detainees
ambrose
priy
shire
cobalt
norris
stewards
holden
analyse
protestors
manufactures
surrog
observing
motorsports
kai
vying
##fm
##omatic
onstage
##uli
exits
sperm
emission
regen
##iffin
benedict
resisted
rampant
vouchers
##ustomed
proph
leftist
178
pulis
piercing
colonies
stereotypes
prejudice
macy
##uent
##icidal
##endi
roomm
redsh
##aldi
frontman
packaged
inherently
txz0
uniquely
##200
tarantino
snapshot
demolished
prasad
##idel
marque
flare
metaph
malone
##baum
legalized
1948
hubs
chevron
evangelical
tbs
##hil
##ripps
incremental
debated
accessory
muj
loyola
floated
cullen
eats
tds
##hler
slack
billings
influenza
yielded
jacques
fulfilled
contraception
swimsuit
guatemala
hv
lbs
coated
playlist
##plex
richie
combo
attracts
tenc
##pow
cllr
##ells
##ierrez
edwin
slipping
senseless
bergdahl
trademarks
unravel
dnf
derbyshire
##lene
##imated
cleric
bogey
judd
understandably
rocking
scrimm
bailout
bait
awaits
sulph
##acp
getaway
blink
gund
beatles
neurological
fouls
discriminatory
refurbish
inexper
inconvenience
mau
ppp
ppg
alec
downed
hostility
heavier
promoter
##monds
borrowed
mathematics
##aday
goers
preschool
approx
selective
suvs
pamela
bard
gases
lilly
inadvert
wilkinson
chattanooga
##nels
##orpe
##etown
##awan
buchan
someday
dundee
kalanick
##aval
backers
confession
accessibility
breakup
380
exhibitions
scrapped
unreason
catastrophe
nx
nails
##hog
##oski
incub
blended
daylight
desirable
pageant
faulty
jerseys
honorary
handicap
graffiti
iguodala
##atus
lantern
bps
mally
nes
vou
##adors
beir
novels
janeiro
lebanese
sevilla
practitioners
##oine
alicia
##ogi
blackberry
shooters
educating
freshmen
dimensional
als
canvas
apocal
loof
contracting
rigid
mclaugh
softer
bharat
capitalism
merits
lonzo
groceries
pneumonia
wired
zoom
plank
originated
collaborated
gutierrez
nephews
##yk
paisley
remarked
duplic
ceasefire
suisse
drift
##urrent
##othe
mustard
ombuds
subsidy
vm
##52
shear
wrapping
insecure
custod
luncheon
compensate
configuration
slogans
5k
##zhou
reapp
##chin
seab
mins
systematic
matchups
nominate
translates
converting
styled
creepy
roasted
overcame
pri
##ilda
pars
rested
noticeable
tumbled
airstrikes
##gent
chow
needles
##ccfull
correa
distances
illumin
poorest
scanner
adtechccfull
adtechccfullstring
##breeze
chast
dover
legislator
provisional
relocated
pis
sj
abl
repurch
faa
stamped
caterpill
fitzpatrick
artifacts
cerebral
##oi
206
blackpool
europeans
stimulus
exile
sek
spar
unpleas
assurances
glowing
starr
lynd
bridgeport
cowork
analytical
maurice
lunar
eyebrows
pursuant
##awat
annapolis
restriction
hawth
medalist
shirley
fiji
scams
bett
harmed
##liners
clinch
entirety
##iciently
lucia
levine
disorderly
bribes
rows
##assi
slope
nearing
extinction
pubs
welch
drowning
sultan
##yards
##uta
##ouncing
underage
departing
listens
sourcing
denom
deadlines
toni
buzzer
trilogy
caretaker
omega
##pod
thief
##iltr
##oco
query
remorse
slipp
streamed
modify
homage
homicides
tributes
##ewski
khalid
737
rookies
scarborough
hendricks
btw
denuclearization
cess
nause
##ongo
posh
fixes
advocated
optimum
implies
auctions
tilt
##mount
##atal
scripps
304
corr
bookings
totaling
##lieb
dp
##asm
##acio
alloy
medics
focal
hotline
rebounding
affiliates
bucs
romanian
hens
presby
approving
combinations
rotten
##ipation
reliant
warwick
barron
mclean
lara
kluber
interpreted
attributable
clergy
organising
syrup
fatality
replaces
outraged
##ophobic
spam
pertaining
harding
honol
lifeline
referral
thesis
cif
heir
proact
prefers
defines
100th
manson
accomplishment
timberwolves
simpler
scrambling
maguire
rach
##gart
##map
##zon
##church
##ubu
buenos
safest
illusion
sonny
4500
ryanair
##ieto
hawking
amidst
tortured
chaffeybreeze
irregularities
mcfarland
mclaughlin
cerv
##qv
insured
efficacy
janata
variants
##ueling
##afone
earns
enrol
baff
thy
##arin
##omer
##ibune
prohibits
whisper
##erity
##inter
##arte
insects
pml
privileges
ignorance
duc
##atin
mcman
spirited
vacancy
##izzard
exporting
incompet
rebellion
poth
xf
ypg
##made
##300
courty
collaborating
sewing
explorer
sousa
bia
rift
##etric
reiss
##cro
infiltr
tracker
hoops
hwy
reeves
bangalore
oasis
trous
##oct
vald
aires
##gett
tripwire
fleury
dominican
concluding
vodafone
zl
##itus
scher
##erged
labelled
bottled
seminar
ortiz
slovakia
morne
nano
tug
weir
creations
collateral
trailers
levi
dwight
stalls
holtby
unpleasant
honolulu
expon
dray
##ignant
##velope
genetics
modes
drawings
ps4
ombudsman
aam
cisco
##jk
##aghan
adul
arose
envelope
merge
daisy
greeting
jasmine
curs
##cry
stealth
payday
176
strait
progressing
410
414
disclosures
accompany
catalog
golfer
uprising
hipp
##lane
##ensible
workplaces
remake
thursdays
231
pena
mergers
tearing
landslide
dic
mitt
racked
chit
mcle
replicate
fayette
unstable
gf
gong
nia
ping
tad
##dogs
##usable
teased
valleys
cornerstone
##itaryan
mcdermott
dap
raffle
zah
169
markers
45pm
ranbir
surfing
optimize
utilizing
ekiti
mallya
##iso
worthing
incurred
mayer
hearted
watershed
scanning
compassionate
insurgency
confronting
##360
##arie
widening
scaram
##rosse
unintended
bins
falk
piled
##olin
accustomed
endorse
secondly
ageing
tissues
mkhitaryan
fuj
gush
raging
##nt
##kw
orn
gardai
scramble
indirectly
chanting
atrocities
##gevity
belling
##nuts
shaky
spook
clam
303
15pm
172
hungar
italia
miley
bubbles
reproduction
kaduna
sleeves
lennon
quirky
950
grues
jude
thanking
delaying
deploying
marriages
zimmerman
adjourned
benson
dane
vall
vows
##horn
chess
demean
##annel
sophia
mourning
adaptive
mccormack
##green
##jun
becker
remanded
signaled
barric
charger
sexist
divine
karan
punitive
£15
paved
##char
spacious
adren
arb
inval
guang
joanne
garland
analysed
ashton
##illermo
froome
wires
##erry
claw
clamp
admire
garn
wearable
845
otto
lacrosse
gottlieb
grammys
unsurpr
clair
bests
facto
213
40th
hydra
gdpr
##enton
##igor
aram
##soff
elites
elusive
depicting
swear
chairwoman
barrie
warmth
assumes
1945
buckingham
ecc
rasp
guillermo
singular
167
geological
checkpoint
fertility
restricting
##eid
indices
straws
insol
module
employing
holistic
saras
tonya
robberies
caesars
withstand
herbs
commuter
physi
foley
millennium
cfl
yun
zam
fragr
ada
unex
unilateral
##bro
standalone
irony
refining
inspected
walters
##zzo
aspen
clarence
substitutes
cassidy
isabella
revisit
bse
binge
##cap
researching
woodward
renting
pulp
tumult
disagreed
tandem
dd
kyl
##tles
##iu
##pre
##ecy
plots
peripher
housewives
unload
transmitted
discredit
##rice
##wash
donuts
freezer
eurozone
injected
##appa
2027
diversion
pinn
dimitr
butterfly
pillar
quarterfinal
brawl
alleviate
##mh
##utter
chak
upton
imbal
##ilyn
demarc
esk
landown
waived
aws
carlton
ringing
coordinating
mckenna
huntsville
recounted
cpr
##esse
aca
spouses
authenticity
peacekeeping
##stakes
moh
##afi
cooke
vineyard
##human
vandalism
repository
dizz
##iotic
##ivision
204
##iffer
useless
quota
propelled
limitation
gallons
exclusion
capsule
fracture
genesis
complimentary
stella
peril
doomed
##coe
maternity
reflective
disturbed
foolish
convertible
kart
sars
hadid
ella
genome
##psy
regulating
venom
preparedness
interacting
implant
counselling
##arov
214
merry
axis
colourful
pledges
tatum
presbyter
cors
kett
sass
##uh
##mit
apes
waymo
chartered
marches
poems
atlas
fleming
chapters
scales
merrill
vargas
daryl
sinai
ejected
##estones
curse
chatting
hepatitis
scaramucci
grains
blends
depicted
despicable
hallway
sudbury
wrestler
mistakenly
tainted
##oshi
queries
oprah
1080
insulation
artisan
217
connell
worthwhile
opposes
gatherings
naacp
umbc
goodwin
swat
maddie
towel
plotting
bouncing
saskatoon
dine
##comb
schl
recorder
candle
rammed
quantities
mogg
##arp
neb
##ogne
autograph
midtown
commemorate
##lists
anil
appell
decree
evenings
speculate
panch
extraction
scenic
occurrence
enhances
altuve
latt
wifi
stained
##emate
crank
maternal
00am
fueling
##coun
interval
interchange
assemble
static
malt
livingston
scaled
sweepstakes
tolerated
paving
inherit
misinformation
wozniacki
bbb
jj
pasc
##hell
adler
brod
canter
##bride
northampton
236
generator
torr
woody
fulham
brutality
ebbing
bunker
refineries
##home
##zen
anom
aden
outcry
greenwood
acquitted
enforcing
salvage
hesit
shinzo
##rup
goa
ariel
lawful
sena
juic
boyle
##uggy
horgan
throwback
yus
zo
##bier
signaling
shorten
girardi
burge
deterrent
drafting
cereal
hateful
naive
redeem
leveraging
versatility
johansson
cain
##was
reeling
##think
anita
brim
freshly
superstars
fulton
keller
rican
##fy
##ilot
beech
hezb
brenda
strains
patents
##balls
312
advertise
##burger
definitions
lyric
ignited
cheapest
yonhap
gus
sisi
##vering
##esses
drizzle
scans
receipts
cupc
torque
celest
##ahahahah
unequiv
unsurprising
fences
plung
boz
gaut
cohes
eternal
onset
alam
willow
##oughton
oversaw
bachelorette
##vasive
dpr
##aniel
##unity
fintech
##azar
summar
228
tripled
rotating
elevation
wiseguy
enlisted
hezbollah
heg
plough
clint
coward
rendering
invaluable
##cat
##isance
anad
suicidal
medall
queue
juliet
deprived
zombie
lec
ubs
monsters
appra
waterproof
britney
viruses
wrongly
olsen
embold
elders
pulitzer
vegetation
stephenson
predecessors
prioritize
bulgaria
##dia
##cul
dept
winless
endanger
signage
fedex
penis
dimitrov
##aus
##cts
209
downst
termed
distressed
##dragon
romney
vulnerabilities
constituencies
1930s
positives
creep
bingham
##vay
##kit
upstream
171
mrfr
homosexual
caste
pearce
assignments
restrictive
tattoos
upstate
cnet
dah
notched
hopeless
samoa
commanders
##anath
perks
overr
barker
mcne
achilles
escort
lutheran
disagreement
wiseguyreports
##imet
mayors
servic
##working
crossroads
ridden
618
##frame
rudy
mcdowell
insulting
toured
wednesdays
dreamers
disrupting
wsj
pesticide
bezos
niece
##heed
##actors
procession
processors
executing
divisional
resigning
reversing
chanel
braking
justification
##ressive
relevance
sonia
sensing
lockdown
saudis
persecution
seismic
scrimmage
kul
nath
riz
##ologic
mori
environmentally
ranged
exhibited
rubin
tapes
dietary
uptick
morneau
##uti
explet
##fields
vanity
athleticism
dusty
parsons
cvs
nal
€1
##biz
unborn
breasts
solitary
diets
venice
brightest
mlas
pillow
continuity
replica
kyrie
avocado
2d
##olent
chatham
stric
scha
ethnicity
epilepsy
ail
dull
##elier
##osl
cheshire
##osted
soak
##oger
##ovsky
##weeney
swelling
citrus
earnest
elephants
crossovers
presbyterian
nis
brac
##olls
countdown
submerged
##ventional
1958
longevity
fraternity
doctrine
##hoe
thak
overcoming
162
239
greenback
pathways
bancorp
refreshments
enclave
bharati
stricter
nieces
##ainable
interrupt
11pm
propel
massively
emerges
malfunction
ambassadors
coupon
tanker
margot
relieve
gems
kph
pian
##inges
brits
211
ambig
##friends
dashboard
grooming
rethink
gould
tuss
##onal
cheng
blames
protagon
awake
##ynski
complainant
delightful
unconventional
relocation
turbine
erected
##haven
dex
guinness
##bson
##ulla
slots
viability
petra
curator
##zzy
mitsub
hhs
swn
##image
boon
maest
morale
sunni
angered
directorate
conditional
3006
hinds
appreciates
flavour
grieving
geoffrey
refurb
upscale
caterpillar
vat
##orph
servicing
maori
organise
pretending
##meh
influencing
defenceman
incorporates
mcdaniel
relegated
confidentiality
earthquakes
dmitry
##ogh
prank
chants
abide
##ondition
emir
##anco
earmarked
honours
probing
yogurt
orthopedic
##hop
##andowski
champs
captiv
430
calmly
loneliness
hampered
fingert
resurgence
skyrocket
diction
hig
jup
##ulary
incidence
drank
planner
moratorium
changer
rosemary
kram
##number
##wy
exiting
1900
##contr
gunned
tempo
accountant
dinners
papa
confeder
mika
##wer
leases
##angled
gameplay
diff
226
eastbound
awaken
domino
purge
##unga
senses
outsider
ultras
pomona
fills
##ienne
ingest
dove
##alke
beneficiary
dunham
kilograms
calculation
narc
rudd
mammoth
mitsubishi
##jas
strow
collects
turtle
persever
doorstep
lyons
brutally
rue
spies
offended
repug
usern
rechar
sheila
##photo
##beh
232
##ariat
julio
recharge
##rings
aldi
unused
##asonic
##weigh
varies
conceived
urgently
##ominium
resurf
assailant
slaying
expansive
scottsdale
ayr
##sburg
##lass
##allo
grinding
speculated
condominium
##tegr
stormy
##breaks
mentors
chatter
rigs
shanahan
deflected
##building
peas
insecurity
townsend
mickelson
##patient
breastfeeding
cio
dax
ruther
ropes
##fra
##wyn
##eras
##aste
challengers
scrub
astronomical
plaque
biotechnology
paralymp
foreseeable
tencent
kes
pesh
##57
##500
traced
cozy
##ollen
speculative
snatch
referencing
owes
retirees
trendy
sidd
flourish
smokers
stumbled
scooter
myrtle
courtyard
gruesome
1pm
outburst
##achers
edible
handler
raceway
kilometre
rupee
vinegar
cet
erupt
pem
backbone
collisions
hayward
abducted
sailors
interfering
herdsmen
wight
brides
teaming
##center
pusha
vera
conceal
rahman
paso
shameful
umpire
kitt
wl
##81
toff
##nington
fours
downloads
snapdragon
devastation
ravaged
feasible
macroeconomic
unreasonable
rbc
##non
clif
doe
roche
informs
historians
pregnancies
ozil
liaison
gis
kry
idle
obey
amazed
godrej
undated
dreamed
##nard
##uven
##oso
teas
accu
##flows
lett
fortnight
harvested
brushed
##funding
unrestr
inexpensive
sow
uj
##eem
##hin
##amili
shov
207
##elles
outweigh
editions
maf
161
alma
packet
##ycar
ratios
anthrop
axel
dictate
aesth
sliced
repugnant
gers
##87
etfs
lovullo
breatht
seventeen
persuaded
plumbing
tsp
playful
belarus
persona
stockton
macedonia
automob
organizational
osin
ecst
staunch
carnegie
##rp
##herst
##azer
macc
tunnels
diameter
magnet
facilitating
rashford
fiancee
breathtaking
tended
taps
chino
##andre
strips
turks
adjud
aux
hl
hiat
vow
##esting
drilled
smashing
northam
menace
##ettel
podcasts
eis
ingen
manny
crust
colise
demons
merid
hawley
530
rumble
dilemma
consolidate
##address
reminiscent
daring
dhs
##cam
##levant
strap
waterford
buyout
narrowed
moonlight
swimmers
nagar
ceremonial
##ibus
emil
parach
desires
instincts
unlocked
dickinson
barnett
oled
##uates
##illas
plague
detached
oppression
hears
choi
footballers
transporting
75th
oversold
horns
prudent
gronkowski
##gol
blanch
302
255
spokane
austerity
scripts
spoiler
sympathetic
faded
gull
sard
##bike
##eder
lefty
incarc
drafts
##flies
giroud
melvin
routines
premiered
paddle
1961
clarification
remembr
irrelevant
sindh
voucher
mow
shun
medie
##rien
rulings
revolving
sculptures
##quisite
shankar
overbought
beirut
##jon
##emy
motel
arcade
##espie
stronghold
paragraph
##gre
##yo
schiz
slams
moran
competes
broadcasts
trucking
6000
supplemental
ineffective
reddy
attendant
darkest
rossi
##oscience
158
informing
informative
##yna
333
karab
barrage
diminished
lehigh
caz0
adolesc
medieval
kourt
##imon
needless
315
advertiser
constituted
adamant
kissed
residences
duffy
rana
rude
##du
##ww
##01
##acs
spca
unrespons
mayhem
##iera
endow
163
melody
unfamili
bleaching
tallied
hormones
jalen
iqbal
republished
horizontal
forfe
##ections
crick
evid
blizzard
millionaire
mids
conceding
mcph
devote
commentators
dispers
grader
briefs
diversify
pcs
kathryn
aussie
jv
morm
butcher
unreg
##gher
cane
perceptions
##uga
barns
dinosaur
showcases
wikimedia
precautions
astronaut
depreciation
hungarian
coliseum
ica
##usions
##izu
elle
##uchel
visitation
kinda
damon
andreas
incorporating
perceive
tyrone
temptations
seaside
hydraul
dier
pins
vect
overthr
setbacks
gillespie
fiercely
hiatus
##db
forrest
trench
##obal
242
sturgeon
nicotine
ritch
501
piper
padding
aquarium
mushroom
sloan
accuweather
##oza
##igi
chau
meats
strand
ava
toned
fema
oslo
bangor
vaccination
carnage
ptsd
##ocus
##assis
microw
lori
cyclone
hesitate
arbitrary
disclaimer
thump
##inently
##alam
chats
genres
admired
##ographics
sherlock
undo
##breaker
##people
guessing
bacterial
velocity
hemis
##92
##esia
weights
norwalk
microbi
boasting
repayment
censorship
sesame
harrowing
pau
anast
##emaker
rox
secre
fireplace
superm
##ervice
sorted
warmbier
dependence
feminism
gadgets
separatist
dictatorship
haird
issa
subpo
specification
victorious
mitig
hawaiian
franks
swns
subpoena
pric
snapping
psa
debuts
tragically
annoyed
xinhua
uzbekistan
biting
eruption
##bm
suh
resumes
welding
patroll
dreaming
galaxies
kayla
lecturer
intimidating
kron
##ienced
##jack
outnumber
corros
##vester
supern
murad
babe
romelu
transitional
mccormick
##york
ade
unins
##uca
marilyn
drained
commissions
invention
grease
combust
rubicon
levelled
friendships
discourage
pantry
unleash
trolls
outsourcing
##vable
##utan
appalling
donned
transp
redirect
100m
##igroup
sufficiently
dealership
undercut
keywords
sulphur
nxt
##alom
chilly
juniors
statesman
##pora
bowel
mccart
rosario
styling
exclude
marriott
pundit
redshirt
##hey
##acement
spared
##uddin
##encers
##isson
veh
prominence
roundabout
kelsey
immersive
segregation
bmo
##jin
braf
maroon
##ileaks
golds
acquaint
breweries
mutually
tallest
insightful
ceramic
esteem
##mere
##icles
lein
remn
determines
##ajo
reunite
##orthy
hammered
cortez
undermined
derivatives
pash
##jiang
allah
communicated
unfounded
coastline
lakewood
boul
##pb
collaborations
motivate
registrar
upsetting
ancestors
wad
theo
boiler
researched
##tenham
fearful
saddle
randolph
gutted
implicated
chevy
marrying
huffpost
unresponsive
dared
lug
amherst
caravan
##rium
landfall
##uffy
pedal
henley
abandoning
manipulate
obscure
contradict
reinstated
slippery
ee
mf
##houn
arpa
schultz
westfield
multilateral
diarr
hurling
diners
batsmen
burdens
impul
photosh
morg
248
michele
loe
skyline
dutt
wikileaks
newfoundland
cahill
rutherford
2a
htc
adobe
callaway
winters
1200
milestones
taxis
landscapes
hooker
blinds
indefinite
##oton
##arya
joanna
##class
middleweight
stresses
stabilize
cumberland
##kah
##agements
##ulators
outage
##qua
##bajo
borg
pagi
lubric
involuntary
kop
mould
waved
##elet
##urous
shrew
arter
##actor
coch
putt
##ruff
salesforce
cheltenham
printer
polymer
cumulative
filipino
frenzy
vish
##abulary
desmond
457
yielding
suitcase
lockheed
hugo
gigi
lobbyists
mcgill
caffe
doom
trumps
beforehand
antics
camden
grandma
mccull
essentials
enhancement
stimulate
skepticism
tornadoes
clog
howell
removes
memos
184
geek
generals
breadth
zika
anand
308
keystone
##umbo
##echt
damien
escaping
munster
bax
bumble
faz
##wing
sai
##emic
polished
emble
angu
##uku
renamed
ronan
kitty
nana
pse
sama
##ku
##alli
peaked
glitch
planners
corrob
storylines
##borg
stickers
disruptions
triggers
weakening
disrespectful
unexpl
brafman
fec
gomes
##ocy
sped
redund
##enga
freeport
164
forcefully
miscon
archie
restrained
erica
memorials
mlbb
stamps
wv
##oum
##odone
guzman
analog
varad
screamed
32nd
liner
sticky
incarceration
mlbbase
mba
nguy
unman
defra
##show
antagon
predator
hyster
machado
religions
recipr
somali
tempted
js
rattled
##cestershire
##qf
chil
##indra
funnel
sweater
##embourg
hangs
unearth
##dl
reorgan
incap
##oyles
facade
181
landmarks
antenna
walnut
towels
tuning
jessie
katz
kalam
ambulances
lorenzo
kellogg
bav
##icio
prague
##usi
##ewater
integrating
brookfield
##ammers
html5
algeria
inadvertently
##jit
spans
drib
seren
violin
##intosh
cardboard
favourable
miniature
tuber
retrieved
abundant
hires
##bol
##isky
schn
snowy
fashionable
baths
translator
gonzales
addictive
nitrogen
nucle
osinbajo
vehement
lact
tents
##ssa
##mani
confin
##cribed
squash
crimin
driverless
lobster
revamped
gaze
webc
##ako
leadoff
smear
##croft
snakes
antoine
terribly
vega
methane
rosie
suzanne
bingo
unrealistic
unfamiliar
nguyen
##anz
compart
perennial
##raf
sentil
osce
##nelly
rupt
alignment
disadvantage
namibia
buchanan
trousers
mlbbaseball
capp
imran
polite
##avy
fein
playhouse
decker
##coon
unfolds
cathy
buckley
bumped
tubes
ogun
vettel
##7000
brunt
indeb
generators
285
immens
##hea
pies
##mw
##wald
whipped
alarms
spaw
flanagan
discrep
229
##haus
kenyatta
automobiles
remembrance
050
cen
evenly
protr
stadiums
##haran
kirsten
courageous
portrayal
slovenia
disarm
descriptions
payable
sanford
sidewalks
convoy
birch
sammy
552
luxembourg
siri
autopilot
stalking
jupiter
sikh
##gling
##84
theod
##street
fra
spate
timeless
props
anticipates
anticipating
romeo
indebted
lays
##hackers
thc
chp
ruler
imagin
baut
stirring
gentlemen
##igm
conner
##ocate
##ectal
quentin
paran
##athlon
entertained
ballard
camar
ukip
libert
verma
poorer
precautionary
wastewater
nineteen
sarasota
confinement
nile
nih
manually
addo
regained
detach
mcgee
darnold
vulgar
exported
adversity
mavericks
qtr
##jani
##illac
neh
sche
defects
mcgin
jenna
axe
vetting
trenton
##lade
##apa
interconn
lastly
putnam
saturated
boarded
palette
towering
linemen
loudly
puppet
rendition
mantra
520
##lal
##bt
##omas
thats
shenz
##chuk
orr
adorn
##iker
amr
noads
jung
foothills
basel
motions
sawyer
olympia
masterpiece
wolfe
pillars
nerd
resett
scent
##tyre
valves
218
walkers
civilization
bullies
undec
ruben
pyth
mentoring
##ratings
intermitt
##edes
disk
slain
pleasing
educator
auditors
contesting
dominion
£12
muscular
fernand
remnants
cps
vinc
##ectic
unaff
collier
snub
primetime
eyeing
bleak
ricci
lukas
directs
unsuccessfully
spearheaded
shapiro
schizoph
ritchie
lark
##otr
levin
usda
amassed
##quist
edo
calhoun
liking
##written
fabrics
busted
sewage
disconnect
aleksand
##adder
##thood
##apple
snoop
ceil
outsiders
aiad
merged
fleetwood
facilitated
pilgrims
schizophren
daim
soaked
skipped
litres
entrepreneurial
fuss
foe
pry
##urned
terrell
slopes
youngstown
bali
bioph
wilts
iceberg
examines
substantive
flirting
downstairs
aiadmk
ea
mocked
ald
para
vein
colorectal
prayed
neckl
toppled
eut
fats
fiona
ripple
inund
spit
marr
doi
roaring
allowances
attribute
stemmed
smugglers
burgeoning
tid
##arat
coney
butch
broyles
reperc
co2
defiant
glut
midweek
pots
##into
begging
ninja
bombshell
gwen
gemma
seagal
gourmet
repercuss
bitch
hf
kano
nand
nune
rave
##like
asph
twists
emanc
attire
greatness
farr
173
melted
fatty
collectors
accuser
rationale
lisbon
maldives
reimbursement
##dorf
1917
revise
bidder
narratives
tendencies
buffet
mathews
traumat
groove
laurel
crooks
tracer
gail
jeter
##look
cramp
221
hector
hammers
##gov
##bay
stool
##olics
syed
##comp
mechanic
ruthless
navigating
compulsory
bant
cag
malk
##vency
##thy
##aston
offside
canine
capex
sims
creed
halo
erase
##echi
premieres
commercially
kurds
ajax
dorothy
anchored
cheeky
fidelity
username
kah
##pad
##enburg
grub
##atha
inquis
finnish
pepsi
fumb
hare
nay
prized
##abl
##ellig
conflicting
dodger
1957
gibbs
compromising
##arthur
zeenews
absorbed
hathaway
##eous
spying
##ellations
els
racer
capacities
liberia
sprayed
ignorant
futuristic
canterbury
##fight
sms
paterson
crease
modelling
183
captive
nurt
mcdavid
burgess
lighthizer
robbins
traps
unarmed
apost
safari
casa
khos
tnt
varadkar
shenzhen
630
icing
yuk
##oway
ashe
playmaker
thanos
nightmar
billie
##gettable
foxconn
controversies
molested
deposited
affleck
ese
lena
##aut
comr
allergy
cooled
460
examinations
sheldon
##iggle
##rafted
wanderers
gritty
xxxx
redesign
gale
jt
rj
sigh
offending
uphill
runaway
paed
blockade
knowingly
vocational
shells
worsened
diaspora
fingertips
strowman
bode
piers
##wah
##igail
chee
roz
minic
defiance
milo
166
superc
militias
wooded
bagged
shrug
exploits
##aspoon
livestream
unforgettable
cafes
counterprot
chrissy
cinnamon
immensely
hul
sals
vive
##nick
##corp
compost
meticul
countered
arkady
digitally
antibiotic
retrieve
##82
##pable
alvin
fray
snatched
citigroup
hindus
##osaurs
prosperous
simplified
kourtney
kraft
nac
##rals
##mentation
crap
madsen
martyr
dismissing
harrisburg
cartel
corker
trespassing
taked
teaspoon
linear
nuisance
eugen
insurgents
##ambique
##oit
##fman
anecd
##emont
takeaways
milford
ledger
ernie
conservancy
740
fingerprints
spartan
prowess
inhabitants
fca
gase
yr
reside
##ileen
writ
187
mosqu
youthful
favoured
terminals
vigorously
tentative
mozambique
shoreline
dances
##onica
inh
conquer
ench
outset
decatur
donnelly
earrings
corbin
##riot
##ographical
sweats
biography
overseen
documenting
infrared
tragedies
lipstick
issuers
ligament
clifton
zay
##named
spont
##ffe
ambush
##aspers
igbo
francesco
metallic
lme
##olina
##ptons
elena
proponents
engagements
ideals
antiqu
championed
megap
##oiled
##93
coher
myles
redef
mcvay
ballpark
benue
galvan
kubiak
swallow
squirrel
juicy
##sy
##°c
##alach
unesco
##acho
intoxic
reggie
herein
swaraj
cameo
verse
bearish
altering
fucking
hydraulic
dues
jian
wards
##chen
warranted
cadillac
metabolism
ssw
##zmann
swung
238
horrifying
rejuven
dissatisf
tankers
spartak
russo
spiked
suther
vamp
##start
##irus
chh
playbook
233
##iscip
##iscover
fairgrounds
echoes
velvet
seamlessly
mimic
cladding
frightened
refurbishment
wiltshire
ais
jams
pity
##liness
alright
tric
disbel
guise
insign
erased
baba
groundhog
acknowledg
databases
alarmed
cbn
fend
piles
##zh
asda
disable
suppression
valu
locking
##iatrics
consolation
bribe
tusc
booze
efe
giff
kok
withers
seng
consisted
cruises
unpro
kirby
##falls
grammar
pfizer
deterioration
dismantle
bautista
bitten
pater
£40
saul
outlines
careless
##ryl
learners
donegal
crosswalk
undrafted
renewables
distinguish
moistur
##killers
unrestricted
daimler
##atr
hahn
##stroke
walkout
##ucey
philips
budding
awarding
vacated
brazen
fitchratings
bhatt
dwelling
unfolding
endeavor
remedies
tumultuous
bharatiya
noc
##gences
bricks
pervasive
respite
hacks
dismal
ossoff
lucknow
##values
commencement
squeezed
flashed
concede
traveler
forecl
416
mandates
ferdin
louder
qaida
disadvantaged
hess
sphere
alliances
officiating
##eworthy
explode
baseless
curbs
sickness
rehabilit
retrosp
aq
dyer
##fig
swearing
westwood
iris
benign
olympian
dubious
henri
##azeera
##oscopy
##winds
societal
dok
##nm
##alis
outbreaks
induction
striving
##otte
paste
waterways
erika
frameworks
steadfast
infantry
endeavour
bureaucrats
alyssa
##etan
##uso
consulate
secretariat
negotiator
apparatus
nicknamed
telecoms
havana
affluent
hemisphere
asphalt
jn
lf
vail
##94
sapp
spices
##india
pett
jefferies
admittedly
harvesting
concussions
disparity
oding
##esi
##alp
grazing
scour
defy
natasha
pundits
adrenal
a1
neural
abigail
##apest
passports
##shan
sonoma
misman
lackl
switches
illustrate
kamara
turbines
sahara
##mdb
palsy
trivia
fom
tass
ved
shre
allot
##inders
scho
insults
223
babcock
graders
jamal
bicycles
eagerly
deteriorating
aguero
luton
overshadowed
ceilings
##xi
##olar
##ivable
herpes
glaring
mao
hurley
jammeh
occupancy
scarlet
slugger
qtrly
repercussions
odinga
fencing
gael
##but
##97
orang
abub
exporter
wrench
joints
owls
christianity
ibaka
tracey
titanium
derailed
verbally
1mdb
##lich
modular
popcorn
kindly
##ethylene
biopic
##aji
##ozan
fullerton
gip
##brew
##ilitar
##abank
howe
misery
textiles
establishments
durability
buckle
nordic
hna
##eh
##vr
andr
broth
roeth
presided
##weet
295
crimson
criticisms
rejects
gamec
brilliantly
murdoch
correlation
forcibly
fizz
jing
kogi
##fk
aman
playboy
obasan
virg
odys
bruises
fascinated
crawl
untreated
notoriously
kamp
firstly
fielded
budapest
naples
fertilizer
honeym
ict
sizable
dehydr
adolf
delo
swanson
irresp
darrell
ecology
mln
taiwanese
irrespective
bist
##lar
##icist
roar
impover
nationality
congressmen
painkillers
335
puig
aidan
disciplines
kilometer
federally
tirelessly
lemonade
secrecy
vu
newtown
mara
deserving
tempting
payrolls
monterey
inexperienced
##83
atkins
carbo
bln
contag
extortion
domest
screams
plantation
comprise
tammy
bustling
pandora
obasanjo
jain
##olet
##adic
chassis
porto
262
sudo
diversification
scarce
pioneers
impartial
regeneration
ferdinand
motto
##rio
##hous
##amas
boiling
demilitar
cheg
biomed
learns
425
depths
nonprofits
orchestr
jihadists
lankan
kaspers
##lt
ammon
emerson
salads
top25
metc
easton
wilbur
dunkirk
synchron
1953
injections
whistleblower
pyramid
marquee
fiesta
tcu
coerc
contends
aparth
##aldo
##queen
cabrera
540
bello
horrendous
glucose
lich
##lund
inver
winchester
mccall
rhe
##2018
standardized
coffin
lodging
bolstered
adityanath
2m
gucci
##oqu
##yah
##elof
chanted
spd
partying
wherein
subtr
##oooo
510
sightings
##lisberger
ligue
coding
vomiting
cinder
tones
##adr
outlining
pee
midw
banquet
dermat
crowdfunding
bidders
kellyanne
desperation
bruised
tailor
yamaha
##culosis
tuberculosis
##iland
##ogo
backp
##issible
watchers
299
vanished
mayoral
attachments
disagrees
intuitive
lotto
ouster
##techn
##elig
scars
behold
giraffe
breakaway
optimization
scaling
rahm
bustle
veterinarian
kramer
roethlisberger
hanna
clan
audrey
landscaping
pertinent
ubiquit
mosquito
##agin
##ibal
emper
publicist
completes
frontline
bloggers
hoop
buffer
rickey
elevate
gile
luna
flores
winfrey
darwin
crowley
exhaustive
refrigerator
mariota
antarctic
grayson
dictionary
kb
yum
intest
##001
downey
##ahs
cleansing
openness
infused
garrison
##207
frustrations
convened
jerem
##estyles
dots
guts
##vish
leuk
playback
backer
distraught
sami
patriarch
hierarchy
anadolu
##wo
##arton
doherty
##sov
mailed
biscuits
muff
woe
##itives
tramp
twitch
accra
##ointe
betts
1920
wrang
idris
investigates
digs
heartbeat
palms
arpaio
foes
gior
vapor
##cers
placebo
screenplay
viking
philosoph
bogus
ethiopian
mahmoud
mccartney
##mur
unsust
principals
felon
muted
tanya
instructors
intensify
gravel
shepard
applaud
metabolic
retweeted
sabres
illuminated
thakur
vehemently
e3
rour
##itova
withheld
brie
doha
herz
drying
amelia
coaster
centrist
makeover
authorize
ticking
msu
rhys
counterint
shipment
##keyvalues
napa
indulge
crusaders
dugg
##fair
##tslot
##odus
##apgh
interd
helena
breeds
handmade
realizes
177
elemid
##iliary
dividing
cabinets
tier7000
aolhtb
gurley
hbkeyvalues
g7apgh
pomer
plunging
rubiconhtb
##tslotname
g7apgheo
dice
dara
mj
##pid
##waters
wei
regiment
suspensions
##beans
undue
karls
embroiled
booths
shedding
worsening
hawkish
n1
vets
##kenny
stout
##amins
chou
##assic
ape
companions
menus
243
centerline
welter
texted
##oomba
sponsoring
cyberatt
##committ
metaphor
tink
uf
##wani
anam
sains
arn
incar
expulsion
##eyes
191
remix
lowell
edison
idiot
##umba
buyback
liar
krug
counselors
harassing
cordoned
razak
scrambled
dianne
lobbied
flickr
caffeine
apartheid
guter
beet
anes
##ecker
rounding
scrip
romo
mortem
rumoured
##space
mammals
discriminate
euthan
dail
yulia
##creen
##bble
frog
cone
brat
decay
realization
funn
seriousness
clinicians
osaka
embroid
astronomers
underscores
wandering
jubilee
degeneres
gilead
dx
giles
jamb
##asaki
whal
upro
callum
distractions
debating
erit
##forth
580
brilliance
niall
oyster
asteroid
incarcer
cog
xc
toow
shul
exodus
pregame
##licity
stevie
mcs
coping
337
constituent
preceding
ketch
sime
twil
indo
quinc
delph
superman
episc
dinosaurs
essays
0409
gaa
cultivation
mischief
gears
##ben
##acom
fortress
##olta
twp
##oye
womb
hereby
wedge
collin
219
racers
primaries
bagley
##iciencies
eclectic
validity
suspicions
tranqu
##belt
threes
asa
##ource
prominently
emailaddress
camille
rescind
wonderland
categorized
860
kait
confederation
prevailed
bibl
karabakh
dade
sweeney
##bite
##arro
##asian
harri
proclaim
wwii
cheque
hillside
baloch
aspire
besp
##cycl
implants
giov
corridors
dishonest
dag
dahl
hof
##path
aldr
carve
emmer
demographics
prophet
##shield
sexism
227
connie
cheet
rockwell
1956
jasper
fading
gou
kra
vant
##listed
##waves
##reau
##etty
##ersen
unthink
##acha
startling
morality
vols
mosquit
slamming
intrigue
skeleton
tian
##dain
alta
chaud
frantic
abre
compounded
whichever
presumed
##undi
stocking
inflatable
heartbreak
convict
booster
meaningless
hugs
prestige
claus
bromwich
contemplating
fluctuations
iom
##aq
impunity
174
sprained
702
mastermind
ferris
disappearing
illustrates
dye
buddhist
jolie
ultrasound
gim
hirs
jazeera
##mic
##mah
##icular
onwards
regress
##herald
append
membr
sushi
suspending
mohan
logistical
##ozy
controllers
fischer
burglar
monkeys
leroy
heed
##outa
waive
273
expressway
eyel
cavani
hoos
taped
linebackers
mullins
mocking
fostering
discarded
kettle
lust
siss
##pca
reap
schro
genetically
looms
admiration
sandoval
births
ode
rigged
repealing
lectures
culprit
appellate
##atl
stacy
outpost
##trak
##soe
##ussen
##upe
proclamation
sentifi
237
lifestyles
##heit
dunford
profoundly
accredited
maze
##itian
seo
##ipedia
cries
eviction
schm
coloss
nightly
##odynam
humiliation
rulers
hamburg
berman
motorist
motorway
impressions
saraki
mahal
praises
dwarf
hanks
nods
retaliate
contingency
theoretical
resembles
ubiquitous
pug
ripe
##acola
amort
##undy
limbs
secretive
distill
##banks
jeffery
hassle
betrayal
gynec
lettuce
guterres
##icates
##icef
topical
possessed
sandals
dangerously
##gaon
permissions
tarn
quotas
crafting
mcmill
exploiting
solicitation
inserted
leinster
lass
##zewski
##isel
##iku
reposted
carer
252
humbled
313
conductor
bumps
parishion
smells
bays
##ayat
itiner
sofa
opel
smes
##phal
##alding
connolly
eras
sweets
sizeable
influencers
oakley
dads
doubtful
circumstance
giul
blossom
annexation
unicorn
madhya
hesitant
emancipation
##reb
##otics
trol
##oglu
appalach
blur
eller
defunct
coles
autobi
yorkers
activation
pickens
sherry
braden
diploma
weakest
flavours
trimmed
kvvu
rescheduled
kaspersky
unsustainable
cpl
vile
##opath
unpar
mcad
unlucky
layoffs
lewandowski
apologies
sirius
flashes
appropriations
subdued
vaughan
krishna
uranium
##ativity
acosta
##ooks
ironic
ensued
deductions
giancar
##waite
oxide
nikola
ordinator
oreo
##518
dey
##antically
inflated
combating
harmless
nikolas
feminine
mushrooms
abubakar
toowoomba
jem
rother
unicef
simons
##vington
envy
huang
derozan
punishing
##itos
unres
glover
angelina
60th
respectable
olig
bridal
rabbi
muddy
##partisan
crooked
flanked
crocod
lorraine
minicamp
cil
nug
pj
##bread
##amics
ants
##umab
noteworthy
##istine
divides
drinkers
burnett
comedic
griffiths
plasma
##lbs
##91
thefts
pritch
##thorpe
briggs
unim
allig
bland
underwood
anglin
indicative
separates
hamper
paradigm
jihadist
inaugurated
srinagar
giancarlo
ein
kep
##itution
onsl
worcester
usga
presiding
contended
addicts
patton
rests
immort
blasting
lcd
detrimental
ikea
honeymoon
rourke
piet
##asive
reina
choked
##iken
evasion
defying
simulated
raq
##text
misrepres
390
##aja
wrestlers
aeros
greyh
accolades
4a
ives
kha
poke
tg
zag
hems
slc
greenfield
behaved
##osterone
cruising
tsun
predictive
ravi
intimidated
hectic
heathrow
encryption
##rorism
biblical
btm
gosh
wir
##iton
##alla
hels
authorised
oversized
characteristic
forgiven
wrestled
soybeans
waged
##pf
##zig
##staff
##otv
##oks
ensh
coates
whereby
staten
anglo
stocked
sensory
novich
625
##block
nikol
hydroc
rehearsals
succumbed
##orus
oft
exert
emulate
bux
stature
currents
modules
histories
reinvent
unnot
mascot
siemens
danced
dhar
kro
scept
zinke
emea
guad
farah
259
buds
##inoid
pinpoint
streamline
bridget
simplify
scathing
ailing
doming
##aris
##adia
algae
mango
crm
thrott
confid
264
wilkins
tightened
760
ruins
##valued
##uyama
cache
rath
##hoff
inelig
marse
agon
1030
insens
locating
headset
deepening
entertainer
lindelof
sequences
gonzaga
csu
stirling
wreckage
dazzling
920
##oil
##tb
##adish
marley
##trod
janice
sniff
ecological
abduction
relaxation
channing
tacos
poole
unthinkable
ferv
vix
##anovic
arna
caramel
invaded
1918
statistically
safeguards
ghouta
cube
prohibiting
brunette
molecule
turbulent
sainsbury
tms
##ocon
coul
pleth
meme
condoms
transformers
riped
hauled
disagreements
conveyed
untrue
baxter
domestically
episcopal
copp
##ecc
##otion
doncaster
##beau
limb
nonf
dolls
560
catholics
670
maneuver
peshawar
plethora
tamb
ال
##wat
manus
thereof
##olla
fullback
249
millard
extras
verde
toughness
diner
derry
broadcasters
kardashians
handcuffs
fremont
keegan
1m
##orio
##etus
fraught
recapt
calvert
ester
viewpoint
okanagan
gallant
motorcycl
1959
exceeds
debra
ponds
peso
priyanka
refurbished
piss
rails
##das
##ipur
outf
polk
flatt
slashing
moderation
summons
carlisle
rooting
masked
marginalized
unparallel
pah
##lees
chub
marys
corin
swollen
netball
customary
##apeake
345
##hei
sarat
procedural
sinister
comedians
blessings
underscored
unmanned
##onian
inhal
##ilk
##eties
acids
scammers
##iversity
decidedly
aiding
reinv
1940s
£25
bmc
moyo
rmb
infringement
maverick
confiscated
zel
##nies
sailed
deandre
##ipo
marica
agost
scaff
testosterone
anglers
gerr
344
embod
sudanese
cosmic
soybean
buckets
tomlinson
unparalleled
baz
hulk
nipp
nda
wti
##good
abiding
ene
##obar
centr
goodale
##oupe
majestic
244
camilla
lofty
blocker
mandy
dramas
passageway
hates
ih
oust
##tale
##erra
##amat
feinstein
downfall
slider
approves
entrenched
psl
repairing
aquatic
hollande
##lifted
karlsson
incarcerated
probi
clive
##uben
sunk
believer
specializing
saturn
marshals
ebola
divergences
breakdowns
holloway
oscillator
cramer
hypocrisy
aksh
##gas
##wc
##oker
differentiate
envis
heartland
905
calcium
gigs
nailed
chesapeake
aramco
evidenced
cic
koz
nf
ratch
##zone
amput
##achal
defied
requis
furry
colleen
dombr
husky
937
pixar
whisky
assertions
peggy
shiite
claudia
##eaux
##lp
##oran
alc
complying
##uble
##inka
nonpartisan
constellation
lien
swimmer
greywind
muller
harbaugh
azerbaijani
flawless
##money
##ianz
skys
subord
greed
mcbride
christy
magp
malay
curved
##hawan
eatery
##urai
trub
carmel
airtel
pmi
bulbs
rubble
##cyber
reopening
dupont
rohit
pencil
loehr
unnoticed
##tas
##wed
##z1
butte
amus
flipping
##weights
sunil
##anao
garment
348
labeling
crawley
huffington
och
##bench
##uously
##hir
compression
##ailing
assort
##eko
showman
goodell
glue
gloom
sling
profiled
subscribed
cebu
innovate
kelvin
munoz
ogden
wikipedia
ancestry
buddies
archaeologists
schizophrenia
cues
hove
lour
##year
##trans
##ctica
idr
##cox
reactors
dwyer
congrats
rupert
leveraged
perpetrator
conformist
depleted
ond
vowing
##rays
leased
arund
homegrown
swot
danilo
terminally
entitlement
reluctance
noodles
impoverished
ej
kobe
beads
shines
upright
croft
disco
shortest
malibu
sherwood
correspondence
tussle
rakh
tert
##illions
overh
directory
departures
##govern
culturally
336
olad
1942
buzzing
reassuring
intrigued
xfinity
bouts
lv
tet
tess
##rac
the22
##andi
timer
elgar
foxes
vacations
explanations
£500
exemplary
sacrificed
uneven
resentment
emboldened
sutherland
quincy
taur
##uilt
hep
adel
sloppy
estonia
inspires
extracted
805
4000
ayo
obliged
ghanaian
wetlands
emeritus
vocalist
antarctica
humiliating
blatant
pseud
kf
ober
pess
storing
unification
grimes
scant
payload
buildup
taxable
violently
waver
multitude
316
misbeh
organisms
pudding
blistering
upp
253
shopper
shelley
eliminates
scratched
bolivia
wann
##best
alton
atp
playwright
##ahar
demp
slips
12pm
violet
responsibly
bowles
intricate
curves
ethere
barrister
1955
streamlined
postpon
stamos
rusher
grappling
prostitution
raff
##rim
shady
fru
tram
allardy
decomp
raider
squar
benches
appliance
psyched
kosovo
1920s
mcguire
carbohydr
allardyce
henson
worldcyber
fared
visuals
317
encarn
uncondition
springer
casually
precarious
fluor
synonymous
neurons
##keepers
monumental
myths
alvaro
plaus
oscillates
worldcyberhackers
laced
andhra
ancel
##uliar
##akens
deeds
clocked
paragu
harrington
finalised
garry
crossings
flyer
existential
jerm
##guided
brainer
610
cherished
hesitation
pensacola
disproportionate
arvind
clyde
encarnacion
dhawan
shocks
paycheck
cancellations
rebuilt
type3
type4
antique
recognizable
tabled
benchmarks
880
1946
concentrations
constructing
adversely
bnp
pinnacle
bistro
nour
zte
##tops
##400
clusters
imo
caric
carole
tease
embe
##umps
1300
leth
leary
honore
legalize
definite
decorations
lucasfilm
grapes
biking
mendoza
stylist
culmination
envisioned
novichok
eileen
kios
##kamp
iniesta
##ionage
##orte
draining
firsthand
timeframe
##azoo
glor
##ewr
netting
beginnings
tabs
ajay
mikel
nausea
mav
##dh
##elcome
offload
agar
engages
treason
counterter
behaving
ninety
bethes
peculiar
sparrow
declassified
panda
choke
##abilia
discovers
visions
raul
254
boardwalk
sported
scenery
truths
striped
cockpit
complementary
sabotage
disbelief
raqqa
io
kj
##jad
##eard
2050
ari
parted
##izen
accr
##flower
skyl
footed
pricey
martins
fillon
bonding
franchisees
baez
staircase
2k
bitters
wob
##asso
##asley
##etal
##stow
bram
morse
restitution
westport
deepen
tabl
carrots
afforded
hovering
phelps
emperor
ican
loll
ripping
yash
##itic
##icating
##ocious
ley
mea
covington
capitalist
commissioning
flooring
##115
microbes
zlatan
embezz
mx
tester
##gios
##nite
##abies
expiration
glenc
bigg
legged
camila
richer
methodologies
henrik
comparatively
spinoff
enhancements
##layer
gpu
##runner
brantley
abdomen
dej
newswise
edging
warpl
subcommitt
sunscreen
dogged
husbands
##haar
luca
oxlade
hillsborough
viktor
rosenberg
positivity
yogi
nostalgic
forsyth
mormon
gud
##otle
##ivation
worsh
canv
manu
quer
##white
1954
vibes
persistence
divert
##occup
bethesda
korn
miy
##wild
tron
##ichi
amtrak
transf
melod
melinda
berries
precinct
widened
owl
arabian
tutor
gork
liang
rund
##ril
beams
depp
brah
donut
cologne
greer
limelight
macon
francona
memorabilia
disclosing
frederic
bethel
graphene
abhorrent
turboch
improvised
hustle
charismatic
multicultural
unsurprisingly
assortment
##dish
plaster
spelled
##endously
mare
compress
appointing
enjoyment
412
877
hanover
deception
aero
hays
##anza
ched
##opathy
suicides
canned
##obo
obi
sane
berk
boosts
scarf
accommodations
capsules
kiwi
serbian
nnpc
variables
pulisic
hairdress
8am
caves
gaw
##mia
framing
agile
##ixel
souven
sled
subaru
campaigner
denouncing
moff
multif
californians
settlers
motivations
gearbox
attachment
gladstone
honourable
ponder
prescribing
deteriorated
bespoke
hdr
omin
ves
cannes
manic
##bria
belize
retains
corb
hardcore
danbury
##ciences
ramps
zimbabwean
kaplan
ceramics
nnw
downgrade
landowners
ineligible
somm
##pel
resemble
##ianna
bellev
instal
brees
##oppable
fantas
naidu
hartley
tobago
mazda
infinite
agh
dari
iain
##mie
shik
saff
knocks
deli
##prod
giveaway
checkpoints
maddon
perfume
470
##global
crowns
conspired
tumble
hrs
cynical
counsellor
##593
ransomware
lique
nip
zac
##vale
##rios
morrow
gallup
botched
lithu
fugitive
cerse
fitt
litt
tinder
wanda
yeast
onlook
##ocally
brushing
barlow
discern
##uckle
forwarded
cutler
dungey
java
breaching
gabby
tablespoons
diminish
purportedly
duluth
exacerbated
cormier
bakers
naugh
ndt
yuc
##atz
pollin
interc
transpl
menstr
499
##efe
thumbnail
princes
leukemia
cersei
hoe
jails
sinn
##pless
boiled
roadmap
inflows
forceful
karim
locke
chunks
swirling
ck
gart
ola
tipp
ys
##alta
hain
##antan
herm
evade
greets
mainst
designate
esports
castillo
##ymour
rabbits
pronoun
trubisky
dors
heter
nang
##wired
##icle
stains
##imal
##abel
alli
##ffen
##hne
##ioch
windshield
257
eroded
seldom
brandy
hinder
spectator
treasuries
tumour
fabricated
nexus
baird
roommate
##bana
##vn
##artis
incite
expiring
reconn
tequ
quizz
relinqu
typewr
##mpo
faulk
lucie
615
papua
authentication
orchestrated
ezek
microwave
biomedical
onslaught
ritz
##asco
anime
ante
addison
insom
234
##yll
revoke
321
wisely
cpu
offspring
##inarily
goats
composure
assange
simm
calib
##haji
handset
raja
lorry
entitles
tossing
quartz
dysfunction
betrayed
voyage
pianist
mafia
avert
rer
upped
wf
##eel
##uaries
##edin
brist
gru
##ansky
307
metz
caul
unlv
gaines
sticker
contraceptive
redesigned
tiles
thumbs
##ppy
##ondale
irons
##coal
stockholders
captains
macqu
sadio
begs
anchorage
plummer
mathematical
cuff
lured
nus
rade
viz
tobi
allotted
##train
soar
##oused
imply
##roft
declares
nazism
gentry
kyrgios
archaeological
matsuyama
gild
nieto
##etok
sealing
noticing
parity
finisher
##ometers
funky
780
mummy
cherish
stirred
devotion
##ojis
desserts
caitlin
1a
##enthal
arians
allianz
buk
1600
juul
##ocratic
halluc
charlton
ashwin
lydia
apologizing
spraying
strasburg
##igley
knots
helpless
majesty
mcqueen
daven
bananas
deadlock
moons
italians
415
vivo
jumpsuit
regretted
gruden
counterterrorism
b593
ui
woj
##jr
comet
##opl
tripp
seymour
unlic
phi
classmate
analyzes
truex
simplicity
bottas
listener
fluids
cohort
syndicate
intimidate
zarif
monsanto
unequivocally
gins
##state
quits
baller
poets
splend
lunchtime
brokerages
##xxxx
relievers
coincide
explorers
enrichment
jaws
sizz
##rom
##qb
##igl
##ectomy
ifr
informant
calorie
paolo
riske
crossbar
briefings
##comings
narrated
adjustable
surpassing
prematurely
demilitarized
cib
fand
ruck
##notes
##atore
alamed
saban
##athom
homepage
shortcomings
261
rebuke
hallmark
distillery
huron
brokered
ramaph
ellsworth
psycho
nottinghamshire
piracy
arraignment
lombardi
embryos
caliph
patrolling
jelly
nts
png
##imps
unpl
envelop
regimes
souza
dems
maher
bret
arrows
musa
276
ethos
mailing
viewership
buoyed
euc
##mall
##zar
haf
byu
##obic
smil
joa
sharap
actionable
forehead
silenced
citation
softbank
wrongful
outpouring
overthrow
salsa
unlicensed
cme
fang
exquisite
marquette
recs
provoked
topeka
customization
focuss
contractual
predatory
bloodshed
pathology
burner
hershey
canceling
emphasizes
scratching
brisk
pegged
griezmann
hilary
accreditation
covenant
odyssey
scaffold
##atum
##anks
##alities
trun
##umenthal
okla
browne
nominal
azure
diagnose
jurassic
adventurous
£200
decorative
paradox
whirlwind
lithuania
pines
conqu
##ifiers
##onta
skipping
258
paused
humility
directorial
britons
35th
obsol
mirac
reprieve
landslides
insolvency
dprk
enshr
fon
ht
##alan
yous
repatri
noisy
espionage
##ymes
duran
kristin
bursting
##assee
voltage
asheville
ramaphosa
faux
het
tau
haunt
roost
invests
equitable
broaden
diaries
complied
casper
georgian
occupying
baum
echoing
fragmented
adversaries
marseille
tertiary
kak
oat
##burs
onshore
trough
pluck
haslam
worris
##icki
##upd
salford
biden
picturesque
fabio
longh
exaggerated
repetitive
sharapova
obsolete
ahn
cte
lm
mok
##xm
##900
shaved
heyn
indycar
interiors
sanju
bookstore
awakens
garfield
matteo
ronny
birdies
8000
mutation
conception
1949
manipulated
hogg
mellon
practitioner
adrift
botanical
boc
##league
arre
pixels
discretionary
nightmares
worrisome
hips
##oug
alias
wex
keane
navajo
nicklaus
folding
vitamins
coincided
pirate
excerpts
rousey
bellevue
tud
##kers
progn
enugu
##grave
marketwatch
micha
radically
groundwater
displacement
pollock
##aea
##aloosa
boucher
pledging
unstoppable
hortic
surrogate
theodore
##elligence
macquarie
haunting
unwa
##ounmpo
##inky
##arging
##ooten
memes
colombo
antetok
audits
rockford
recognising
samson
##eseen
novice
exercised
bradshaw
cyril
necklace
bows
glee
vox
##anian
##estown
paral
belmont
##iams
infusion
seeming
267
misguided
pharmacies
efficiencies
##auga
bartender
kristina
provocation
inferior
interpreter
biodiversity
tipper
##mobile
##ouched
evgen
##renheit
likened
orderly
turtles
labr
clinching
muir
carrick
##ckes
mustangs
peacock
pascal
corinne
##naires
##hoot
##kart
stare
shil
carla
353
trusting
sadiq
isolate
bruising
vitro
aapl
adapting
possesses
encrypted
abdominal
fahrenheit
bledsoe
jang
pawn
wd
##ecito
heap
ats
wasp
##umont
exor
goy
##quel
parades
##azquez
sundance
collapsing
supervisory
wrex
brackets
psychiatrist
6am
lizz
##zu
hails
hailey
resusc
timeout
oph
wrapper
##lerosis
racists
bathing
regulars
gwyn
ardent
##iskova
counterprotesters
twilight
cis
ln
##inted
##alal
pliskova
goof
implying
parall
##shahi
teller
hurst
pediatrics
bernabe
##iyar
gangne
stunts
lords
temptation
##withstanding
##mire
##fors
##elic
##usch
encro
recess
blumenthal
elgin
##brush
harming
excise
cancelling
clicked
368
mosaic
linden
lexus
revolves
[...]
